#version: 0.2
e n</w>
i n
e r
e r</w>
c h
t h
c h</w>
o s
a p
a n
ap os
& apos
&apos ;
e i
s t</w>
h a
i e</w>
e n
o u</w>
a s</w>
u n
i ch</w>
a r
o u
y ou</w>
s t
a l
e l
o n</w>
e s</w>
in g</w>
a u
e in
g e
i n</w>
th e</w>
o n
o r
w i
t o</w>
i ch
r e
i t</w>
a n</w>
i s</w>
m e</w>
t e</w>
&apos; s</w>
s ch
n o
i st</w>
i e
I ch</w>
ei n</w>
a s
. .</w>
ha t</w>
o l
. ..</w>
ich t</w>
a t</w>
t i
b e
v e</w>
e d</w>
i r</w>
n icht</w>
S ie</w>
d er</w>
o m
er e</w>
an d</w>
r e</w>
&apos; t</w>
o r</w>
h e</w>
i g
l e
o t
m a
d en</w>
b e</w>
v er
d u</w>
w as</w>
l l</w>
l i
r o
s a
d ie</w>
s e
un d</w>
d as</w>
k e</w>
a b
o f</w>
d e
ein e</w>
r a
h t</w>
th at</w>
h i
t en</w>
u t</w>
w a
l e</w>
Y ou</w>
s e</w>
g en</w>
q u
d e</w>
u r
i t
s o</w>
l a
o o
t er</w>
b en</w>
ou r</w>
d i
n e
c k</w>
z u</w>
e y</w>
e a
s s
r i
c k
h en</w>
qu ot
quot ;</w>
& quot;</w>
l y</w>
no w</w>
n d</w>
h r</w>
d a
ou t</w>
e t
h ere</w>
d o
an n</w>
c e</w>
in d</w>
as s</w>
t h</w>
@ -
@- @</w>
u s
s ie</w>
g e</w>
&apos; m</w>
i l
f or</w>
el l</w>
m it</w>
D as</w>
l o
m y</w>
t e
ch t</w>
ig ht</w>
ha ve</w>
&apos; re</w>
al l</w>
S ch
u st</w>
u m</w>
th is</w>
f ü
s p
on e</w>
m m
y our</w>
w e</w>
T h
wi r</w>
o me</w>
ar e</w>
a t
k now</w>
b er</w>
m ir</w>
m e
w ei
ou l
ch en</w>
t a
g o
d o</w>
no t</w>
W hat</w>
w e
en n</w>
un g</w>
i s
I t</w>
au f</w>
ein en</w>
i r
i h
t r
m ich</w>
f a
e m</w>
th ing</w>
D u</w>
W as</w>
d er
d ass</w>
t s</w>
o w</w>
f f
s u
l ich</w>
d on</w>
G e
c an</w>
wi th</w>
n en</w>
&apos ;</w>
a l</w>
al l
ol l
g en
a y</w>
u r</w>
t er
oul d</w>
m en</w>
h er</w>
h r
e u
l ei
w hat</w>
v er</w>
w an
fü r</w>
O h</w>
n a
v on</w>
s i
s h
U nd</w>
en t</w>
wa r</w>
o p
W e</w>
&apos; ll</w>
b a
W ir</w>
J a</w>
t o
d ich</w>
ha ben</w>
w er
j ust</w>
w or
E s</w>
s ind</w>
th er</w>
wi ll</w>
k om
ge t</w>
N o</w>
wi r
g t</w>
b r
ha be</w>
u p</w>
g o</w>
b er
A nd</w>
li ke</w>
g i
m an</w>
ei t</w>
th in
ss en</w>
au s</w>
w h
hi er</w>
d y</w>
a m
r u
hi m</w>
A l
ab out</w>
g u
z t</w>
r ight</w>
H e</w>
w ie</w>
s en</w>
k ay</w>
b in</w>
ti on</w>
T he</w>
u s</w>
ö n
f or
E r</w>
de m</w>
V er
v i
f e
oo d</w>
u t
e t</w>
w ar
A n
d ie
d ir</w>
B e
el l
un s</w>
no ch</w>
a r</w>
ma l</w>
T hat</w>
N ein</w>
M a
ü r
u l
a m</w>
th ere</w>
ea h</w>
r y</w>
o h
s ich</w>
on n
om e
d s</w>
in e</w>
i d</w>
al s</w>
t u
d a</w>
f t</w>
b o
e s
go t</w>
n ur</w>
D ie</w>
st i
k ing</w>
e m
al ly</w>
ou g
&apos; ve</w>
g er
S o</w>
wan t</w>
ch e</w>
t t
m or
b t</w>
en d</w>
y s</w>
W h
w n</w>
m us
n e</w>
ap p
f en</w>
n o</w>
ö r
b ut</w>
Y eah</w>
oo k</w>
thin k</w>
e l</w>
H ey</w>
wa y</w>
d n</w>
ein er</w>
u m
au ch</w>
S t
et zt</w>
th ey</w>
st e
s ein</w>
A ber</w>
l au
f u
ab er</w>
ih n</w>
er t</w>
ha st</w>
z u
e x
l ie
en t
f e</w>
i hr</w>
k ann</w>
i m</w>
d r
g a
s ome
s el
w enn</w>
k ön
sch on</w>
i f</w>
c on
B ut</w>
W ell</w>
ä n
ro m</w>
mm er</w>
d en
r an
ein em</w>
l an
s he</w>
se hen</w>
m i
p a
f f</w>
m o
A u
I h
a c
wir d</w>
ol d</w>
c om
onn a</w>
se e</w>
N a
re a
O kay</w>
W ie</w>
f rom</w>
R e
g s</w>
g onna</w>
p er
ba ck</w>
t z
ou r
te t</w>
ti me</w>
h is</w>
w oll
wei ß</w>
r ei
h l
g ut</w>
go ing</w>
ha l
e ar
be i</w>
an n
A r
st e</w>
au se</w>
e c
m eine</w>
j a</w>
g an
w o</w>
b ist</w>
H a
g er</w>
r ie
D a
t te</w>
au s
i el
k s</w>
i c
f in
st en</w>
w ä
c ome</w>
os e</w>
th em</w>
o t</w>
di d</w>
j etzt</w>
L e
on g</w>
h el
do ch</w>
kom men</w>
v or</w>
an d
wi e
p ro
S e
as e</w>
v en</w>
ich ts</w>
an y
g el
l u
& #
&# 9
ch te</w>
r .</w>
w ere</w>
o m</w>
be en</w>
p la
T a
S he</w>
g ood</w>
Th is</w>
U n
sch en</w>
ol l</w>
Y es</w>
Th ey</w>
il l
da y</w>
i mmer</w>
W enn</w>
c o
t ed</w>
wer den</w>
J a
na ch</w>
s oll
st er</w>
o der</w>
W ar
au f
w ould</w>
W a
p p
l l
an k</w>
b ei
t al
ne ed</w>
&apos; d</w>
mus s</w>
s o
ha d</w>
D er</w>
l as
H ow</w>
ti g</w>
m ein</w>
ü ber</w>
S p
ie l</w>
b y</w>
d ar
S a
s ome</w>
h ei
E n
y ing</w>
er en</w>
ge ht</w>
et was</w>
d ann</w>
s on</w>
i m
ver y</w>
C h
it te</w>
mor e</w>
h ör
l ich
w ür
eu te</w>
h ow</w>
K om
wh o</w>
t ra
hr en</w>
p ar
me hr</w>
an y</w>
p re
k eine</w>
s er</w>
all es</w>
d es</w>
k en</w>
n ichts</w>
s or
r ü
c ould</w>
ta ke</w>
s s</w>
i ce</w>
i g</w>
h ä
u ch</w>
di dn</w>
ti on
M ar
oug h</w>
m ü
sa y</w>
C ome</w>
ge hen</w>
w hen</w>
h ea
do wn</w>
ß t</w>
v or
Wh y</w>
er s</w>
k l
h app
k i
E r
te st</w>
ma chen</w>
F re
t y</w>
t ell</w>
ver y
ge f
o b</w>
ü ber
c ause</w>
I hr</w>
h er
some thing</w>
p e
er n</w>
I f</w>
lei cht</w>
st a
A b
o ff
g lau
to o</w>
wie der</w>
c i
sa gt</w>
tu n</w>
D an
T here</w>
I n</w>
sa gen</w>
ha b</w>
D on</w>
f i
M r.</w>
le a
m on
ha r
o kay</w>
d re
W ei
A ll</w>
re ally</w>
k e
o ther</w>
s ich
M ann</w>
le t</w>
ma cht</w>
an t</w>
Ih nen</w>
d ig
ma ke</w>
z e</w>
tt le</w>
ge sch
ü ck</w>
w here</w>
e p</w>
ha s</w>
o ff</w>
ih m</w>
d ing</w>
I n
F ra
L et</w>
t ter</w>
f ri
kön nen</w>
i er</w>
p as
n ie</w>
o und</w>
w er</w>
me an</w>
st ar
lo s</w>
ne ver</w>
li ttle</w>
l es</w>
or t</w>
s c
a f
m t</w>
es s</w>
z ur
s er
b el
o ver</w>
t ing</w>
k en
c a
n er</w>
oug ht</w>
k t</w>
br au
l os
I st</w>
E in
le ase</w>
v ing</w>
op le</w>
L i
z en</w>
bo dy</w>
j e
u n</w>
th en</w>
al le</w>
z um</w>
D o</w>
k lich</w>
u re</w>
p o
sh ould</w>
g re
ü ck
wer de</w>
m in
g st</w>
sel f</w>
sa id</w>
un der
E in</w>
s ch</w>
kön n
mü ssen</w>
ß en</w>
b le
gi bt</w>
vi el
o d</w>
d enn</w>
do ing</w>
w ur
M y</w>
mm t</w>
ß e</w>
l ook</w>
War um</w>
P ro
h in
p r
fa ch</w>
se hr</w>
d ur
D o
H er
0 0</w>
m ö
n ung</w>
N ow</w>
ou s</w>
pe ople</w>
br in
an der
Al so</w>
g ro
e se</w>
e very
la r</w>
Dan ke</w>
w oh
s on
on ly</w>
m p
l ä
a ga
i ck
b st</w>
wür de</w>
e p
u p
wi ssen</w>
st and</w>
el t</w>
d an
d eine</w>
ein fach</w>
lo ve</w>
it y</w>
e ver</w>
b l
las sen</w>
eu ch</w>
u h</w>
v iel</w>
sch e</w>
un gen</w>
m uch</w>
a u</w>
m an
el y</w>
b le</w>
J ust</w>
f re
m it
n ing</w>
b u
Z eit</w>
ss i
ge t
ha tte</w>
ot t</w>
gi ve</w>
y be</w>
s oll</w>
m ar
wh y</w>
die se</w>
z ei
t wo</w>
k ann
un den</w>
f ind</w>
L o
sor ry</w>
de t</w>
ge b
oul dn</w>
L a
sti ll</w>
k ed</w>
en s</w>
ne w</w>
a te</w>
j em
W here</w>
wor k</w>
h ol
1 ;</w>
&#9 1;</w>
3 ;</w>
&#9 3;</w>
hel p</w>
th an</w>
A re</w>
O r
ir st</w>
ge sagt</w>
st ell
in s</w>
D ann</w>
b itte</w>
al so</w>
M or
f er
su re</w>
J e
wi ll
u e</w>
l oo
in to</w>
W e
woll te</w>
g r
V iel
wir klich</w>
is s</w>
v es</w>
I s</w>
m er
a d</w>
ne h
a tion</w>
s ie
W o</w>
ab le</w>
t re
for e</w>
s in
w ell</w>
in ter
any thing</w>
r en</w>
ig e</w>
n ight</w>
G u
t or</w>
L ook</w>
oo l</w>
an ce</w>
r ich
wä re</w>
fu l</w>
ge ben</w>
kom mt</w>
D a</w>
p ri
Kom m</w>
p h
S ta
tal k</w>
s en
w in
t ur
G od</w>
os t</w>
n t</w>
g ir
m ent</w>
ea r</w>
N ot</w>
li fe</w>
s es</w>
k ein</w>
Th ank</w>
N o
a de</w>
e ven</w>
ff en</w>
z ie
Wh o</w>
i z
e st
un g
wur de</w>
ck t</w>
M i
G i
ar d</w>
u se</w>
T o
S h
Fra u</w>
M on
c t</w>
aga in</w>
w s</w>
th ought</w>
b en
sch ul
- -</w>
Le ben</w>
r au
a d
c all</w>
v ed</w>
L ie
N icht</w>
M en
G ott</w>
gen d
hal ten</w>
sa g
h ear
da mit</w>
P ar
be fore</w>
W o
S or
W er</w>
G ood</w>
t ten</w>
woll en</w>
h eit</w>
g ra
wa ys</w>
a way</w>
be cause</w>
ig h
N e
ä ch
H ier</w>
Ge t</w>
G el
ei r</w>
D i
d u
Y our</w>
ü n
h eute</w>
h ome</w>
b ab
R o
sich er</w>
o p</w>
ck ing</w>
lei d</w>
an s</w>
pas si
r in
w on</w>
d ein</w>
R u
t old</w>
f irst</w>
h st</w>
a ter</w>
zur ück</w>
rea dy</w>
we i</w>
n i
m einen</w>
w r
ch st</w>
bel ie
D ie
al t</w>
Ih re</w>
s ol
th ese</w>
En t
hör t</w>
N a</w>
G en
la st</w>
H all
oh n</w>
ear s</w>
al i
g ar</w>
ver ste
m ust</w>
th eir</w>
ge sehen</w>
be tter</w>
hä tte</w>
t es</w>
S ir</w>
woh l</w>
ol e</w>
ble m</w>
ein es</w>
f ol
b ro
ei l
C an</w>
p os
si de</w>
un ter
es n</w>
b lei
t a</w>
M e
H i</w>
ut ter</w>
y our
will st</w>
sch a
Viel leicht</w>
st or
un ter</w>
E x
z ä
n a</w>
g h
we g</w>
C ar
Hall o</w>
W i
b i
gu y</w>
t ut</w>
g lei
c ar
ei d</w>
d ed</w>
er st</w>
ö n</w>
na me</w>
l ong</w>
kann st</w>
ss er</w>
c re
p u
ck en</w>
happ en
ou se</w>
L eute</w>
f ra
hl en</w>
k es</w>
thin gs</w>
s k
t en
pla ce</w>
on s</w>
p ut</w>
ge macht</w>
Sch ei
un de</w>
ar ound</w>
sa mm
st u
war en</w>
M ein</w>
un s
n ein</w>
Ge sch
J etzt</w>
hl t</w>
J un
f an
fin den</w>
ch e
könn te</w>
re d</w>
s .</w>
me m
le tz
c our
W ie
gan z</w>
z ur</w>
Ha st</w>
I N
B o
F a
al ways</w>
ar bei
H ö
do esn</w>
th ose</w>
no thing</w>
i ck</w>
p lease</w>
y e</w>
y ears</w>
G ut</w>
K in
D id</w>
k no
fri end</w>
s eine</w>
w en
h l</w>
s hi
g ing</w>
brin gen</w>
ger ade</w>
r ä
l in
en ce</w>
G o</w>
re den</w>
W hen</w>
af ter</w>
D e
lo w</w>
O K</w>
s it
glau be</w>
Al les</w>
V ater</w>
L u
we gen</w>
h re</w>
d in
wei l</w>
an ks</w>
all en</w>
ü r</w>
Z u
th r
b is</w>
h o
st er
die ser</w>
sch n
w om
l d</w>
a b</w>
Da d</w>
V or
m es</w>
h in</w>
k ill
de st</w>
ti ve</w>
B itte</w>
ver su
ma de</w>
s ir</w>
E ine</w>
ir gend
z wei</w>
ch ten</w>
ro w</w>
hea d</w>
schul dig
ta in</w>
fe el</w>
mon ey</w>
ke ep</w>
viel leicht</w>
n y</w>
M ä
Ta g</w>
gu ys</w>
O k</w>
lo t</w>
s h</w>
c all
tt ing</w>
ell o</w>
belie ve</w>
N un</w>
re e</w>
sag te</w>
is ch</w>
every thing</w>
el e
gre at</w>
c or
an den</w>
g l
Gel d</w>
hör en</w>
G r
s ur
d one</w>
u te</w>
neh men</w>
n ie
R a
w as
wan ted</w>
F ran
ch an
S te
B er
w al
T hen</w>
z i
com ing</w>
w hi
tr y</w>
m a</w>
sp re
P ol
passi ert</w>
s st</w>
y es</w>
ge hört</w>
s ha
M utter</w>
soll te</w>
dur ch</w>
k ind</w>
b ar
om ent</w>
mem ber</w>
t ri
Ma ybe</w>
wei ßt</w>
da chte</w>
m en
i de
do es</w>
sch la
M in
S ie
k einen</w>
p or
mus st</w>
in n
i l</w>
lea ve</w>
k au
happen ed</w>
P lease</w>
k er</w>
m ein
os s</w>
thr ough</w>
der n</w>
i on</w>
ab en</w>
P e
tion s</w>
h ouse</w>
un d
el n</w>
ge st
ki ll</w>
gir l</w>
pa ar</w>
K ön
v en
b rea
g ot
ec t</w>
H ar
ca me</w>
w el
k lar</w>
sp iel
Q u
b ur
ch er</w>
t on</w>
ou s
t ly</w>
b ra
hea r</w>
ro om</w>
n ed</w>
G l
zu samm
cour se</w>
fa hren</w>
K eine</w>
p l
ba d</w>
wr ong</w>
c le
c ra
o wn</w>
fa ther</w>
mö chte</w>
M eine</w>
ar y</w>
P er
m ight</w>
su pp
M an</w>
h and
under stand</w>
m ost</w>
le ft</w>
ä t</w>
be sser</w>
ih re</w>
st op</w>
B a
ver sch
D ar
b ig</w>
sh it</w>
we e
lan ge</w>
jem and</w>
j o
com p
b ot
m einer</w>
hel fen</w>
hr t</w>
w us
tal king</w>
sch ön</w>
H ere</w>
il li
Mä d
S ti
as k</w>
p er</w>
p lan
t ung</w>
S u
r en
h an
H o
z a
M om</w>
i k
ie d</w>
be ing</w>
l t</w>
h ell</w>
m m</w>
mi ly</w>
i c</w>
ander en</w>
en ough</w>
B et
s y
de ad</w>
t z</w>
el se</w>
h n
ba r</w>
W ill
c are</w>
H ello</w>
ä r
m einem</w>
at ür
d dy</w>
c l
Na cht</w>
J u
am p
S o
r aus</w>
L ass</w>
qu e
tr u
k rie
is n</w>
to p</w>
Na ch
el le</w>
sa ge</w>
die sen</w>
al d</w>
tr au
U h</w>
J o
tz en</w>
M al</w>
some one</w>
er zä
a ge</w>
s ig
f ine</w>
wir st</w>
N ur</w>
fu cking</w>
d nung</w>
ä u
k eit</w>
Au f
G er
f ound</w>
A us
sel bst</w>
B ar
p ol
ck s</w>
loo king</w>
atür lich</w>
ge tting</w>
sa me</w>
en ds</w>
uns ere</w>
us s</w>
get an</w>
c ar</w>
t s
f ä
ge l</w>
ei gen
C H
lich e</w>
g n
c y</w>
F am
tr ying</w>
op e</w>
D r.</w>
f un
R ight</w>
h ö
st ra
na ch
an other</w>
F u
dr in
b us
your self</w>
as sen</w>
f er</w>
m ind</w>
Or dnung</w>
h e
d au
be g
S ome
wi th
re al</w>
t zt</w>
g es</w>
x t</w>
Au f</w>
mo ther</w>
st ay</w>
sti mmt</w>
co un
us ed</w>
d ung</w>
Mäd chen</w>
Lo s</w>
le y</w>
Be cause</w>
t lich</w>
wa it</w>
was n</w>
al e</w>
C o
m s</w>
t on
j ob</w>
0 00</w>
se m</w>
e e</w>
th ree</w>
e very</w>
K a
wan na</w>
in t</w>
i ert</w>
er n
bo y</w>
den ke</w>
sh o
ig en</w>
d ri
Wie so</w>
n ice</w>
H ause</w>
ei l</w>
ge gen</w>
R ich
e st</w>
die sem</w>
t t</w>
l er</w>
m y
sa w</w>
wor ld</w>
A ch</w>
sp ec
glei ch</w>
P a
gen au</w>
die ses</w>
B u
ck ed</w>
all s</w>
c es</w>
su ch</w>
g al</w>
k onn
y eah</w>
K on
Fre und</w>
H aus</w>
be sch
M r
M o
T o</w>
h ur
Th anks</w>
r on
F or
ge d</w>
W ir
tu ally</w>
soll ten</w>
l ü
B ru
B ab
d ent</w>
Un ter
da von</w>
ge ther</w>
F or</w>
ch il
for t</w>
O ne</w>
C ap
ex p
ih nen</w>
re member</w>
K ar
fa mily</w>
w ent</w>
c ol
oh ne</w>
m and</w>
be st</w>
i a</w>
sh ow</w>
i te</w>
u g</w>
E l
Sor ry</w>
wei ter</w>
v om</w>
W it
war um</w>
Wa it</w>
C om
T y
C har
d einen</w>
Al s</w>
Ab end</w>
i es</w>
M iss</w>
e ss
n or
Z ei
t om
B l
to gether</w>
ste ht</w>
h on
tt y</w>
i se</w>
H il
got ta</w>
in v
t or
We g</w>
i er
T ut</w>
Ü ber
ff er
stell en</w>
A N
at ed</w>
w ouldn</w>
H el
hr er</w>
b it
le ss</w>
ma y</w>
fa st</w>
zur ück
d ort</w>
j a
sch ein
K l
an s
re c
M it</w>
lich en</w>
ma chst</w>
Hö r</w>
G re
b or
se en</w>
Ent schuldig
k am</w>
to day</w>
ti mes</w>
An gst</w>
t ch</w>
b eit</w>
Men schen</w>
dur ch
th er
di g</w>
wom an</w>
zusamm en</w>
spre chen</w>
U m</w>
ti c
hear d</w>
brau chen</w>
da m
s le
li ve</w>
H aben</w>
o s</w>
ide a</w>
s m
ter n</w>
blei ben</w>
ne xt</w>
ger n</w>
ne u
l or
B r
al ready</w>
bab y</w>
m any</w>
h le</w>
ch ter</w>
is h</w>
ma ybe</w>
D in
sch t</w>
E R
en d
M an
IN G</w>
e i</w>
um p
soll en</w>
t ö
sch ei
d ro
W elt</w>
M it
f all</w>
T H
ste hen</w>
k new</w>
rie d</w>
ssi on</w>
ung s
Wei l</w>
viel e</w>
C ol
b li
Kin der</w>
Ha ve</w>
il ie</w>
L ei
rich tig</w>
W el
tur n</w>
Wei ßt</w>
a ch</w>
da ys</w>
l ie</w>
wi fe</w>
r ein</w>
E very
d t</w>
sch ie
kill ed</w>
an t
O f</w>
ne e
w on
n en
t ook</w>
Schei ße</w>
in ess</w>
t ro
to t</w>
ha bt</w>
and ere</w>
an g</w>
w ing</w>
ss ed</w>
e h
di s
mor ning</w>
call ed</w>
da für</w>
b it</w>
te l</w>
mo ve</w>
A h</w>
gef unden</w>
wh ole</w>
r el
W or
K e
oo t</w>
g ht</w>
gef ä
ß er</w>
F in
C on
k ü
re m</w>
di es</w>
it ing</w>
Fam ilie</w>
i mm
ti l</w>
ge ssen</w>
as on</w>
F ür</w>
with out</w>
M oment</w>
br ing</w>
an e</w>
l and</w>
B ist</w>
fu ck</w>
d el
ea ch</w>
z y</w>
a go</w>
kom me</w>
m u
que sti
Se e</w>
b la
al one</w>
K op
b lo
A h
O der</w>
se con
gu ess</w>
pro blem</w>
Ta ke</w>
Ar beit</w>
ver da
O n
sa m</w>
i eren</w>
P re
it s</w>
s se</w>
Pro blem</w>
t ell
J ohn</w>
y et</w>
ra cht</w>
se l</w>
m lich</w>
Ex c
Cap tain</w>
wh ich</w>
sie ht</w>
hal b</w>
l ing</w>
un der</w>
whi le</w>
Ja ck</w>
v o
h ig
G ra
Sch ul
p s</w>
Sa che</w>
den ken</w>
or row</w>
s eit</w>
en ts</w>
lie be</w>
ma tter</w>
sch le
u ten</w>
i al</w>
dre i</w>
d ge</w>
c r
ha ven</w>
su chen</w>
my self</w>
h uh</w>
g lich</w>
se t</w>
gen ug</w>
fri ends</w>
fe w</w>
gan ze</w>
i ous</w>
S top</w>
ck er</w>
c tor</w>
v is
a h</w>
le ben</w>
S ich
ut es</w>
c ke</w>
pre tty</w>
z er
star t</w>
un ser
M än
in a</w>
se i</w>
fa ce</w>
fe l</w>
K er
Mr s.</w>
brau che</w>
geb racht</w>
W as
we g
der s</w>
Bab y</w>
Mor gen</w>
b ald</w>
Sch la
w o
me et</w>
shi p</w>
ne t</w>
har d</w>
ll t</w>
g one</w>
war ten</w>
D en
c ase</w>
o b
T ell</w>
ff e</w>
F e
st än
Pol iz
pr om
o k</w>
da bei</w>
ig er</w>
Ja hre</w>
an ge
wan ts</w>
Sa g</w>
kom m</w>
Ch e
el s</w>
S ohn</w>
sch ool</w>
2 0</w>
f l
sa ying</w>
m ei
a in</w>
1 0</w>
mor gen</w>
H at</w>
re cht</w>
ou t
h off
ol le</w>
R ei
ton ight</w>
re st</w>
s icht</w>
la te</w>
in g
S er
b is
K ind</w>
h m</w>
C l
scha ft</w>
c an
c u
our s</w>
E R</w>
li g</w>
ä ter</w>
t le</w>
happ y</w>
n er
e as
k ur
ea m</w>
j u
wi ch
ru n</w>
Sch u
O r</w>
stor y</w>
ti ge</w>
N or
hei ßt</w>
ch o
al ten</w>
Ma ch</w>
in gs</w>
bro ther</w>
Hil fe</w>
Bru der</w>
ol o
ch ar
Li ke</w>
W oh
di ffer
c ou
wei t</w>
I r
t eil
S ei
F all</w>
d ru
h ope</w>
A s</w>
ex c
be kommen</w>
ein z
y ear</w>
b and</w>
S ind</w>
m er</w>
bot h</w>
c er
un ser</w>
z eu
l s</w>
ti gen</w>
n st</w>
P la
glau ben</w>
ken nen</w>
ri st
ph one</w>
pla y</w>
em p
c ouldn</w>
c ap
ro chen</w>
konn te</w>
D u
re sp
schn ell</w>
de s
op p
any one</w>
st re
t ot
G an
n is</w>
bab ly</w>
be d</w>
M am
m st</w>
Ja hren</w>
i ll</w>
sch rei
bus iness</w>
M ich
ha tten</w>
st anden</w>
los t</w>
O p
Jun ge</w>
M r</w>
ter s</w>
ge kommen</w>
an i
C a
c ur
on ce</w>
H ör
ein mal</w>
ber ei
t test</w>
Die se</w>
b re
h and</w>
Ne w</w>
un til</w>
K ann</w>
war st</w>
do or</w>
sa ys</w>
k ti
wor d</w>
war d</w>
en e</w>
c ri
be vor</w>
lan g</w>
c tion</w>
Her r</w>
se he</w>
ac tly</w>
St ra
Will st</w>
ne ss</w>
zie hen</w>
son st</w>
g ie</w>
dar über</w>
all ein</w>
si ble</w>
P ap
d einer</w>
wus ste</w>
por t
s einen</w>
wa hr</w>
wor ry</w>
bei de</w>
tom orrow</w>
k a
ch mal</w>
H ol
y o
d einem</w>
f rü
ha te
Li sten</w>
be de
h u
r it
h or
A mer
n äch
ea k</w>
fer tig</w>
b ri
en ti
l er
S tr
dan ke</w>
l en</w>
hate ver</w>
ma che</w>
am er
l ine</w>
ch t
or d</w>
f al
ha up
a th</w>
g ar
min ute</w>
hi l
ch es</w>
m ed</w>
ha ving</w>
hol en</w>
ou ble</w>
i re</w>
N atürlich</w>
ma g</w>
n un</w>
R E
ie f</w>
k id</w>
ac tually</w>
as s
i ff</w>
B il
No thing</w>
thin king</w>
os ed</w>
wor king</w>
Gi ve</w>
per fe
s eid</w>
bei m</w>
s ent</w>
tu re</w>
M ir</w>
ea l</w>
Re ally</w>
ch ing</w>
f te</w>
dar an</w>
ich te</w>
ge he</w>
b s</w>
Do ch</w>
Sch we
de al</w>
T ra
th e
stu ff</w>
par t</w>
oll en</w>
m ur
l le</w>
L au
hei ra
kno ws</w>
ga b</w>
k st</w>
Wi ll</w>
G ro
Sta dt</w>
so on</w>
sin ce</w>
An y
d ra
N ichts</w>
an g
so fort</w>
tz e</w>
Fre unde</w>
chan ge</w>
M ö
D re
gel e
w ed</w>
Kop f</w>
lä u
di c
gen t</w>
p le</w>
ti c</w>
I m</w>
min utes</w>
ki ds</w>
er inn
at ch</w>
happ en</w>
be au
da zu</w>
secon d</w>
ver rü
li sten</w>
e cht</w>
is h
k ä
Na men</w>
om men</w>
n um
hi g</w>
th ank</w>
D ank</w>
da d</w>
S pa
Wa hr
supp osed</w>
H au
Män ner</w>
wei se</w>
F lu
hur t</w>
ff t</w>
ga ve</w>
Gen au</w>
gu te</w>
hr lich</w>
U hr</w>
cra zy</w>
la ter</w>
d ding</w>
verste he</w>
h än
Din ge</w>
gh ter</w>
Ah nung</w>
A R
de st
Sch n
r ein
Min uten</w>
Ge h</w>
n s</w>
könn ten</w>
tr ue</w>
ge sp
Au to</w>
r aus
A n</w>
b all</w>
r icht</w>
las se</w>
er al</w>
c c
T r
ei ther</w>
sch ü
gen ommen</w>
3 0</w>
m ine</w>
f o
I de
pr ot
w ö
dam n</w>
brau cht</w>
c ed</w>
l ass</w>
W al
th s</w>
je den</w>
sp e
per son</w>
ta king</w>
B ro
Jun gs</w>
an der</w>
Gl ück</w>
ar en</w>
s ei
rea d</w>
to wn</w>
on es</w>
p t</w>
h old</w>
arbei ten</w>
tö ten</w>
c le</w>
C ha
ck y</w>
s au
B ri
w a</w>
st ri
hear t</w>
ran d
h ey</w>
S in
f ig
ra id</w>
le gen</w>
Exc use</w>
ti ful</w>
m is
po int</w>
me ans</w>
k el</w>
ge we
un ds</w>
op en</w>
Wir klich</w>
fa r</w>
f lo
ver gessen</w>
Sch at
stell t</w>
ken ne</w>
wür den</w>
be l</w>
W ow</w>
i li
z o
da cht</w>
k on
au ßen</w>
i st
i ti
S ha
p ay</w>
p ic
Mam a</w>
ma ch</w>
ous ly</w>
War te</w>
K rie
pro bably</w>
wi schen</w>
e gal</w>
me t</w>
T eu
ff ee</w>
F rau
ch ance</w>
th ers</w>
S ure</w>
p le
En de</w>
T i
M us
h ne</w>
V on</w>
b ir
K en
N ie
S el
In ter
t in
or s</w>
lea st</w>
en de</w>
Poliz ei</w>
A t</w>
Lie be</w>
Al le</w>
Ge or
af raid</w>
gen d</w>
ti g
st r
g y</w>
Au gen</w>
bis schen</w>
S y
sh ot</w>
as ked</w>
h ung</w>
in st
ih ren</w>
Wit h</w>
c ool</w>
z wei
un t</w>
G lau
T er
Fre und
pol ice</w>
f allen</w>
J ob</w>
der t</w>
ne y</w>
Na me</w>
r t</w>
lä sst</w>
for ma
at ing</w>
K ran
ar t</w>
kom mst</w>
g in
lie gt</w>
p e</w>
Gu ten</w>
y ed</w>
lie ber</w>
m el
H ä
h us
T e
oo d
f alls</w>
de ath</w>
every one</w>
dr an</w>
e at</w>
ander s</w>
ber eit</w>
sp äter</w>
S am</w>
N u
Ker l</w>
k ei
ac c
ss ing</w>
S c
hal f</w>
s einer</w>
g ri
z eit</w>
et te</w>
letz te</w>
wei ter
dr außen</w>
wi sh</w>
hin ter</w>
S T
bu il
h ours</w>
D am
fi ve</w>
l an</w>
jem anden</w>
ge ts</w>
S ar
f ight</w>
sch ä
dr in</w>
un ch</w>
et s</w>
au l</w>
p ra
B ür
fra gen</w>
k a</w>
H al
com es</w>
war tet</w>
B is</w>
kü mm
H alt</w>
A le
o h</w>
ma kes</w>
par ty</w>
W ar</w>
H is</w>
E L
fe el
L eid</w>
dau ghter</w>
ex actly</w>
im port
1 9
W er
ma king</w>
h it</w>
in st</w>
b in
in side</w>
as h</w>
sa h</w>
drin k</w>
sle ep</w>
ster ben</w>
su s</w>
le ar
au en</w>
T re
f il
gu n</w>
G o
Ver da
han ds</w>
tr in
P o
wee k</w>
we en</w>
f än
em s</w>
e yes</w>
dar f</w>
w under
sch li
ein s</w>
K ein</w>
No ch</w>
fu n</w>
che ck</w>
loo ks</w>
e ssen</w>
wa ter</w>
E N</w>
gel n</w>
th ough</w>
ele f
mö glich</w>
v ö
par t
or y</w>
w ann</w>
ver lor
Teu fel</w>
B ra
G a
su cht</w>
sch er</w>
st ör
soll test</w>
hi er
verrü ckt</w>
m als</w>
To chter</w>
hä tten</w>
ant wor
t ou
dar auf</w>
beau tiful</w>
H and</w>
d d
any more</w>
h os
A L
f le
Gu te</w>
Sch on</w>
D en</w>
bl ood</w>
S tu
Fu ck</w>
Schwe ster</w>
G ar
g an</w>
I hren</w>
ß er
wur den</w>
hus band</w>
l lig</w>
5 0</w>
gan gen</w>
tion en</w>
B en
Ar t</w>
eas y</w>
F i
T ür</w>
ch ed</w>
haup t</w>
v oll
ap s</w>
ge dacht</w>
Da ddy</w>
op s</w>
vor bei</w>
N eu
wor den</w>
f ron
ell er</w>
aga inst</w>
D es
Sie h</w>
j e</w>
Ide e</w>
H än
ep t</w>
Gan z</w>
wa iting</w>
Frau en</w>
gan zen</w>
y a</w>
Gr und</w>
fü r
differ ent</w>
L A
y er</w>
ch en
Se hr</w>
cl ose</w>
sc re
mo m</w>
wa ch
Je sus</w>
it ed</w>
u tet</w>
W hi
ger ne</w>
Re cht</w>
p i
se tzen</w>
w ear</w>
pl an</w>
k tor</w>
Ge ht</w>
D ein</w>
be t
f ten</w>
import ant</w>
in c
for t
pp e</w>
Be i</w>
on y</w>
H an
den en</w>
läu ft</w>
E d
kau fen</w>
yo ung</w>
si dent</w>
wa tch</w>
spiel en</w>
Gi b</w>
i tion</w>
f ter</w>
s we
ar s</w>
s einem</w>
ö ff
fin de</w>
sp ät</w>
st ed</w>
die d</w>
re ason</w>
s ed</w>
vi er</w>
ou th</w>
verlor en</w>
h ind</w>
c lo
tru th</w>
dr en</w>
ge geben</w>
er le
M c
Ch rist
gewe sen</w>
st at
ch s</w>
E u
Ja hr</w>
C or
mm en</w>
l on
im m</w>
ot el</w>
Y or
neh me</w>
D et
D eine</w>
er ung</w>
Fra ge</w>
o ben</w>
l ight</w>
b ul
kur z</w>
m oment</w>
r un
B lei
t oll</w>
di en
at ta
R i
Kom men</w>
mein st</w>
ö tet</w>
Schat z</w>
F il
St unden</w>
f st</w>
a ten</w>
1 5</w>
erzä hlt</w>
en den</w>
st em</w>
H en
gl ück
P ri
letz ten</w>
sa g</w>
tr ied</w>
E uch</w>
fi re</w>
ih r
f lu
k te</w>
Ge hen</w>
num ber</w>
ot s</w>
p en
b as
vi ce</w>
ran k</w>
v oll</w>
ne ue</w>
s n</w>
zie mlich</w>
as st</w>
ar ed</w>
l ose</w>
tell ing</w>
e ben</w>
be za
wal k</w>
questi on</w>
eu er</w>
brea k</w>
sie hst</w>
pos sible</w>
kei ten</w>
C hi
B la
hei m
O ff
ga me</w>
st es</w>
A N</w>
f our</w>
Wo che</w>
eigen tlich</w>
Mich a
ne tt</w>
hoff e</w>
S ol
l ed</w>
an ge</w>
lan g
T od</w>
it al</w>
c ut</w>
O n</w>
ar m</w>
- I</w>
E ssen</w>
i k</w>
M at
versu cht</w>
z wischen</w>
t in</w>
tr ouble</w>
wen ig</w>
P r
c e
über haupt</w>
cou ple</w>
kä mp
ber t</w>
D ro
Fran k</w>
be hind</w>
Mi ke</w>
T ur
B ei
lie gen</w>
kl eine</w>
p un
mar ried</w>
W ould</w>
mus ste</w>
war te</w>
ic a</w>
wä r
tr ust</w>
m al
nee ds</w>
f rei
Wi ssen</w>
f t
go es</w>
d ür
star ted</w>
s it</w>
hig h</w>
de l</w>
ru fen</w>
rel a
ent lich</w>
se cre
Ru he</w>
W il
H u
Gesch ichte</w>
b st
hr end</w>
Freund in</w>
tre ffen</w>
r ing</w>
Wahr heit</w>
b ye</w>
st ens</w>
your s</w>
sa fe</w>
L in
bede utet</w>
Ein en</w>
sha ll</w>
gir ls</w>
aus ge
ru hig</w>
chil dren</w>
off ice</w>
Z eu
fre e</w>
get ötet</w>
Spa ß</w>
sp eak</w>
ha te</w>
w ün
b ook</w>
chil d</w>
si ster</w>
ta g</w>
er sch
u fen</w>
je der</w>
A m</w>
gro ß
t au
s ü
some body</w>
at es</w>
c los
at or</w>
H ei
ie t</w>
F o
ti es</w>
n atürlich</w>
wie so</w>
ü b
H on
k ey</w>
r a</w>
st up
tra gen</w>
di ot</w>
Gesch ä
H e
Kön nen</w>
ali ve</w>
fü hle</w>
T om
sch lie
F ü
K u
sch ön
p ort</w>
Ty p</w>
fron t</w>
cle ar</w>
k tion
gro ße</w>
P u
se tzt</w>
O ur</w>
br ought</w>
sa gst</w>
ell en</w>
li eren</w>
qu ite</w>
r unter</w>
s end</w>
Micha el</w>
Kom mt</w>
Ma cht</w>
I hrer</w>
an a</w>
on el</w>
l a</w>
d um
mon ths</w>
ha us</w>
Ch ance</w>
er kl
w ü
ein ander</w>
l ö
Yor k</w>
hol e</w>
krie gen</w>
bet ween</w>
fan gen</w>
Z immer</w>
ir s</w>
K ü
Cl ar
al le
t end</w>
c al</w>
C hr
S en
po wer</w>
sch wer</w>
Or t</w>
lie ben</w>
Sei te</w>
n ä
et ing</w>
Was ser</w>
S on
fü n
or e</w>
B ye</w>
rei cht</w>
i ss
T wo</w>
W ann</w>
for get</w>
ge h</w>
ä ren</w>
on en</w>
Kran ken
Na ch</w>
i ma
Jo e</w>
T an
Char lie</w>
tion al</w>
c ity</w>
et wa</w>
a k
E N
ea d</w>
p ie
L and</w>
Sp iel</w>
S oll</w>
f ur
stup id</w>
M e</w>
o a</w>
f iel
th y</w>
fu ll</w>
T elef
Sich er
la d</w>
An t
us h</w>
lich keit</w>
B ur
brin gt</w>
wie der
st and
D ass</w>
le t
P rin
gef allen</w>
v ie
r an</w>
S ü
Verda mmt</w>
D ol
. 000</w>
kl in
i en</w>
woll ten</w>
nie mand</w>
verste hen</w>
p en</w>
Th ese</w>
verda mm
f el
zei gen</w>
tr ä
Die ser</w>
, 000</w>
U m
l än
wich tig</w>
ver lassen</w>
Sa chen</w>
Wh ich</w>
gan g</w>
in ing</w>
m iss</w>
ri s
p ap
B el
am es</w>
Schu le</w>
ge k
Gre at</w>
unser er</w>
u al</w>
a head</w>
w in</w>
l uss</w>
so gar</w>
do ctor</w>
gen t
A c
en a</w>
ot en</w>
wom en</w>
t was</w>
h our</w>
ge hst</w>
K at
la dy</w>
h a</w>
ne ws</w>
bo ys</w>
U N
S i
Geor ge</w>
na h
A li
H and
v e
al most</w>
oo ks</w>
ben ut
h y
fü hrt</w>
ick en</w>
Gen eral</w>
bit ch</w>
oh n
M er
er sten</w>
lich er</w>
st o
in k</w>
ann y</w>
illi on</w>
Sor gen</w>
a st</w>
G ei
p rü
de ci
au lt</w>
gest ern</w>
Se k
ver standen</w>
on d</w>
won der
out side</w>
ti gt</w>
Wo her</w>
Y O
her aus
J er
inter est
sa ve</w>
te te</w>
car e
A gent</w>
w hatever</w>
K ann
ran t</w>
er te</w>
T ri
m on</w>
a ir</w>
le ge</w>
Z u</w>
d lich</w>
every body</w>
P at
p an
versu chen</w>
M il
H old</w>
Bet t</w>
Sp iel
e ven
arbei tet</w>
fa ir</w>
per son
ver trau
Ver y</w>
h un
M ein
hl er</w>
g h</w>
c ti
prom ise</w>
e vi
D ur
S her
M u
lu b</w>
verda mmt</w>
g te</w>
W ür
scha ffen</w>
in ed</w>
fun ny</w>
S k
ick t</w>
sen se</w>
Ta ge</w>
o ver
Ge sicht</w>
v el
g le</w>
ans wer</w>
ander es</w>
1 2</w>
ul ly</w>
P en
as si
schla fen</w>
Entschuldig ung</w>
T om</w>
din ner</w>
n u
end lich</w>
D ing</w>
c li
W ort</w>
L assen</w>
Gro ß
au t</w>
da te</w>
R ück
ra l</w>
gr ö
bu y</w>
st s</w>
do g</w>
se e
au m</w>
ent ly</w>
den ce</w>
Z a
t y
v in</w>
d ly</w>
Ha b</w>
k un
Sch ön</w>
Every thing</w>
ge gangen</w>
or der</w>
K lar</w>
K ra
w en</w>
lu ck</w>
un k</w>
N ice</w>
schle cht</w>
il s</w>
S an
la ge</w>
c o</w>
er ste</w>
t eam</w>
ho ch</w>
einz ige</w>
ver n
S onn
be stimmt</w>
O N</w>
p ick</w>
ihr er</w>
fa ct</w>
sta g</w>
hö r</w>
u ation</w>
Nie mand</w>
sur pri
dig en</w>
m me</w>
m un
den ti
si ck</w>
gesch la
Da vi
Ar sch</w>
K lin
ger s</w>
tro l</w>
j or</w>
El tern</w>
T ru
fü hren</w>
a gre
ep ing</w>
feel ing</w>
L ord</w>
f ro
O N
hi m
per i
Pap a</w>
di o</w>
di re
for m</w>
at s
Bl ut</w>
schein lich</w>
zo gen</w>
wer s</w>
wä ren</w>
un ten</w>
sig n</w>
S ome</w>
run ning</w>
re cor
Schul d</w>
ta ken</w>
hä ttest</w>
t ust</w>
Kann st</w>
re ck
kau ft</w>
ti ger</w>
dr auf</w>
de c
Sch w
m ut
T eil</w>
ck et</w>
h aps</w>
Wa gen</w>
St ar
W ä
Ma x</w>
f la
S am
lea ving</w>
fre i</w>
Sa gen</w>
beg in
al ong</w>
li ves</w>
any way</w>
si x</w>
fün f</w>
sy ch
h ot</w>
B e</w>
st y</w>
off ic
wa hr
t an
P ut</w>
2 0
K ir
m ann</w>
b lu
Col onel</w>
neu en</w>
pla in</w>
nor mal</w>
v el</w>
wer t</w>
den kst</w>
K o
fun ktion
v ol
T rau
Nu mmer</w>
da m</w>
blo ß</w>
Ke ep</w>
A fter</w>
i ver
wel che</w>
pas st</w>
igh ts</w>
kl einen</w>
Ä r
par ents</w>
Wa ffe</w>
lau fen</w>
e ssi
Ho ch
V or</w>
f ood</w>
t el
w alt</w>
Sh it</w>
ih rem</w>
H eute</w>
dig t</w>
L ea
an gen</w>
Pe ter</w>
de ar</w>
sch en
fiel d</w>
ger e
eh n</w>
se x</w>
Do es</w>
b by</w>
bei den</w>
ec tive</w>
z er</w>
le men</w>
st ing</w>
o ft</w>
L E
mi ssion</w>
B i
erzä hlen</w>
ge s
Se i</w>
wür dest</w>
spiel t</w>
ta l</w>
as king</w>
Men sch</w>
it t</w>
M ü
em ent</w>
R O
Er inn
Her z</w>
ser ious</w>
s ing</w>
Ir gend
glück lich</w>
U S
st ei
be t</w>
uns eren</w>
M m</w>
mi sta
f ir
kno wn</w>
him self</w>
glau b
lie bt</w>
r d</w>
fü hl</w>
J en
fe st</w>
ger ufen</w>
th anks</w>
resp on
li ving</w>
dar um</w>
v a
P lan</w>
se ems</w>
Davi d</w>
dre ss</w>
1 00</w>
sh ouldn</w>
schein t</w>
Se hen</w>
C la
gu e</w>
Wie der
s us
mi li
st ran
al te</w>
ab ge
Fra gen</w>
K re
S et
ter ri
wa t
pp ed</w>
Sh ut</w>
nie mals</w>
g li
sel ves</w>
gu ter</w>
bre chen</w>
E ven</w>
v il
sp a
F ol
f elt</w>
al m</w>
hel p
pa st</w>
ou d</w>
st ern</w>
D ra
blei bt</w>
dan ken</w>
F ine</w>
ge be</w>
hos p
coun try</w>
ann t</w>
con ta
os sen</w>
can not</w>
st en
Some thing</w>
dri ve</w>
Par ty</w>
is ed</w>
H ur
Hel p</w>
u en</w>
wä hrend</w>
happ ens</w>
versch win
ch test</w>
p ul
v an
z ing</w>
Ih rem</w>
dr ü
lich es</w>
Sch au</w>
forma tion</w>
c ted</w>
sc ared</w>
sor t</w>
tur ned</w>
Dar f</w>
im my</w>
fe ss
A T
it ten</w>
con trol</w>
m il
f ei
tou ch</w>
D enn</w>
Viel en</w>
trin ken</w>
hal t</w>
ut en
wer en</w>
op er
F rei
z en
h n</w>
gi ving</w>
K ump
si mp
i de</w>
sch lä
ri te</w>
Mar y</w>
se ar
sch es</w>
o l</w>
auf ge
z a</w>
un k
any body</w>
l t
hon ey</w>
st ru
an ti
un be
k einer</w>
hu man</w>
K ör
K ur
K i
es se</w>
U r
se em</w>
Pla tz</w>
p ur
st opp
ar t
n at
sin n</w>
wi t
spec i
los sen</w>
Pro ble
P aul</w>
H er</w>
ab sol
y le</w>
b b
M a</w>
ish ed</w>
off en
Dol lar</w>
ler nen</w>
P hi
fal sch</w>
Hör en</w>
pu bli
ple as
J em
olo gi
C ould</w>
eu re</w>
W ollen</w>
se x
a w
pu ter</w>
ac t</w>
s ste</w>
D or
tot al</w>
S im
W in
ot z
ru f</w>
S al
re tten</w>
P os
me eting</w>
TH E</w>
sh oot</w>
tu e</w>
Fe hler</w>
Sta y</w>
Sor ge</w>
wor th</w>
Bür o</w>
at ely</w>
T u
Flu g
s il
Par is</w>
v a</w>
me s
M illi
H off
co ver</w>
YO U</w>
tra g</w>
N imm</w>
Har ry</w>
än dert</w>
p ass</w>
tr ei
gn is</w>
f li
N ever</w>
berei ts</w>
F ar
wee ks</w>
n ö
J ohn
M ay</w>
Schei ß</w>
le bt</w>
hä lt</w>
G ot</w>
inter essi
Lie bl
k in</w>
f and</w>
On ly</w>
P i
hr ung</w>
sch af
l ung</w>
O R
r ich</w>
L on
ur en</w>
f en
kun ft</w>
Z wei</w>
K an
ha ir</w>
L ou
k er
Hö lle</w>
g lad</w>
v al
i an</w>
fig ure</w>
än dern</w>
kau m</w>
Krie g</w>
b ut
at s</w>
ar ing</w>
Sich er</w>
ge win
Ale x</w>
F er
gefä llt</w>
ru m
b ie
k in
m ing</w>
v an</w>
alle m</w>
so und</w>
R os
le tzt</w>
la w</w>
F rom</w>
comp any</w>
L eu
be come</w>
k o
coun t</w>
et t</w>
T al
Hän de</w>
ch er
th re
B rü
c au
w ood</w>
g ine</w>
m eines</w>
Kump el</w>
Ver zei
St unde</w>
st ol
fin det</w>
Z ie
Kön n
zusamm en
Men ge</w>
s sel</w>
f it</w>
igh t
L I
B I</w>
sti g</w>
c ing</w>
uten ant</w>
gen heit</w>
cho ice</w>
hi r
der ed</w>
pla ying</w>
Ant wor
J os
mur der</w>
f ault</w>
s ön
t ei
1 0
zu g</w>
brau chst</w>
su b
ma te</w>
Sti mmt</w>
off er</w>
ta in
t able</w>
rei chen</w>
H imm
schrei ben</w>
v ie</w>
O b
sit zen</w>
irgend wie</w>
Wo chen</w>
k o</w>
E ar
f ic
lon ger</w>
it ät</w>
f r
P or
F el
s ci
v y</w>
gu ten</w>
K ä
Br ing</w>
pa ti
m ä
n ei
S CH
e a</w>
S eit</w>
spec ial</w>
rich ten</w>
B lu
p ick
Se x</w>
wi er
Dam n</w>
nie man
S how</w>
frü h</w>
wor ds</w>
heira tet</w>
zei ch
S it
son dern</w>
hosp ital</w>
B ob</w>
g s
Da mit</w>
Ver ste
be sten</w>
fä llt</w>
b il
dis app
F BI</w>
do w</w>
h i</w>
dür fen</w>
H in
be sor
sta irs</w>
Au ch</w>
co ver
call ing</w>
B ul
B y</w>
P rä
han g</w>
z in
cle an</w>
St re
Ge heim
Al ter</w>
g rei
k ap
An y</w>
pp en</w>
ap e</w>
F irst</w>
pie ce</w>
con si
- You</w>
en nen</w>
A T</w>
Zei t
st an
rie f</w>
dan ce</w>
ar tig</w>
Ch u
L asst</w>
rü n
w n
sm all</w>
d i</w>
h nen</w>
ll en</w>
J im</w>
F ri
L ü
sp ra
N ä
sh ut</w>
questi ons</w>
k ie</w>
otz dem</w>
s al
we ap
B oss</w>
F ä
el e</w>
Ge fän
h um
T eam</w>
hier her</w>
B in</w>
Jem and</w>
re ch
gro und</w>
c old</w>
est er
dd le</w>
sta tion</w>
ot h</w>
ge mein
it h</w>
A l</w>
Ma ke</w>
B en</w>
. ...</w>
irgend wo</w>
or d
ein ige</w>
lo ck</w>
Ver sch
i ly</w>
ki dding</w>
gro ßen</w>
an er</w>
wä r</w>
ser ve</w>
näch sten</w>
ge worden</w>
Hen ry</w>
b oss</w>
ig es</w>
e ye</w>
Z um</w>
h op
st au
sy stem</w>
te mp
m illion</w>
R y
Ar sch
t ar
schla gen</w>
E ig
ver k
Proble me</w>
e k</w>
f ut
be son
bla ck</w>
I N</w>
ti ll</w>
o thers</w>
z ehn</w>
se tz
amer a</w>
M ei
V i
Sch lü
Ty pen</w>
T ja</w>
J ames</w>
e ff
s ou
perfe ct</w>
A d
R I
n is
k tion</w>
v ely</w>
k os
g ung</w>
secre t</w>
Ju li
K ing</w>
ma ch
No body</w>
p ut
Ge bur
E li
gesch a
zer stör
a den</w>
Telef on</w>
l ying</w>
wor ked</w>
pas sen</w>
et z
wor ks</w>
Di en
G ot
ver di
de fin
sp iel</w>
F la
an k
get ro
ra ten</w>
n al</w>
B ü
pri v
stän dig</w>
con c
bi li
sti c</w>
lo ved</w>
c us</w>
Th ose</w>
fan g</w>
Je der</w>
g rand
Her r
Par t
Ka ffee</w>
inv est
A us</w>
lu cky</w>
z ul
den kt</w>
h üb
p ea
men ts</w>
am s</w>
mo ving</w>
ein ge
ig ger</w>
f ully</w>
N ot
Pe ople</w>
chan ged</w>
co ffee</w>
A pp
un ger</w>
zeu g</w>
hö re</w>
some where</w>
kann t</w>
ent schuldig
sel be</w>
de ssen</w>
ex plain</w>
P ass</w>
f ar
4 0</w>
ich ten</w>
k ar
b ö
Fil m</w>
F rü
happen ing</w>
k rank</w>
c atch</w>
Ja ck
K amp
sta te</w>
f ern</w>
k u
ge st</w>
a ma
ra ther</w>
c ro
woll test</w>
t ea
Sie hst</w>
dr ück
hin ter
gesp rochen</w>
th ro
e d
bo x</w>
Det ective</w>
si on</w>
ell a</w>
ec ted</w>
F F
dest ro
bor n</w>
ig keiten</w>
all eine</w>
ru fe</w>
s mo
Lie utenant</w>
A t
- What</w>
woll t</w>
Ent schei
ge gen
nee ded</w>
S at
J immy</w>
hand le</w>
Mus ik</w>
z z
sa m
star d</w>
G ri
ti eren</w>
La dy</w>
um p</w>
sa tion</w>
irgend was</w>
g as</w>
eigen en</w>
L y
us ing</w>
ern st</w>
H und</w>
b om
lo wed</w>
ge wö
lie d</w>
b at
wa ke</w>
Sch ä
ell s</w>
whi te</w>
ver lieren</w>
Hau p
A m
et t
frü her</w>
ss en
mi ssing</w>
sp o
Ein z
D el
getro ffen</w>
sp er
ta ge</w>
jo y</w>
loo ked</w>
R ea
dire kt</w>
ro ad</w>
E ri
hal te</w>
D anny</w>
or en</w>
stand ing</w>
K no
er in</w>
w rite</w>
Sch iff</w>
S eine</w>
re ci
e hrlich</w>
re ali
T V</w>
Re st</w>
ch tet</w>
gen au
Me di
fro h</w>
a tions</w>
ken nt</w>
D ir</w>
mus ic</w>
1 1</w>
ti red</w>
ma d</w>
fess or</w>
lie ß</w>
H inter
Bil ly</w>
tr ans
m outh</w>
hl st</w>
B uch</w>
Stra ße</w>
fut ure</w>
wei rd</w>
re turn</w>
B au
gi c</w>
lear n</w>
be ss
Wa hl</w>
y n</w>
ber s</w>
see ing</w>
ta kes</w>
lo y
c a</w>
pic ture</w>
Ar bei
l o</w>
W hatever</w>
un e</w>
Ne h
gel t</w>
ot o
ha ttest</w>
Ar zt</w>
lo ch</w>
S I
be at</w>
m as</w>
ol f</w>
F euer</w>
Die ses</w>
F ern
ken nst</w>
c er</w>
an gerufen</w>
Gl ück
a g
Do ktor</w>
gi ven</w>
as se</w>
fol gen</w>
ill s</w>
z war</w>
d ou
Des halb</w>
ut ely</w>
un ken</w>
st in
m et
mm a</w>
T ony</w>
is st</w>
Wh oa</w>
l in</w>
do m</w>
P lan
vie w</w>
c ent</w>
D ich</w>
B as
hol t</w>
ci dent</w>
S ein</w>
re port</w>
h ed</w>
wor ried</w>
H ü
unser em</w>
V ol
inv ol
N ick</w>
Sie ht</w>
rie den</w>
Some one</w>
h nt</w>
Un s
Sar ah</w>
swe et</w>
rie ben</w>
un ge</w>
i can</w>
vö llig</w>
th in</w>
no body</w>
wor se</w>
An gel
gef ra
teil en</w>
gel assen</w>
st ü
S H
ste st</w>
glau bt</w>
di tion</w>
s li
be ste</w>
re de</w>
j ect</w>
S P
J ac
krie gt</w>
grö ß
la w
ra te</w>
stra ight</w>
I sn</w>
gr ap
ester day</w>
even ing</w>
wahr scheinlich</w>
gefra gt</w>
S ter
M el
Ge b
ri de</w>
C ause</w>
sp richt</w>
a ff
versu che</w>
tre ten</w>
je de</w>
wei sen</w>
fa hr</w>
v is</w>
p li
ba g</w>
tr an
I T</w>
kl einer</w>
Ge fühl</w>
Su per
vi ously</w>
dre am</w>
Ma jor</w>
Lea ve</w>
M ist</w>
ben s
Fa ther</w>
fol low</w>
brin ge</w>
bo t</w>
R ay</w>
S ay</w>
kämp fen</w>
S to
Nach richt</w>
sch te</w>
c tor
bo ard</w>
A M
in formation</w>
prot ect</w>
Ac tually</w>
rei s</w>
B ig</w>
ul t</w>
Ma chen</w>
al a
Lu ft</w>
wel come</w>
Be sch
In di
L it
am p</w>
Th ree</w>
f ied</w>
me ant</w>
ma t
f igh
i ously</w>
g a</w>
str ong</w>
ssi on
sch ung</w>
nen nen</w>
fin ally</w>
G lei
h ung
Ma je
tz lich</w>
bl ö
Gefän gnis</w>
t ä
so unds</w>
pa in</w>
funktion iert</w>
J ul
c la
thin ks</w>
mö gen</w>
gef angen</w>
u tion</w>
gel ie
V ic
G H
mista ke</w>
gro ß</w>
ge ant</w>
G rand
schla g</w>
hör te</w>
M om
s la
em o
qu ar
R om
se cur
Re member</w>
Blei b</w>
b te</w>
L ar
J ungen</w>
O hne</w>
E very</w>
Uns ere</w>
Mar k</w>
gesch ickt</w>
V al
Ta gen</w>
se chs</w>
mes sage</w>
ti sch</w>
har t</w>
ear ly</w>
lei der</w>
Kranken haus</w>
Au gen
passi eren</w>
Ab out</w>
sp rochen</w>
th day</w>
l en
Ha be</w>
On kel</w>
Ge s
au ss
schie ßen</w>
Gi bt</w>
Lon don</w>
di sc
ch el</w>
fra ge</w>
ri g</w>
er weise</w>
s mar
rä u
sk y</w>
j en
re al
M ör
su per</w>
su che</w>
V iel</w>
T or
St ück</w>
D I
fü hlen</w>
sch u
H or
fe et</w>
kl eines</w>
über all</w>
pr in
wh e
we m</w>
N at
wi ck
ver letzt</w>
glau bst</w>
Do ctor</w>
M ur
heira ten</w>
S il
mit t
sich tig</w>
Mo ve</w>
ba ck
it a</w>
Mö g
per sön
H mm</w>
pu ll</w>
B rin
no r</w>
cl ass</w>
M as
L O
at ten
lang sam</w>
K or
l ist</w>
bro ke</w>
sch reck
d or
v in
B ill</w>
we der</w>
V o
me mor
C all</w>
L ö
z immer</w>
erkl ären</w>
app ro
O li
ch i
Zu kunft</w>
buil ding</w>
dan ger
Schlü ssel</w>
F en
ss es</w>
I diot</w>
Op fer</w>
hl te</w>
i denti
drü ben</w>
T at
Kör per</w>
Wei h
au ßer</w>
Wa ffen</w>
w ea
lea d</w>
ck te</w>
An ge
zu erst</w>
C ra
gescha fft</w>
tal ked</w>
sag ten</w>
interessi ert</w>
b ly</w>
klin gt</w>
r oss</w>
näch ste</w>
tr a</w>
k y</w>
c as
fü hlt</w>
n ut
Entschuldig en</w>
di rec
W ich
atta ck</w>
ar ri
secur ity</w>
Wieder sehen</w>
exp ect</w>
con tin
c ir
we h</w>
t ie</w>
Ber u
mi ssed</w>
eu t
K ap
hei m</w>
ste p</w>
ha m</w>
Th om
k ra
ood bye</w>
erinn ern</w>
bus y</w>
Amer ik
bli ck</w>
oug h
Kön ig</w>
qu e</w>
iz ed</w>
an zu
P fer
pro ble
app e</w>
er nt</w>
P un
cau ght</w>
Eu er</w>
y l
b an
E twas</w>
wen iger</w>
ka men</w>
B ea
e hen</w>
din gs</w>
H eil
ne c
ca tion</w>
R A
H aus
Per son</w>
al y
kümm ern</w>
spre che</w>
ni mmt</w>
ste ckt</w>
zi ert</w>
f ish</w>
man der</w>
wa gen</w>
Woh nung</w>
in s
J on
stre et</w>
ou p</w>
i ster</w>
sear ch</w>
an rufen</w>
we dding</w>
er fahren</w>
H a</w>
si des</w>
ö p
th row</w>
sur vi
pos ition</w>
hei ßen</w>
fe st
ver mis
Rich tig</w>
E le
könn test</w>
o w
es cap
ig stens</w>
Re gi
s wear</w>
Be zie
stor ben</w>
gel ernt</w>
ar ly</w>
I T
ge stellt</w>
L icht</w>
Leu ten</w>
dro p</w>
ta tion</w>
Le e</w>
pro gra
Zeu g</w>
D rin
st ren
k ten</w>
P f
Sch ü
a ger</w>
K ol
no chmal</w>
af ter
gen er
auf zu
O M
st ers</w>
könn t</w>
Sp e
wat ching</w>
le g</w>
B li
H ab
&apos; am</w>
ke pt</w>
st ück</w>
Himm el</w>
C le
Be fe
onn ie</w>
Every body</w>
sch icken</w>
ge tr
Sch mer
Sin n</w>
il ed</w>
Sel bst
Every one</w>
S us
sch auen</w>
Rich ard</w>
r ie</w>
Milli onen</w>
ot os</w>
ell ing</w>
won der</w>
re dest</w>
bo y
vor stellen</w>
ar ds</w>
rei ch</w>
M und</w>
me dic
E S</w>
er wartet</w>
äch lich</w>
su g
p at
T ar
te ch
ken nen
Th ink</w>
k et</w>
besch ä
Sher iff</w>
ßer dem</w>
ig ar
mon th</w>
be tr
C ity</w>
Pa ti
M al
sp or
me di
ent y</w>
r om
some times</w>
M au
Ed die</w>
i sche</w>
pro du
e v
b ank</w>
W illi
s qu
W atch</w>
bir thday</w>
Un ser</w>
th or
E ure</w>
k n
p a</w>
f y</w>
or gan
L ooks</w>
G ru
app y</w>
war ds</w>
F ein
d ying</w>
th es</w>
tr otzdem</w>
nö tig</w>
pa id</w>
R ie
T u</w>
H otel</w>
Hör t</w>
l ot
danger ous</w>
pre ss</w>
d äch
mo ved</w>
li es</w>
Sicher heit</w>
m as
h mm</w>
Bo den</w>
eil en</w>
et tet</w>
glaub lich</w>
care ful</w>
deci ded</w>
En gli
gen cy</w>
got ten</w>
v ir
po or</w>
sin n
bo at</w>
r or
O U
Wel come</w>
B rau
besch ü
um bringen</w>
all er
b ens</w>
Per haps</w>
sie ur</w>
al ter</w>
pre sent</w>
viel en</w>
tain ly</w>
fi x</w>
Entschuldig e</w>
c oo
C as
fin ish</w>
W H
Haup t
comp li
lau t</w>
co p</w>
enti re</w>
man chmal</w>
Fran c
y esterday</w>
st elle</w>
C K
B or
Will kommen</w>
pri son</w>
D is
los s</w>
st ä
gele gt</w>
ha ft</w>
gir l
h om
mo vie</w>
en k</w>
b al
Clar k</w>
auf hören</w>
ent schei
- No</w>
F alls</w>
ha sse</w>
vi cti
s ell</w>
hä lt
sit uation</w>
all er</w>
wonder ful</w>
Geschä ft</w>
kill er</w>
wan d
bu ddy</w>
na h</w>
wi se</w>
c en
lu stig</w>
mer k
dar k</w>
terri ble</w>
th ir
um gebracht</w>
vis ion</w>
app reci
sp ir
ir gen
sich er
Er de</w>
plan e</w>
F ir
s ung</w>
län ger</w>
sc ri
Pro fessor</w>
no on</w>
en z</w>
oh len</w>
Chr ist</w>
Dan iel</w>
i ere</w>
J an
Bo bby</w>
sti ck</w>
ur y</w>
M s.</w>
invest ig
ff ic
R en
we gs</w>
Christ mas</w>
v al</w>
au fen</w>
Ch ief</w>
gra tu
da ß</w>
sit zt</w>
R an
Di dn</w>
e h</w>
ber ü
ti ert</w>
v ey</w>
ne l</w>
Kön ig
ga be</w>
gent lemen</w>
d d</w>
T ran
gesch ehen</w>
Ry an</w>
p sych
ec tion</w>
zei gt</w>
g ni
st om
Tom my</w>
schä tze</w>
any where</w>
comp let
k iss</w>
da me</w>
sti mm
app t</w>
genau so</w>
Son st</w>
verschwin den</w>
complet ely</w>
Any thing</w>
part ment</w>
Mein ung</w>
dan ach</w>
is ion</w>
person al</w>
ab o
r ele
t at</w>
Ste ve</w>
D on
ge storben</w>
Z wei
voll er</w>
verdi ent</w>
flo or</w>
John ny</w>
La den</w>
sp end</w>
L or
I mmer</w>
in ten
e my</w>
Gebur t
Amer ican</w>
lau gh
d damn</w>
g on</w>
e di
Ver bin
Qu e
app ed</w>
S ig
qu iet</w>
supp ose</w>
ig keit</w>
Arsch loch</w>
al ing</w>
evi dence</w>
Off ic
ha uen</w>
Bl ut
it ely</w>
C re
k i</w>
I S</w>
sp ea
nei gh
soll st</w>
Be weg
Mör der</w>
Kon tr
Er nst</w>
Wel che</w>
in t
H uh</w>
tot ally</w>
J ane</w>
e ch
Ab sol
ha sn</w>
an c
st ir
M et
el ly</w>
wach sen</w>
sch w
s th
Wei ß</w>
- Ich</w>
vo ice</w>
O ber
jem als</w>
en en</w>
ex t</w>
gesch lossen</w>
mei sten</w>
B E
ie ht</w>
clo thes</w>
Ra chel</w>
b oo
hin ten</w>
wär st</w>
c ops</w>
Au to
Mar tin</w>
wei s</w>
le sen</w>
Mor d</w>
ill er</w>
a ch
rela tion
ne ar</w>
g ton</w>
a cht</w>
2 5</w>
e her</w>
r um</w>
f ly</w>
sch war
arbei te</w>
Ser geant</w>
b es</w>
v at
sa che</w>
un sch</w>
La st</w>
z ü
on ed</w>
kill ing</w>
t ary</w>
Mon ate</w>
we aring</w>
Hab t</w>
auf s</w>
t wi
s wi
stor e</w>
M y
1 8</w>
f lie
ac cident</w>
De an</w>
stell ung</w>
Chu ck</w>
her aus</w>
E i
Mor e</w>
Man chmal</w>
sit ting</w>
z es</w>
fu ck
Ä h</w>
sp i
sa ved</w>
er wä
ci al</w>
in o</w>
B om
Sch ön
g iss</w>
Er zä
re co
R ed</w>
A .</w>
resp ect</w>
ber u
wa ch</w>
Mon sieur</w>
en ten</w>
T isch</w>
cer tain</w>
schli mm</w>
T schü
H at
li sten
ea ting</w>
s y</w>
O R</w>
os en</w>
Mr s</w>
f rea
Sch luss</w>
ats ächlich</w>
Kon ta
B an
Ta ges</w>
vi l</w>
Woh in</w>
S it</w>
sel t
stau rant</w>
i um</w>
1 6</w>
ma chte</w>
t ter
for got</w>
G ol
an dem</w>
An na</w>
bit ten</w>
ur es</w>
b low</w>
Sch rei
is a</w>
a ir
ann a</w>
c lub</w>
1 4</w>
sh ort</w>
Ma g
K ri
k it
m ale</w>
Verzei hung</w>
S E
as su
War ten</w>
be halten</w>
schul dig</w>
pun kt</w>
t ere</w>
jo in</w>
fin ished</w>
ro und</w>
star k</w>
nis se</w>
Her ren</w>
b us</w>
comp le
N O
dre d</w>
W en
er wi
stopp ed</w>
Char les</w>
b ought</w>
ap art
Ti me</w>
th ous
Le bens</w>
ik o</w>
ent fer
versch w
Sti ll</w>
M ex
vi ol
girl friend</w>
sa l</w>
N äch
mi ddle</w>
h ing</w>
spa ce</w>
i or</w>
sa tz</w>
sich tlich</w>
Fa hr
Kamp f</w>
ha f
wus st</w>
über ra
tur es</w>
lo ves</w>
M other</w>
char ge</w>
f et
an fangen</w>
Th e
le gal</w>
Me hr</w>
I .</w>
Da für</w>
Nä he</w>
di st
jem andem</w>
Ru f</w>
- -
gewin nen</w>
T ro
gefä hrlich</w>
Op en</w>
ama zing</w>
ro te</w>
se tz</w>
war m</w>
beza hlt</w>
ex peri
al en</w>
interest ed</w>
cover ed</w>
boy friend</w>
L etz
st är
de ut
c ard</w>
H y
agre e</w>
Antwor t</w>
el a
ma in</w>
2 4</w>
R aus</w>
Z au
i x</w>
tic al</w>
op en
f as
Ein s</w>
for ever</w>
g ei
Hur ry</w>
l unch</w>
f liegen</w>
g in</w>
hän gen</w>
1 .</w>
T on
Liebl ing</w>
erinn ere</w>
B re
part ner</w>
i o</w>
f ell</w>
um in
simp le</w>
Pre sident</w>
recor d</w>
be tra
Ro bert</w>
sin gle</w>
la tions</w>
Any way</w>
j ä
C H</w>
tri p</w>
Mon aten</w>
su cc
Ge ben</w>
Com mander</w>
se ven</w>
as y</w>
R au
Entschei dung</w>
u red</w>
star b</w>
k t
a st
gesch rieben</w>
conta ct</w>
des halb</w>
o ba
5 00</w>
wer fen</w>
schön e</w>
O ver</w>
K r
pp er</w>
A s
pr oud</w>
smar t</w>
plan t</w>
hand elt</w>
be wa
be kommt</w>
call s</w>
i ons</w>
ü te</w>
Ro ger</w>
Z o
sus p
lie b</w>
an ing</w>
vor sichtig</w>
dam als</w>
B al
rit t</w>
l ar
en te</w>
sol che</w>
Be ste</w>
Sin ce</w>
or din
me ss</w>
f an</w>
er es</w>
C al
Some times</w>
an ne</w>
sha re</w>
Han dy</w>
je des</w>
Lei che</w>
su ch
ac ross</w>
T rin
con ne
stran ge</w>
ner v
ima gine</w>
S ec
G ent
T O</w>
stat t</w>
Glau bst</w>
Eig entlich</w>
ger ettet</w>
mar ry</w>
ep s</w>
hör st</w>
bra in</w>
fä hrt</w>
ü gen</w>
be ten</w>
tra in</w>
Fam ili
Dar um</w>
ar ran
Dre i</w>
D eut
reali ze</w>
hi story</w>
re gi
gri ff</w>
pro ve</w>
l shit</w>
Neh men</w>
D an</w>
Wir d</w>
Ver standen</w>
proble ms</w>
na hm</w>
ti v
re por
t u</w>
D ru
Sch li
qu ick</w>
Au ge</w>
In forma
g ner</w>
f ear</w>
ei ght</w>
Är ger</w>
st le</w>
Part ner</w>
P al
cour t</w>
s ong</w>
qu i
vor her</w>
se y</w>
ut y</w>
pap er</w>
com mun
sch au
ous in</w>
ig t</w>
ö nen</w>
Glau ben</w>
i schen</w>
zi eren</w>
H appy</w>
2 00</w>
&apos; Cause</w>
exc use</w>
mi le</w>
ap ologi
fe hlt</w>
apart ment</w>
ser vice</w>
rec ei
E mily</w>
no ti
An walt</w>
nach dem</w>
m us</w>
Versch win
ä h</w>
hei ten</w>
nah me</w>
Kl appe</w>
J ap
sel ben</w>
re det</w>
c op
G or
Pat ri
Her z
H ea
A ut
je dem</w>
T ry</w>
M ul
pea ce</w>
hi de</w>
beza hlen</w>
N er
S oll
gro ßer</w>
surpri se</w>
for d</w>
Über ra
Hon ey</w>
ha n</w>
St elle</w>
s ä
u g
gi ft</w>
ent ri
ec ting</w>
ex tra</w>
lu g</w>
G E
gi b</w>
for ce</w>
win dow</w>
cri me</w>
do wn
hil ft</w>
ri age</w>
sa d</w>
ki d
stol z</w>
la dies</w>
An dre
publi c</w>
as sh
gewö hn
z ep
sou l</w>
Ja ke</w>
ge h
nieman den</w>
P ra
sm ell</w>
di ffic
invol ved</w>
d den</w>
ar ea</w>
priv ate</w>
Bil d</w>
vern ment</w>
En gl
eu ert</w>
Offic er</w>
ver heiratet</w>
be th</w>
Ba ck</w>
ha use</w>
K ate</w>
prom ised</w>
go d</w>
C ool</w>
B ier</w>
de te
tru ck</w>
Ch in
wün schte</w>
ne u</w>
w all</w>
P au
con ver
Lou is</w>
figh ting</w>
k or
Beweg ung</w>
appreci ate</w>
I I</w>
geschla gen</w>
D ou
st ar</w>
c ell</w>
sp ent</w>
unter wegs</w>
c alm</w>
Fen ster</w>
Ab en
Jo ey</w>
o we</w>
schlie ßen</w>
ur ch</w>
se at</w>
trau en</w>
Cla ire</w>
ic al</w>
Ge sp
he al
V ir
dr unk</w>
Sh ould</w>
über zeu
woh in</w>
st rei
le tter</w>
h otel</w>
h ood</w>
b ung</w>
Thom as</w>
bro ken</w>
M os
Z ur
Bo y</w>
ge zogen</w>
secon ds</w>
To o</w>
Chr is</w>
for ward</w>
dau ert</w>
1 3</w>
su it</w>
e z</w>
i diot</w>
benut zt</w>
speci ally</w>
AN D</w>
dien en</w>
fre e
K lasse</w>
D ä
dru ck</w>
aus zu
neu es</w>
Lit tle</w>
Mei ster</w>
pl ö
On ce</w>
ver kaufen</w>
dum m</w>
Co un
sch e
si bili
konn ten</w>
We gen</w>
c ated</w>
pleas ure</w>
Ge danken</w>
Mar ia</w>
Ma dame</w>
V inc
t eil</w>
h em
Li ly</w>
O per
ol s</w>
it or</w>
k am
O oh</w>
Fin ger</w>
tell ig
law yer</w>
ig in
i us</w>
rich tige</w>
la gen</w>
dig ung</w>
ut z
- Ja</w>
hält st</w>
hung ry</w>
ec ts</w>
M ot
sp rin
hand eln</w>
ab zu
Mon at</w>
z e
T ed</w>
Some body</w>
k op
vis it</w>
Lu ke</w>
et er
Wor te</w>
Informa tionen</w>
relation ship</w>
lo wing</w>
Trau m</w>
En er
st on</w>
fü hr
Sc ott</w>
vertrau en</w>
la den</w>
R aum</w>
Car ter</w>
st isch</w>
r at</w>
N ar
schie den</w>
kann te</w>
d y
b a</w>
dur ing</w>
hei ts
su l
la tion</w>
in no
tri fft</w>
ear t</w>
pp ing</w>
f assen</w>
f oot</w>
Che f</w>
wer det</w>
mer kt</w>
ge wi
Ver such</w>
d as
geschla fen</w>
hur ry</w>
c um
v o</w>
fil m</w>
Y o
wi der
hon est</w>
b o</w>
c ul
oo dy</w>
gr oup</w>
pre ss
Y o</w>
1 7</w>
&apos; S</w>
pati ent</w>
D E
ff er</w>
2 .</w>
F al
über prü
brea k
le gt</w>
da gegen</w>
Besch eid</w>
su per
A man
en nt</w>
lo vely</w>
Fo to</w>
al ity</w>
Hoch zeit</w>
fi le</w>
bra chte</w>
B un
el ess</w>
T im</w>
L and
Z iel</w>
Ge fahr</w>
B ar</w>
S hel
J ason</w>
r is</w>
Dur ch
S hi
Ge fallen</w>
ss y</w>
eu er
beschä f
Ma c
rau m</w>
in es</w>
nec ess
kl är
atten tion</w>
wi tz
i sten</w>
app en</w>
F ren
F ei
Min ute</w>
L ab
de ta
her um</w>
Ein er</w>
schli mmer</w>
sch wö
o gen</w>
th a</w>
e wi
5 0
sa ke</w>
dou bt</w>
b i</w>
fe els</w>
An fang</w>
fa mili
m ie
c tive</w>
P ho
sol di
An dy</w>
lan gen</w>
I s
u ally</w>
up set</w>
st ood</w>
Com puter</w>
Ar th
l y
B oot</w>
Mi st
M AN</w>
R olle</w>
bö se</w>
Sek unden</w>
Ge gen
A U
za hlen</w>
Le bens
gele sen</w>
gu il
p ot
Jer ry</w>
F r
Se ht</w>
dig e</w>
ver stän
Ke vin</w>
dre hen</w>
W ant</w>
E gal</w>
ho ch
Ru ssi
ck st</w>
Stre et</w>
Wei le</w>
V ide
W ur
P an
f all
ie f
ür en</w>
sü ß</w>
pa in
fa vor
ris k</w>
de twas</w>
be ein
I L
it ä
ab ili
K n
Bezie hung</w>
after noon</w>
wen igstens</w>
m and
won nen</w>
x i</w>
den falls</w>
der en</w>
li er</w>
S un
oo ds</w>
b at</w>
ver br
ru les</w>
interest ing</w>
Eri c</w>
geb rochen</w>
6 0</w>
R ose</w>
CH T</w>
Augen blick</w>
ga te</w>
I tal
we ch
jo ke</w>
inst ead</w>
hor se</w>
ang ry</w>
de ep</w>
E mma</w>
Ma y
be er</w>
li ert</w>
Ja hr
li kes</w>
cer tainly</w>
H ig
sau er</w>
ul ous</w>
din gt</w>
ge arbeitet</w>
gel aufen</w>
u er</w>
er lau
k el
dar ling</w>
F lor
fo ot
in cre
glei chen</w>
Au ßerdem</w>
off en</w>
verdamm te</w>
m om
Che ck</w>
Schn ell</w>
V e
ti ges</w>
N A</w>
er ing</w>
s l
Schei ß
Arth ur</w>
ba stard</w>
B ot
Gra ce</w>
sor gen</w>
glau b</w>
li ked</w>
f ool</w>
si ve</w>
ro t</w>
ver s</w>
t ough</w>
sch wier
N i
bur n</w>
V in
U R
c at
beson ders</w>
go vernment</w>
V at
un ded</w>
C I
n one</w>
Kontr olle</w>
entschuldig en</w>
für chte</w>
fig ured</w>
sig ned</w>
ti tu
ph y
hol ding</w>
te m
er mor
Sch o
w ine</w>
plö tzlich</w>
ent ed</w>
p f
Par k</w>
b auen</w>
sho ot
in for
ig nor
Li ste</w>
für s</w>
up er</w>
Re ch
sie h</w>
star ting</w>
O ut</w>
ac tion</w>
la t
bl ind</w>
G ir
D eal</w>
K os
da ten</w>
vi a</w>
ge wal
wal king</w>
ma ster</w>
Drin k</w>
om in
an sehen</w>
fan ta
Sch wan
il le</w>
mp e</w>
H m</w>
Sti mme</w>
fi c</w>
W en</w>
H ouse</w>
W oll
Aman da</w>
C an
Wit z</w>
Ma ster</w>
kom isch</w>
br u
des wegen</w>
ge wonnen</w>
M ich</w>
al er</w>
vi de
ge fahren</w>
i ssen</w>
differ ence</w>
zie ht</w>
Di es</w>
to m</w>
c ute</w>
benut zen</w>
gere det</w>
e x</w>
ar rest</w>
gu tes</w>
fur cht
E mp
Ali ce</w>
- Yeah</w>
woh nt</w>
D ort</w>
umin dest</w>
li ved</w>
on a</w>
sch ri
le ep</w>
fort un
en det</w>
N ext</w>
K einer</w>
m ot
verste hst</w>
ick y</w>
g rü
pro fe
mü sst</w>
r über</w>
dar fst</w>
st et</w>
C r
tz chen</w>
ma il</w>
Ma sch
c ts</w>
c s</w>
ja il</w>
gel d</w>
k alt</w>
hän gt</w>
un less</w>
sel n</w>
Verbin dung</w>
mü sste</w>
dri ving</w>
i sti
fol gt</w>
an o</w>
fa vor</w>
di r
cre w</w>
kap ut
defin itely</w>
wü tend</w>
D un
stei gen</w>
sch wan
mit tel</w>
pre gn
C lub</w>
Fi ve</w>
diffic ult</w>
m äch
her r
z ig</w>
ch tung</w>
H om
ver antwor
inter ess
ge kauft</w>
offic er</w>
t .</w>
stu ck</w>
blu e</w>
na med</w>
Einz ige</w>
Lau ra</w>
La ge</w>
Per fe
Be fore</w>
hei ß</w>
ger t</w>
p ose</w>
en ga
Lo ve</w>
r or</w>
C u
erle digt</w>
Ge hir
W om
ri d</w>
i on
ick ly</w>
Phi l</w>
dec ision</w>
be kannt</w>
col le
c ash</w>
Pe te</w>
k ni
B ö
t is</w>
it ch</w>
Ju dy</w>
C am
re as
Be weise</w>
Ear th</w>
mein te</w>
per im
g old</w>
sle eping</w>
fa hre</w>
S uper</w>
or ders</w>
Un fall</w>
ic o</w>
cra p</w>
M ann
k ers</w>
sch au</w>
H i
Dou g</w>
c ele
r ot
Whi te</w>
ste cken</w>
nah men</w>
mü de</w>
lot te</w>
z te</w>
Un cle</w>
Ta sche</w>
nen nt</w>
Str ei
Le o</w>
ver ur
k ün
b are</w>
eh men</w>
Amer ica</w>
sta ying</w>
lo cked</w>
na chten</w>
at tra
mö g
sc ene</w>
os p
S om
at en
acc ept</w>
com puter</w>
Sch au
d ul
Do c</w>
ru p
tr ie
Wal ter</w>
schn ei
Sel bst</w>
sch ied</w>
wer d</w>
vil le</w>
Th er
S we
evi l</w>
gel aden</w>
Te ch
S ur
y p
imm edi
B ad</w>
sk i</w>
B ank</w>
del i
ß en
Nach richten</w>
ein zu
se a</w>
kl ein</w>
Fren ch</w>
st ein</w>
ein fa
put ting</w>
so wieso</w>
a k</w>
di a</w>
Bri an</w>
Sch war
listen ing</w>
ver sprochen</w>
gratu lations</w>
sp ort</w>
ga in</w>
d un
L ang
Set z</w>
n ungen</w>
hi elt</w>
ill a</w>
G al
pr ä
mö chten</w>
du de</w>
le ben
et ten</w>
Vinc ent</w>
s har
Bei spiel</w>
Pun kt</w>
Ro bin</w>
D .</w>
Se ele</w>
Gesch enk</w>
Gr en
Engl and</w>
m ens</w>
Rich tung</w>
un möglich</w>
em er
Dro gen</w>
ke ys</w>
sho es</w>
sh op</w>
ad dress</w>
Geb äu
Fir ma</w>
pick ed</w>
hun dred</w>
wen den</w>
Sek unde</w>
S eid</w>
ge habt</w>
mut lich</w>
unbe dingt</w>
d ere</w>
e g
A k
n ü
rea ding</w>
est s</w>
Da me</w>
t each</w>
pri son
mach ine</w>
1 8
z ö
r ent</w>
. A.</w>
co de</w>
Mom my</w>
th em
sti an</w>
kon tr
rea ch</w>
hei ße</w>
mei ster</w>
wee th
ma gic</w>
be oba
E is
S an</w>
i ve</w>
ich tet</w>
me e</w>
beschü tzen</w>
on er</w>
Bar ry</w>
Zu g</w>
d ungen</w>
en joy</w>
fin dest</w>
mil es</w>
gu ard</w>
kümm ert</w>
Al l
al ität</w>
um s</w>
ke eping</w>
c in
ar ently</w>
il ing</w>
ie ß</w>
ther ine</w>
pre sen
o ften</w>
g aben</w>
te m</w>
ba th
as ed</w>
Ex actly</w>
c ent
en tr
Pro z
m ous</w>
persön lich</w>
Re geln</w>
A no
A dam</w>
B at
U S</w>
P reis</w>
ch a
phy si
g ne</w>
F ün
ab ri
br ig
f lü
x ed</w>
Engli sh</w>
Ar m</w>
weap on</w>
P sych
C y
de te</w>
Har vey</w>
z in</w>
ci a</w>
An ruf</w>
r oll</w>
for give</w>
M uss</w>
help ing</w>
0 0
ent in</w>
wor st</w>
G old</w>
K elly</w>
P lä
S au
V amp
up on</w>
us ual</w>
Kar te</w>
with in</w>
mar riage</w>
wä l
m p</w>
Z er
Ü ber</w>
da hin</w>
assh ole</w>
ar ms</w>
d oll
z ed</w>
iver s
wei tere</w>
St and</w>
men sch
H ex
c at</w>
ge sucht</w>
m in</w>
r o</w>
h under
W A
H unger</w>
m pa
thir d</w>
Got tes</w>
w rote</w>
I S
A my</w>
is on</w>
fu cker</w>
c ru
Sim on</w>
go ddamn</w>
G oodbye</w>
gr aben</w>
C ro
ste he</w>
s low</w>
bie ten</w>
d it</w>
Kin dern</w>
b ooks</w>
E d</w>
te a</w>
erwi scht</w>
Her zen</w>
bla me</w>
weeth eart</w>
gra mm</w>
c ure</w>
Be son
g net</w>
pr o</w>
Tschü ss</w>
per haps</w>
er ten</w>
b ie</w>
M mm</w>
c las
fuck in</w>
Per son
z entri
h ello</w>
ca ke</w>
schwö re</w>
gest ohlen</w>
H ank</w>
tra ck</w>
Den kst</w>
y ers</w>
IN G
te ten</w>
C oo
escap e</w>
Je ss
tic s</w>
Sch ick
Gei st</w>
Kra ft</w>
P l
perfe kt</w>
ver liebt</w>
Wo von</w>
E hre</w>
ell schaft</w>
pa ck</w>
L E</w>
M ol
W at
Bl ö
wh oa</w>
mo ther
geb oren</w>
lear ned</w>
Könn te</w>
Da men</w>
ver ändert</w>
- Was</w>
y ne</w>
Wo chen
L isa</w>
las st</w>
B rief</w>
our selves</w>
en er
Jack son</w>
F lei
E hem
ver kauft</w>
E A
ss on</w>
iz za</w>
letz ter</w>
j unge</w>
Do esn</w>
feel ings</w>
Eu ro
g uns</w>
H it
ker l</w>
de f
will ing</w>
Fre u
tt a</w>
pre par
wee k
schn eller</w>
Ge fühle</w>
groß artig</w>
Geburt stag</w>
de p
H oll
i en
am ing</w>
im possible</w>
Kl eine</w>
n ern</w>
im pre
Re de</w>
ho l</w>
com fort
ut z</w>
G üte</w>
gesch n
R is
K un
D er
da ma
dre ht</w>
versch ie
Ar en</w>
f ru
k ung</w>
inno cent</w>
Willi am</w>
Tan te</w>
Bla ck</w>
I R
dru gs</w>
y o</w>
Jen ny</w>
eigen e</w>
F le
n imm</w>
nor mal
n ic
sie ben</w>
be kam</w>
R am
s mal</w>
s our
u es</w>
dien st</w>
T ot
Gent lemen</w>
Y ep</w>
G et
st ole</w>
bo ther</w>
e y
plan et</w>
na mes</w>
B ran
qu it</w>
la y</w>
b unch</w>
pro per
S A
Oli ver</w>
supp ort</w>
com mit
Pol i
her self</w>
c lu
Ver giss</w>
stir bt</w>
i le
Un der
Lar ry</w>
am i</w>
öff nen</w>
cap tain</w>
up stairs</w>
de fen
surpri sed</w>
mm st</w>
Er st</w>
ra d</w>
er reichen</w>
ß lich</w>
- Yes</w>
hi ding</w>
gel ö
Rück en</w>
j our
her um
e ding</w>
in nen</w>
col lege</w>
z un
wi ld</w>
tr itt</w>
her o</w>
f at</w>
T oll</w>
ä re</w>
er warten</w>
Rei se</w>
en th
plan s</w>
F otos</w>
A dre
E cht</w>
sibili ty</w>
Ver gan
L en
war t</w>
ha dn</w>
La dies</w>
gi ves</w>
Konta kt</w>
di ck</w>
al lowed</w>
d ol
sp ot</w>
be weisen</w>
beschäf tigt</w>
victi m</w>
et h</w>
an ten</w>
sol ange</w>
rä ch</w>
men tion</w>
su n</w>
mm er
fu cked</w>
a gent</w>
der ung</w>
D O
p al</w>
C ur
verschw unden</w>
Ger icht</w>
o ever</w>
h en
ti er</w>
ter t</w>
hop ing</w>
Di re
d on
K li
un i
G il
un glaublich</w>
thous and</w>
w ind</w>
tt äu
oo m</w>
ra ce</w>
Tre ffen</w>
r ying</w>
V E</w>
vermis st</w>
dru g</w>
st in</w>
man i
Zei ten</w>
comfort able</w>
We st</w>
tre at</w>
p il
profe ssion
ver raten</w>
ä r</w>
B ut
om s</w>
ex tre
das selbe</w>
sch önen</w>
Was hin
ic ide</w>
S op
lie f</w>
c ess</w>
hüb sch</w>
respon sible</w>
an no
Den k</w>
ea ter</w>
b ell</w>
fi red</w>
dir ty</w>
e hr
st ür
ck ets</w>
Hol y</w>
re t
W under</w>
ff y</w>
ber g</w>
ent de
con tra
s na
erle digen</w>
da l</w>
au ßer
gesch ossen</w>
Vor sicht</w>
Que en</w>
Mon ster</w>
destro y</w>
weap ons</w>
spec tor</w>
la g</w>
N ase</w>
ge hören</w>
rich tigen</w>
ro ck</w>
pregn ant</w>
lo w
F rieden</w>
op p</w>
deci de</w>
H as</w>
Tur n</w>
necess ary</w>
ty pe</w>
de serve</w>
wonder ing</w>
T ö
ne ben</w>
Ha are</w>
j ung</w>
Kir che</w>
trau rig</w>
A p
p h</w>
fra u</w>
el ec
et ter</w>
ra dio</w>
Kin der
E ll
cri min
Mi ssion</w>
absol utely</w>
W es
H igh
brig ens</w>
L ust</w>
di sp
B and</w>
hon or</w>
Geheim nis</w>
ac ting</w>
J esse</w>
D y
begin ning</w>
th o
Ch ri
cho ose</w>
Car ol
fä llig</w>
ar d
An gel</w>
ver ab
clos ed</w>
ä l
spra ch</w>
Wei se</w>
ad mit</w>
tur ns</w>
t un
Ano ther</w>
g rea
gen eh
tre e</w>
ther wise</w>
fre ut</w>
C K</w>
ein t</w>
ä hn
verste ckt</w>
d ouble</w>
verdamm ten</w>
n ur
d eines</w>
Schla mpe</w>
ti v</w>
pas sed</w>
Washin gton</w>
Da te</w>
d den
l li
st eal</w>
spea king</w>
ki ck</w>
au thor
Vergan genheit</w>
car ry</w>
vi li
R at
gelie bt</w>
ell ent</w>
So unds</w>
B rie
geb aut</w>
pan ts</w>
help ed</w>
ge ment</w>
E x</w>
r unter
S .</w>
t olle</w>
kit chen</w>
E D</w>
se qu
experi ence</w>
t sch
nat ure</w>
Ale x
gro w</w>
Bür ger
schreck lich</w>
mon d</w>
buil d</w>
Al an</w>
po wer
T it
H am
us ually</w>
ne ck</w>
b ing</w>
o cc
t ief</w>
wr iting</w>
L an
kti v</w>
j ump</w>
O b</w>
dar in</w>
drin king</w>
ner vö
gl ass</w>
gi g</w>
Car l</w>
p in
nä her</w>
in tellig
ar my</w>
Hig h</w>
gra b</w>
c os
vor berei
Gebäu de</w>
pic tures</w>
Sp ec
c al
gen ie
d are</w>
exc ept</w>
gel ogen</w>
favor ite</w>
fre und
Je ff</w>
ch urch</w>
Weih nachten</w>
mit einander</w>
Überra schung</w>
ge halten</w>
F lü
mit h</w>
Fre d</w>
los ing</w>
entfer nt</w>
ur er</w>
ser vi
H ir
H um
b alls</w>
ver spreche</w>
clo ck</w>
Sch i
ann er</w>
3 .</w>
em ed</w>
T ee</w>
Le on
ak zep
Schu he</w>
sch ar
Bli ck</w>
Sit uation</w>
Pol ice</w>
Lo is</w>
bul lshit</w>
oll er</w>
g ten</w>
lor d</w>
P ier
Fu ß</w>
noti ce</w>
M um</w>
K na
fa hr
tan zen</w>
c rea
hol fen</w>
gegen über</w>
bath room</w>
memor y</w>
g or
exp lo
cr oss</w>
Regi erung</w>
irgen detwas</w>
nerv ous</w>
ju sti
ge beten</w>
ewi g</w>
Be sides</w>
ru ft</w>
Da ve</w>
Bet ter</w>
tig keit</w>
Befe hl</w>
B on
wor fen</w>
de ed</w>
ander er</w>
D ea
en emy</w>
fü hrer</w>
B ir
cele bra
c amera</w>
St an
Flug zeug</w>
Prä sident</w>
week end</w>
schü tzen</w>
Z i
sti mmen</w>
s ent
F euer
br auch</w>
d uty</w>
c ry</w>
k re
ti ght</w>
dic ulous</w>
An nie</w>
ni mmst</w>
Frü h
teil ung</w>
g ged</w>
K il
g än
en ter
wus sten</w>
reco gni
Rea dy</w>
Des wegen</w>
Ho l</w>
B O
k ins</w>
schaf t
p ush</w>
Mög lichkeit</w>
c aus
Mein st</w>
br uch</w>
Sc ot
Re spe
B os
L Y</w>
B us
na mens</w>
no lo
m ent
d or</w>
is m</w>
r i</w>
in ts</w>
Wa hn
W ere</w>
B all</w>
R un</w>
d ue</w>
Al right</w>
zei ge</w>
v ar
der er</w>
Je an</w>
w unsch</w>
witz ig</w>
Nach bar
ap p</w>
aus sehen</w>
tro du
R at</w>
ermor det</w>
h eu
B rea
entschei den</w>
F our</w>
we h
E he</w>
dr a</w>
ha t
bri g</w>
zerstör t</w>
dan ger</w>
Sch wier
Ö ff
whe ther</w>
trä gt</w>
doll ars</w>
hel d</w>
sex y</w>
Sü ße</w>
erkl är
F ind</w>
D r</w>
er halten</w>
con vin
be wegen</w>
sag test</w>
Gu ys</w>
Car rie</w>
wi sst</w>
smo ke</w>
krie ge</w>
trei ben</w>
blei be</w>
H ang</w>
ich t
u lar</w>
pri ce</w>
d ney</w>
beg in</w>
verantwor tlich</w>
n ine</w>
n ose</w>
woh nen</w>
an cy</w>
vide o</w>
immedi ately</w>
bom b</w>
st ron
M A
son s</w>
pre sident</w>
H ell</w>
J .</w>
per s</w>
un ity</w>
Chi ca
e ten</w>
Poli zei
Na ja</w>
Ab sch
ent schieden</w>
b uch</w>
m ul
am pa
Vic tor</w>
di ert</w>
T un</w>
lang wei
dau ern</w>
Pro bably</w>
heraus finden</w>
Hoff nung</w>
Be such</w>
nä mlich</w>
je kt</w>
qu ickly</w>
Zur ück</w>
sh ed</w>
contin ue</w>
re qu
medic al</w>
every where</w>
be komme</w>
ser iously</w>
ear th</w>
ber n</w>
besor gt</w>
te e</w>
em bar
a than</w>
Sha ll</w>
Sus an</w>
mar k</w>
them selves</w>
c amp</w>
le vel</w>
da r</w>
Re den</w>
nervö s</w>
krie gst</w>
W under
li p</w>
f ung</w>
k oh
ill ed</w>
conver sation</w>
E asy</w>
Col lege</w>
cor ding</w>
re gu
ch u
so bald</w>
sel ber</w>
Den ken</w>
H alten</w>
El ena</w>
Lu cy</w>
we some</w>
inter est</w>
4 5</w>
A tt
D ec
em a</w>
ju dge</w>
fur ther</w>
3 00</w>
er ed</w>
sho wed</w>
ge spielt</w>
CI A</w>
5 .</w>
st ö
ff st</w>
fan gen
f lich</w>
f ran
p fen</w>
R oss</w>
en ter</w>
G rün
bri dge</w>
tur ning</w>
ge holfen</w>
wei ss</w>
mi ss
auf halten</w>
Zei chen</w>
us ion</w>
C E</w>
g st
c el
ta ste</w>
op port
c y
lau gh</w>
zu kommen</w>
gu ar
Kü che</w>
sta ge</w>
n ers</w>
gri ffen</w>
So fort</w>
selt sam</w>
e ben
an o
Mat t</w>
Ar mee</w>
Re g
Pho e
sch mer
re y</w>
kop f</w>
cr os
ter na
gi bst</w>
g ol
V an</w>
Ge fangen
sü ch
Ver gn
t atsächlich</w>
g ru
dden ly</w>
- Oh</w>
comple te</w>
Wä re</w>
Er fol
wa ste</w>
wit ness</w>
gen s</w>
rela x</w>
kontr ol
drück en</w>
mö chtest</w>
gl ing</w>
da ddy</w>
ma tch</w>
ther ap
W ein</w>
et ie</w>
fri end
Absol utely</w>
ri es</w>
k ne
man a
St ri
To day</w>
break fast</w>
v ac
Adre sse</w>
ha sst</w>
h ou
D NA</w>
con cer
an gefangen</w>
fol lowing</w>
le gs</w>
den ts</w>
che cked</w>
ri ble</w>
H un
h igh
ca te</w>
b igger</w>
Sta r</w>
gen de</w>
überra scht</w>
f rieden</w>
Glück wunsch</w>
ar re
Maje sty</w>
Chica go</w>
ver letz
er y</w>
Aben dessen</w>
l it</w>
as leep</w>
l ab
Vat ers</w>
ri diculous</w>
bl oody</w>
S C
vor bei
ti s
Ges ellschaft</w>
dre ams</w>
der es</w>
lo e</w>
consi der</w>
gre en</w>
in y</w>
R ing</w>
A fri
I sa
Ehem ann</w>
de m
Gru ppe</w>
le be</w>
r es</w>
Con gratulations</w>
su mmer</w>
no tic
Sonn e</w>
f tig</w>
Lu c
H als</w>
t ape</w>
lin ks</w>
Min ister</w>
schä tzen</w>
buil t</w>
ent wick
dre ssed</w>
B ren
in di
kaput t</w>
Mar ie</w>
H A
con sci
sau ber</w>
gefä hr
con f
in trodu
twi ce</w>
par k</w>
st one</w>
P et
b ten</w>
pra cti
Z ä
ap art</w>
sa r</w>
Zu hause</w>
Hä l
p ool</w>
Wochen ende</w>
ir es</w>
ump ed</w>
ver b
wü sste</w>
wa chen</w>
ge gessen</w>
my ster
t ungen</w>
ck ten</w>
scha fft</w>
le man</w>
sk in</w>
Sp ur</w>
Du de</w>
be ar</w>
groß es</w>
s sten</w>
Eli za
susp ect</w>
fir m</w>
Zau ber
Off en
Phoe be</w>
mur dered</w>
be came</w>
tea cher</w>
Jon athan</w>
I .
Sch er
Ge gend</w>
r ap
Un less</w>
kom ple
W ol
Char lotte</w>
Klin gt</w>
gesch ä
auss ieht</w>
er kennen</w>
Respe kt</w>
K rä
shi ps</w>
Schick sal</w>
wer k</w>
d chen</w>
hea ds</w>
ra ge</w>
aw are</w>
be we
v ater</w>
R ela
G R
K amera</w>
der ing</w>
Ä hm</w>
sh e
di sa
Schä tzchen</w>
ob viously</w>
U F
emp ty</w>
ear ed</w>
st ant</w>
s un
An ne</w>
Sch a
g th</w>
ani sche</w>
pul led</w>
pro of</w>
g rün
aw ful</w>
A gen
b on
Mor gan</w>
t i</w>
S ollen</w>
pla yed</w>
Maje st
re ct</w>
c ost</w>
b end</w>
zeich net</w>
lich erweise</w>
p hi
ke eps</w>
ma gst</w>
ke hren</w>
absol ut</w>
wär ts</w>
pri se</w>
se ver
guil ty</w>
a ti
embar r
Zei g</w>
Eliza beth</w>
men tal</w>
amer as</w>
ü brig</w>
mo on</w>
krie g</w>
K leid</w>
nieman dem</w>
ff s</w>
be d
Mor ning</w>
E hrlich</w>
T ex
be suchen</w>
en s
Oper ation</w>
teil t</w>
lei sten</w>
Tr ust</w>
w ich</w>
us es</w>
v amp
tell s</w>
en der</w>
ali for
A ye</w>
p us
gan zes</w>
Pfer d</w>
c tly</w>
at a</w>
Tom orrow</w>
St ei
fre sh</w>
ch ief</w>
Wit ze</w>
mo un
hr st</w>
Pri vat
emer gency</w>
S and
apologi ze</w>
Sch ritt</w>
Gra b</w>
shoot ing</w>
shi rt</w>
Schla f
be haup
Me sser</w>
we ver</w>
ad vice</w>
N one</w>
press ure</w>
gefä hr</w>
Sta ats
d nis</w>
I M
si bly</w>
ne tte</w>
Gu ess</w>
G ä
min i
ie ve</w>
it er</w>
r ou
Majest ät</w>
hu ge</w>
p iss</w>
spo ke</w>
bir d</w>
jä hr
Sonn en
Sch ie
den ten</w>
cr ying</w>
fei ern</w>
dan k
ie ty</w>
St .</w>
L ong</w>
mein t</w>
con fe
Sy stem</w>
u ral</w>
g as
Tal k</w>
igin al</w>
Ge setz</w>
gra de</w>
s old</w>
t ab
di vor
st ab
20 0
N E
neigh bor
g gy</w>
S on</w>
Ru ss
clos er</w>
f eu
T ER</w>
D .
fu hr</w>
be ge
- It</w>
d it
Kl einer</w>
Auf gabe</w>
ne w
en ttäu
fl ight</w>
en ding</w>
ra tion</w>
ear lier</w>
haf tet</w>
P ul
ani schen</w>
en ces</w>
um t</w>
schwan ger</w>
ali en</w>
blei bst</w>
lie bst</w>
kni fe</w>
ersch ossen</w>
c ab
in ted</w>
ac count</w>
N ic
yl or</w>
T im
vi ous</w>
n ight
drin nen</w>
bro thers</w>
Zu samm
be glei
V ie
E is</w>
cli ent</w>
f ing</w>
D ep
B ord</w>
olo gy</w>
U p</w>
r on</w>
Grand pa</w>
alifor ni
Ta xi</w>
Fu cking</w>
Be vor</w>
c tions</w>
re par
hel fe</w>
Z T</w>
P as
bede uten</w>
g ay</w>
verste cken</w>
Bul len</w>
un cle</w>
na he</w>
sig nal</w>
sch wi
las h</w>
b ein
z us
Vergn ügen</w>
Häl fte</w>
wal ked</w>
h m
ig ung</w>
Pre tty</w>
mus sten</w>
in n</w>
s is</w>
ter in</w>
mel den</w>
i d
do gs</w>
vil lage</w>
t les</w>
antwor ten</w>
p op
AL L</w>
schle chte</w>
pla ces</w>
fin al</w>
al right</w>
Blei ben</w>
c on</w>
1 9</w>
jen ige</w>
an im
hear ing</w>
Zie h</w>
König in</w>
Pos ition</w>
For get</w>
sam keit</w>
Kar en</w>
s weetheart</w>
s ight</w>
sa ck</w>
ser ved</w>
P il
tion ed</w>
Ber icht</w>
bot tle</w>
Ra y
k et
K la
Ver antwor
Mi li
b ol
o c
n either</w>
Pen ny</w>
Wür de</w>
D onn
k la
mi d
Amerik a</w>
k r
stre ss</w>
st ung</w>
se emed</w>
da chten</w>
r ough</w>
n ar
Liebl ing
ck ung</w>
Patri ck</w>
Rich ter</w>
Mar shall</w>
ro b
beein dru
zwei te</w>
progra m</w>
ch air</w>
brin gst</w>
se par
Mul der</w>
Mag gie</w>
K yle</w>
kümm ere</w>
zei chen</w>
ier te</w>
h ie</w>
J ess</w>
R ory</w>
re si
ges und</w>
LA U
gemein sam</w>
Hän den</w>
le g
s an
Ein fach</w>
Ch loe</w>
arri ved</w>
Schw ein</w>
2 2</w>
sp ar
a vo
ru ch</w>
Sp it
fin an
K eller</w>
h o</w>
e ch</w>
fre ue</w>
E ier</w>
y ond</w>
lö sen</w>
C ent
R it
8 0</w>
inc lu
on to</w>
mm ern</w>
fän gt</w>
m o</w>
irgend wann</w>
gi f
w ette</w>
L es
M ost</w>
Exc ept</w>
So bald</w>
Ma dam</w>
Gl as</w>
ra di
zerstör en</w>
letz tes</w>
Kre u
fan den</w>
com mon</w>
al low</w>
S mith</w>
zi al
Wahr scheinlich</w>
dri ver</w>
ger y</w>
ani mal</w>
V is
gi er
B us</w>
brin ging</w>
Ver brechen</w>
ma ter
li k
Schmer z</w>
En ough</w>
ctor s</w>
pos i
Ange bot</w>
N ik
Gen er
Vol k</w>
an da</w>
Schwier igkeiten</w>
Mi ster</w>
Sol daten</w>
sh or
ssi ve</w>
notic ed</w>
inst ru
ge wusst</w>
plan ning</w>
grei fen</w>
pap ers</w>
Tr ot
L auf</w>
lü gen</w>
is her</w>
Wi th
lo ws</w>
ver passt</w>
wi l
S uch</w>
y ou
Wo zu</w>
an aly
R ick</w>
Jul ie</w>
Ver trauen</w>
Kop f
Un til</w>
ru in
lä cher
vor ne</w>
iz i
a ft</w>
E S
cu stom
ff en
Schli mm
sin gen</w>
ctor y</w>
Z igar
disc uss</w>
K im</w>
Gel e
W ald</w>
Hä tte</w>
h igen</w>
gr and</w>
Erinn erst</w>
B eine</w>
Brin gen</w>
pla tz</w>
v olle</w>
ck les</w>
AN D
pro ce
En ter
mon ster</w>
al ous</w>
T at</w>
par tic
Un s</w>
Letz te</w>
über nehmen</w>
Sch il
tau ght</w>
blei b</w>
Pati enten</w>
te uer</w>
ad van
tri ck</w>
Fre unden</w>
rich st</w>
P in
m ir
tri al</w>
Sp ra
Gesp räch</w>
K E</w>
Gr ö
Verda mm
bl ing</w>
Mich elle</w>
nat ural</w>
n on</w>
F an
bu cks</w>
wür dig</w>
hr es</w>
m utter</w>
t ü
Si x</w>
Neu es</w>
Erzä hl</w>
Al ways</w>
ph o
iti v</w>
be f
ver haftet</w>
ge wartet</w>
t ele
oper ation</w>
M ie
In spector</w>
fi ll</w>
Sar a</w>
lei den</w>
Set zen</w>
k auf
Hau t</w>
in j
b ts</w>
ish ing</w>
Sicher heits
ima gin
G ö
o o</w>
fol ks</w>
cor ner</w>
er st
Leon ard</w>
lo ad</w>
ch em
Ein es</w>
I di
w le
z ut
ic s</w>
con tr
G ab
ü bel</w>
Ser iously</w>
h oo
Schla f</w>
Mö chtest</w>
gr und</w>
Dur ch</w>
J ung
Gr und
Ber ei
abo ve</w>
acc ess</w>
R as
de vel
r oll
la b</w>
er fü
W on
s a</w>
lea der</w>
k ran
Ta ylor</w>
&apos; T</w>
han ging</w>
s word</w>
rei sen</w>
Hoff entlich</w>
Ho ward</w>
I mp
pa ying</w>
lau b</w>
dro pped</w>
Wür den</w>
Ro y</w>
B .</w>
li ere</w>
ju d
in er</w>
J am
begin nen</w>
Verste hst</w>
s eines</w>
T räu
eil t</w>
opport unity</w>
con fi
Be au
- Das</w>
3 0
ß ig</w>
vor zu
c ousin</w>
l auf</w>
k ol
app o
h es</w>
de mon
st al
hal lo</w>
ein geladen</w>
di eren</w>
pr os
incre di
Car los</w>
opp ing</w>
fal schen</w>
Au ßer</w>
A B
ja gen</w>
H O
rech ts</w>
ra ise</w>
F rie
rin gs</w>
exp ected</w>
b ig
pro vi
glei che</w>
wo her</w>
mi ert</w>
Fran k
z ung</w>
St at
S har
A chtung</w>
ti ves</w>
Sch lä
sch o
at ure</w>
TH AT</w>
te en</w>
öff net</w>
gre ss</w>
bat tle</w>
besor gen</w>
unter stü
M AN
he ben</w>
- Nein</w>
l ights</w>
na tional</w>
j er
Be sit
h h</w>
K al
Was ser
D ay</w>
stor ies</w>
los er</w>
tz ung</w>
sch alten</w>
Wi ssen
th ough
Fün f</w>
Freu de</w>
V an
R unter</w>
Bro o
sug gest</w>
all en
fra gt</w>
Dro gen
be stä
N I
gi ert</w>
investig ation</w>
eas ier</w>
stu dy</w>
ep er</w>
bel on
Rich tige</w>
Al koh
ex isti
C alm</w>
K ill</w>
survi ve</w>
s and
de mo
Herr n</w>
ge ändert</w>
e chte</w>
no te</w>
er ungen</w>
pl enty</w>
hea ded</w>
ex ist
9 0</w>
fü hlst</w>
Mar c
bel ong</w>
da vor</w>
Fu ß
pol i
A men</w>
With out</w>
G O
inv ited</w>
nu ts</w>
ph y</w>
bo dies</w>
ver tei
nach gedacht</w>
g ie
fortun ately</w>
bar en</w>
Ja wohl</w>
t aus
c up</w>
ver bringen</w>
ta r</w>
concer ned</w>
Fre m
z o</w>
Se an</w>
p et
glei ch
sth aft</w>
re gre
do p
St ell</w>
Hol t</w>
an ie</w>
el ten</w>
u el</w>
le tting</w>
E l</w>
Hel en</w>
Ver stand</w>
laugh ing</w>
wa cht</w>
Brü der</w>
se h
Vin ce</w>
tar get</w>
pa ir</w>
Jos ep
Ger man</w>
ri ver</w>
ou tta</w>
4 .</w>
amer ik
an getan</w>
si te</w>
ver dienen</w>
C os
w l</w>
z ess
ter ror
Neu igkeiten</w>
simp ly</w>
blo ck</w>
ver wir
G utes</w>
über leben</w>
UN T
z win
fa ith</w>
di um</w>
O ld</w>
K oh
fa hrt</w>
se tt
bis her</w>
mat ters</w>
M ust</w>
zu frieden</w>
sil ly</w>
le ts</w>
care er</w>
Hau fen</w>
C T
hea vy</w>
j i</w>
a c</w>
is land</w>
Dre ck
zu sehen</w>
imm er
In sel</w>
Su che</w>
Qu ar
den e</w>
be g</w>
San ta</w>
ti sche</w>
sinn ig</w>
lin es</w>
J ay</w>
T est</w>
L a</w>
spe ed</w>
mel det</w>
gen annt</w>
su ffer
op in
lo cal</w>
il t</w>
kno wing</w>
St and
Erfol g</w>
Er n
A ma
au ff
pro bi
el te</w>
hl ung</w>
in dem</w>
C ut</w>
cre dit</w>
Fa hren</w>
tra ge</w>
Er d
u l</w>
Fa hr</w>
l f</w>
fin ger</w>
y ard</w>
Fein d</w>
ge sam
betr unken</w>
e k
S m
Könn ten</w>
War tet</w>
rü ck
exp en
St ell
recor ds</w>
mili tary</w>
b nis</w>
s mile</w>
fer ence</w>
Ge mein
V oll
D em
ne m</w>
brea king</w>
wir kt</w>
sor gt</w>
I hres</w>
wie sen</w>
st ance</w>
ge wä
el a</w>
b ü
pre fer</w>
D em</w>
Viel e</w>
O F</w>
be ha
Plan eten</w>
Lo ch</w>
V en
tu red</w>
cre am</w>
Sch e
se h</w>
ch icken</w>
kom pli
ge hei
To ile
mit ten</w>
t ap
B lo
furcht bar</w>
L at
ma jor</w>
re staurant</w>
G ar</w>
F l
frei en</w>
exc ited</w>
r os
Flei sch</w>
tic ally</w>
kid n
mit tag</w>
ch ea
Rela x</w>
Mi ss
Bra vo</w>
k ri
d at</w>
Pa ar</w>
än der</w>
P ause</w>
kon zentri
ge worfen</w>
se ssen</w>
te xt</w>
fe hlen</w>
c les</w>
j am
2 1</w>
car s</w>
as ure</w>
C ou
Lin da</w>
b all
ell ed</w>
Dor f</w>
mar ket</w>
Ste fan</w>
h one</w>
ener gy</w>
at temp
an ts</w>
cle ver</w>
Kom mst</w>
Blö d
offen sichtlich</w>
wh ose</w>
y l</w>
wunder bar</w>
V ö
de a
be enden</w>
ris ki
Lei der</w>
sp richst</w>
schwier ig</w>
mit nehmen</w>
lea ves</w>
Zeit punkt</w>
J ones</w>
Le g</w>
de scri
Ty ler</w>
Schwan z</w>
su ddenly</w>
Unter schied</w>
A S
wr itten</w>
er nen</w>
St art</w>
Lie ber</w>
we st</w>
si ze</w>
hand lung</w>
N ut
kno ck</w>
lich keiten</w>
Schau spiel
Inter esse</w>
- l</w>
Famili en
Män nern</w>
Fern sehen</w>
tra ining</w>
o es</w>
fe ed</w>
Schla g</w>
G ang</w>
b au
sch we
destro yed</w>
ver flu
süch tig</w>
N T</w>
re l</w>
f iel</w>
Un sinn</w>
me hr
sch me
be yond</w>
Du mm
p ost</w>
h of</w>
zä hlt</w>
Ken nst</w>
Hil f</w>
h ige</w>
S outh</w>
Al ler
Prä si
est ly</w>
Mäd els</w>
ER E</w>
te eth</w>
Chin ese</w>
ta il</w>
ke hrt</w>
ter min
ru le</w>
T emp
assu me</w>
is co</w>
&apos; all</w>
lik ely</w>
hor rible</w>
dum b</w>
Ge we
g ames</w>
A pri
disapp o
l ungen</w>
embarr ass
power ful</w>
brea th</w>
s ki
prepar ed</w>
be kommst</w>
G ran
p are</w>
l icht</w>
dra w</w>
B ein</w>
char ac
wo von</w>
Ne w
t op
practi ce</w>
Wei ter</w>
Ken nen</w>
Ener gie</w>
B in
sha me</w>
Sp i
zul assen</w>
oto grap
is es</w>
Bar ney</w>
G y
tor s</w>
se tze</w>
ent lang</w>
anim als</w>
me ter</w>
Hinter n</w>
Th ings</w>
agre ed</w>
Nor man</w>
E cke</w>
ma gi
Er ste</w>
mm ing</w>
Pr ot
Mit g
bur g</w>
sle pt</w>
Fran kie</w>
ver mutlich</w>
C our
fol ge</w>
D unk
com mand</w>
W and</w>
F un
ex ec
sh el
b ase</w>
ün st
unter halten</w>
aff ord</w>
x es</w>
en ded</w>
unser es</w>
fa hrung</w>
zu bringen</w>
f ert</w>
cro w
cc a</w>
As k</w>
sch mei
kl appt</w>
gu est</w>
fre uen</w>
num bers</w>
ha ften</w>
wel cher</w>
sho ws</w>
e sti
a gen
Weih nach
Sa gt</w>
schul d</w>
fal sche</w>
erinn ert</w>
Grand ma</w>
sc ra
p ha
ck er
Jess ica</w>
fel d</w>
fl ying</w>
C in
ci ous</w>
spir it</w>
R .</w>
lie ßen</w>
Inter net</w>
Andre w</w>
H ope</w>
wei ght</w>
la chen</w>
Woh n
S ul
l ots</w>
stell te</w>
Sch wei
Or gan
v ant</w>
Mö chten</w>
an geb
W ind</w>
ON E</w>
Vide o</w>
ch em</w>
Dru ck</w>
2 3</w>
fa mous</w>
d ä
Re staurant</w>
los ion</w>
d ley</w>
M ir
Bu ch
kämp ft</w>
me l</w>
bot tom</w>
t w
e man</w>
M einen</w>
Ber lin</w>
stren gth</w>
pol ic
d ent
ver hin
har dly</w>
Ter ry</w>
Kna st</w>
Früh stück</w>
Ob wohl</w>
zo g</w>
wei s
ra in</w>
tra f</w>
pa y
Zei tung</w>
Ab by</w>
Kä mp
Ge win
zu fällig</w>
interess ant</w>
g un
En gel</w>
car ds</w>
pos sibly</w>
t elef
me at</w>
To dd</w>
Sat ur
des k</w>
ch y</w>
GH S</w>
Bil der</w>
p rie
b al</w>
lo cker</w>
j ungen</w>
z i</w>
konn test</w>
y al</w>
Hör st</w>
hea ven</w>
Wil son</w>
Juli a</w>
auf re
d ry</w>
lat ely</w>
such ung</w>
Brü cke</w>
sc ar</w>
st ie
Ho gan</w>
st it
r ung</w>
n on
Kl ein
schlie ßlich</w>
e uren</w>
Prin zess
mit gebracht</w>
dank bar</w>
ven ge</w>
bl ed</w>
Sp an
qu a
schein end</w>
ä hm</w>
Me ter</w>
sei en</w>
gin gen</w>
An griff</w>
pur pose</w>
Pro du
N ope</w>
re sc
ge setzt</w>
titu de</w>
G rü
schlä ft</w>
exp ecting</w>
M aul</w>
b bs</w>
geb lieben</w>
I m
ke hr</w>
sho wer</w>
g ging</w>
ver ge
Mol ly</w>
Fla sche</w>
M E</w>
dama ge</w>
1 7
te sten</w>
it self</w>
da ting</w>
Verantwor tung</w>
Gehir n</w>
cop y</w>
pre tend</w>
Ha ar</w>
lar ge</w>
ri ere</w>
t ons</w>
Ch ina</w>
C .</w>
sh oul
o d
Co de</w>
car es</w>
star ts</w>
con dition</w>
um ber</w>
re search</w>
ic ally</w>
be ach</w>
on ing</w>
äu me</w>
ti tel</w>
ne te</w>
ins ane</w>
Ste u
br ü
p es</w>
gemein t</w>
pe ti
A .
arre sted</w>
ol a</w>
h ungen</w>
LA CHT</w>
M un
mi ssen</w>
swe etie</w>
Be ss
zie he</w>
Bü cher</w>
T rä
Qu at
real ized</w>
se ht</w>
rie b</w>
f ts
ei g
ar a</w>
V ER
fra gte</w>
Wa yne</w>
sa hen</w>
r än
i da</w>
Gele genheit</w>
blö d</w>
sk u
gen eral</w>
J ä
ex perim
Wich ser</w>
M ut
Lö sung</w>
so ci
neu er</w>
fin ding</w>
H ot
will kommen</w>
schön er</w>
sta te
ic ke</w>
ha ll</w>
T en</w>
l as</w>
ver wand
de vil</w>
O hren</w>
g ä
vi es</w>
in fe
de partment</w>
H ut</w>
Frei heit</w>
sa cri
fol lowed</w>
bi te</w>
W isst</w>
lo ose</w>
Sa me</w>
Bom be</w>
Zu erst</w>
lächer lich</w>
k ness</w>
b lau
A ss
z iel
sh er
c ook</w>
dr ei
Poliz ist</w>
ra y</w>
Lie d</w>
- We</w>
T T
recogni ze</w>
k an
begin nt</w>
Ca therine</w>
kos tet</w>
hea d
ge holt</w>
Mar cus</w>
K iller</w>
be sie
W us
be steht</w>
Th eir</w>
ob wohl</w>
A ssi
Th ema</w>
H as
sei ts</w>
dis gu
F ur
il legal</w>
hei l
su lt</w>
Blu men</w>
Le hrer</w>
as se
tra vel</w>
flo wers</w>
Ra dio</w>
drück t</w>
Ti ere</w>
b lan
W y
e qu
sch ick
bur y</w>
Da ch</w>
zu vor</w>
co at</w>
sig n
a tive</w>
e ze</w>
je alous</w>
sel t</w>
ver ar
I D</w>
ran ge</w>
Soll te</w>
Kran k
E s
thre w</w>
re ma
que st</w>
Ar me</w>
wer t
Hei m
- That</w>
ro of</w>
brau chte</w>
fü hrung</w>
S ex
trau m</w>
g y
al ty</w>
Sh h</w>
O ma</w>
d ler</w>
B onnie</w>
öff ent
en jo
f ig</w>
Lab or</w>
F it
zun ehmen</w>
ich ts
cor rect</w>
Hoch zei
Ro ck</w>
fet y</w>
tru ly</w>
resp e
fa ke</w>
sei te</w>
Z iel
G ern</w>
F est
Wo für</w>
r as
M ick
ste hst</w>
k al
iti es</w>
gen e</w>
do ws</w>
ar gu
Li fe</w>
k einem</w>
Car ol</w>
hei t
do ors</w>
V ier</w>
ver sich
Lie b
n es</w>
m os
i a
a wesome</w>
H ose</w>
. S.</w>
re fu
gro wn</w>
Ver däch
ac tiv
spiel e</w>
S ün
Bei m</w>
sur gery</w>
g la
fa v
ie st</w>
kl ar
Nor th</w>
Apri l</w>
Gor don</w>
igh s</w>
o f
A P
justi ce</w>
p son</w>
T au
Su b
Sch auen</w>
F alle</w>
belie ved</w>
Prinzess in</w>
ann te</w>
ab end</w>
E ast</w>
Ris iko</w>
Fa st</w>
R et
t ens</w>
sa tz
T en
gef euert</w>
P hil
3 5</w>
ph otograp
Wä hrend</w>
eigen es</w>
Sp o
Auf trag</w>
l un
D au
hea ding</w>
K unden</w>
Carol ine</w>
w are</w>
s elling</w>
k eln</w>
f le</w>
e specially</w>
ne un</w>
än de</w>
Mann es</w>
a de
kti vi
int ment</w>
ex ist</w>
Det a
y wood</w>
ic es</w>
Ter ror
T .</w>
E P
os h</w>
li ps</w>
er o
ein igen</w>
ti cket</w>
no where</w>
C O
wunder schön</w>
lan gu
app ing</w>
Hel d</w>
Do wn</w>
M and
Irgend was</w>
stat t
Mar gar
MAN N</w>
pra c
tig ung</w>
P ist
ge führt</w>
Mist kerl</w>
verste ht</w>
Dam on</w>
brea the</w>
Be sser</w>
r itte</w>
War en</w>
sp ell</w>
gr en
D ri
wi tch</w>
pho to</w>
auf passen</w>
acc ep
mani pu
Verschwin de</w>
neigh b
F ig
hoff t</w>
commun ic
w an</w>
Wi der
ent sp
klär ung</w>
größ te</w>
pl us</w>
hö ch
ol der</w>
grea test</w>
d ness</w>
schaf ten</w>
sever al</w>
Tex as</w>
Lu ci
Er fahrung</w>
gelö st</w>
mer ken</w>
z umindest</w>
Sen ator</w>
abili ty</w>
ug ly</w>
re mem
un gefähr</w>
k ür
Ver tei
getr unken</w>
T ier</w>
verstän dlich</w>
opin ion</w>
Wahn sinn</w>
ver lan
ne ga
Verste he</w>
w oods</w>
Un ter</w>
Al b
wach sen
T ab
dau er
bel t</w>
G ary</w>
me an
D omin
mand ant</w>
D onna</w>
ver zei
some how</w>
Re be
Kar ten</w>
re main</w>
bar ely</w>
S lo
per for
g oodbye</w>
An ti
l igh
hur ts</w>
ge plant</w>
erklär t</w>
Fri day</w>
C ole</w>
B oth</w>
sen si
Ur laub</w>
Fran ce</w>
se es</w>
respon sibility</w>
c H
Al li
Sp ar
V ier
H em
dist ur
Ah a</w>
R oll
So gar</w>
ger in</w>
W irst</w>
L ane</w>
J o</w>
enti al</w>
Sta tion</w>
ver folgen</w>
ch ter
dan cing</w>
as ing</w>
Wer den</w>
ru pt</w>
R es
GR UNT
schön es</w>
Russi an</w>
E llen</w>
Sch wach
ent kommen</w>
crimin al</w>
St opp</w>
bul let</w>
ti schen</w>
s --</w>
G E</w>
c ement</w>
Wür dest</w>
Unter titel</w>
sp ro
an te</w>
a di
vol ution</w>
mit kommen</w>
kar te</w>
Nie mals</w>
fel low</w>
drü cke</w>
dr über</w>
que en</w>
ihr es</w>
wen det</w>
gef lo
Quat sch</w>
re ten</w>
Medi kam
get au
ge kriegt</w>
P ot
or dered</w>
g isch</w>
Ku chen</w>
Be weis</w>
G RO
ER T</w>
EL L</w>
Val ent
ta ins</w>
dr än
P ha
g ü
er fol
at men</w>
LE S</w>
Schmer zen</w>
K lei
al ist</w>
Som mer</w>
Schul tz</w>
Me er</w>
fi re
schnei den</w>
p p</w>
an geneh
Lau t</w>
r ig
F ire</w>
s day</w>
Sch le
Jos h</w>
perfe ctly</w>
tre at
sp lit</w>
rel ig
R unde</w>
E hr
h ome
Che ers</w>
sur ance</w>
L oo
sel bst
Sei en</w>
ge zeigt</w>
ide as</w>
The or
M I
ma ck</w>
Ba de
kl ären</w>
ck en
z ün
lo ver</w>
St ur
pro ject</w>
zie h</w>
w eak</w>
los en</w>
ea st</w>
Chri stian</w>
famili ar</w>
Flu g</w>
pol iti
Th or
erwä hnt</w>
Telef on
A dri
in ger</w>
a ds</w>
Jack ie</w>
E m
Sp en
Luc as</w>
Bru ce</w>
näch stes</w>
le er</w>
z z</w>
stu dent</w>
lli ant</w>
E he
fa iled</w>
il a</w>
vertrau t</w>
v able</w>
Mar ty</w>
kon ta
ch tes</w>
D E</w>
is mus</w>
e ball</w>
so weit</w>
se ssion</w>
bb ie</w>
wa hn
rit ten</w>
gr au
atta cked</w>
Sp or
Masch ine</w>
fa ster</w>
un er
thre aten
man do</w>
zu geben</w>
for gotten</w>
Bro wn</w>
Mit ta
Zo e</w>
pa ge</w>
C er
Bet h</w>
mil k</w>
do in</w>
Ba stard</w>
stor m</w>
6 .</w>
stol en</w>
Glei ch</w>
at ur</w>
Un i
for ced</w>
Wor ld</w>
am o
P rü
D ear</w>
Wal ker</w>
Plä ne</w>
Pi per</w>
k lo
Whi le</w>
A b</w>
mor d</w>
in ci
Fin ger
rei se</w>
y ce</w>
ci l</w>
Prin ce</w>
p f</w>
Jam ie</w>
A ir</w>
Mam i</w>
lä ch
Z ur</w>
App arently</w>
lau tet</w>
E hren</w>
Un ited</w>
Pol iti
g na
Ku gel</w>
sy n
compli cated</w>
cas es</w>
E ver</w>
Pr om
pie ces</w>
Ton ight</w>
Ein ige</w>
k ot
Rie sen
Er mitt
m illi
go in</w>
wh om</w>
sch wer
s ar
dor thin</w>
M AR
si eren</w>
auf tau
schri ft</w>
fun eral</w>
T oten</w>
Josep h</w>
Jac ob</w>
Dro p</w>
man ager</w>
ex tra
T un
Mon ica</w>
K now</w>
disapp eared</w>
cle arly</w>
bl in
Fä hig
C li
i ds</w>
zei g</w>
be handelt</w>
Kur s</w>
was h</w>
Idi oten</w>
p ein
open ed</w>
Kat ze</w>
Ter min</w>
Brin gt</w>
ent führt</w>
U CK
fä hig</w>
D ER</w>
ver folgt</w>
stri ke</w>
Nach mittag</w>
mi ra
Se ven</w>
M ut</w>
sta yed</w>
pa th</w>
nut zen</w>
Str eit</w>
star s</w>
ch allen
Ar ti
g ran
stan ds</w>
os is</w>
c ut
Ex p
bess ere</w>
A w</w>
funktion ieren</w>
Satur day</w>
Ge wi
p ing</w>
zwei ten</w>
so was</w>
hi red</w>
min ister</w>
Pu ll</w>
ger ichtet</w>
M Y</w>
Ly n
T ea
p ment</w>
x i
bir th</w>
sp on
na ked</w>
S ou
bra ve</w>
br a</w>
Ge walt</w>
devel op
T ou
O P
su icide</w>
sch lu
Ve gas</w>
F lie
te sti
L äch
er ie</w>
Bar t</w>
t our</w>
fa ir
G un
Any one</w>
la ce</w>
Vic tor
rei ßen</w>
proper ty</w>
ne t
min ds</w>
k lasse</w>
er er</w>
Je denfalls</w>
än der
is er</w>
Sun day</w>
St ör
hal tung</w>
Ste h</w>
John son</w>
Ha w
zu finden</w>
thro at</w>
Sec ur
wus st
weiter en</w>
h y</w>
H op
soldi ers</w>
N ina</w>
stör en</w>
A f
t nis</w>
dest ens</w>
Ver lo
Ed ward</w>
f rie
vor hin</w>
P rie
v on
ar med</w>
K le
Go d
Po or</w>
Fre un
soldi er</w>
gi eren</w>
st able</w>
ma r</w>
is y</w>
en gin
mother fucker</w>
fo ol
del ic
Sch ne
Mor d
ne arly</w>
ill en</w>
Man che</w>
iss ue</w>
ar m
tra in
po wers</w>
hal be</w>
ord an</w>
gesp er
L ING</w>
E Y</w>
wle dge</w>
telef on
hin aus</w>
Enter prise</w>
Al i</w>
A sh
vo te</w>
har m</w>
St ü
Sp ie
t chen</w>
Sta te</w>
die smal</w>
rä ul
on line</w>
Blu e</w>
A ri
bewe gt</w>
t liche</w>
frea k</w>
Za hn
La ger</w>
heal th</w>
ec tor</w>
Ge stern</w>
Br un
sen ding</w>
sa fety</w>
Sol ange</w>
K it
dig er</w>
N ie</w>
gest o
Str and</w>
N et
D A
Cas ey</w>
B aum</w>
ma y
amp le</w>
Pa ige</w>
wa schen</w>
1 ,
re cht
de mon</w>
on y
Ste p
ha u
sprin gen</w>
A kte</w>
lin ge</w>
St ellen</w>
z au
re st
us er</w>
fo cus</w>
do pp
Rei he</w>
mo vies</w>
inter view</w>
Sch ool</w>
Um stän
Sh o
prin ts</w>
w olf</w>
tei le</w>
bur ied</w>
Beson deres</w>
er reicht</w>
St ein</w>
Rom an</w>
Ra che</w>
irgend welche</w>
beau ty</w>
Spec ial</w>
st ert</w>
all t</w>
a th
las ses</w>
igh ty</w>
er ster</w>
Zeu gen</w>
Pl us</w>
O s
t dem</w>
M iller</w>
is ing</w>
s ne
vorberei tet</w>
secre ts</w>
Zusamm en
no t
p se</w>
nach ts</w>
he at</w>
Un glaublich</w>
rele ase</w>
en kt</w>
Yo ung</w>
an tic</w>
be stra
tig ste</w>
inn er
ange griffen</w>
Pro gramm</w>
c ture</w>
zu ge
fl icht</w>
de aling</w>
7 0</w>
Ha u</w>
Bet ty</w>
fil es</w>
con ven
b ür
Ge sich
Bro ther</w>
brin gs</w>
pp en
te ful</w>
Fü ße</w>
conne ction</w>
pe at</w>
gra ve</w>
t an</w>
schli mm
de ser
kann ten</w>
ch tern</w>
be fe
ar re</w>
st a</w>
se um</w>
bo un
Bra d</w>
sa mer</w>
is iert</w>
V I
l ust</w>
D opp
P ic
je denfalls</w>
Na te</w>
Ma chst</w>
Har old</w>
E specially</w>
b les</w>
al ie</w>
Zu stand</w>
Wel cher</w>
S T</w>
Holl ywood</w>
Er lau
Gol d
du le</w>
os ter</w>
Ent sp
r er</w>
C A
Ar ch
Bu ffy</w>
i di
ans wers</w>
überprü fen</w>
sa ving</w>
de ten</w>
big gest</w>
rei fen</w>
F unk
Kar riere</w>
v ent</w>
R al
in en</w>
T or</w>
al arm</w>
po p</w>
bi ll</w>
Z e
na ckt</w>
ar me</w>
An der
. D.</w>
ci vili
Ki ds</w>
Ge st
K ING</w>
Auto s</w>
ol en</w>
Sch wert</w>
Poliz isten</w>
P ost</w>
gesper rt</w>
K ei
down stairs</w>
pp t</w>
tra de</w>
li ar</w>
ad ed</w>
J e</w>
Gesch ichten</w>
m b</w>
Sk la
Al bert</w>
vi te</w>
gewöhn lich</w>
der zeit</w>
be wer
C amp
de u
L .A.</w>
v ation</w>
p ä
I denti
Bel ieve</w>
A ar
versu ch</w>
Träu me</w>
St an</w>
re mind</w>
p ot</w>
lan ger</w>
di se
sta ff</w>
sp ap
Na h</w>
spre ch
- He</w>
flu g</w>
Gre en</w>
versu chte</w>
gi a</w>
F ro
Will ie</w>
Far be</w>
the tic</w>
s in</w>
zi er
ta ten</w>
sp ruch</w>
C ri
&apos; II</w>
g ilt</w>
Han nah</w>
Scher z</w>
R ä
Lu ft
g ood
Gu y</w>
Dan ach</w>
hä ss
Secur ity</w>
pos ed</w>
an ds</w>
identi fi
K au
Geschä fte</w>
se ttle</w>
ri ce</w>
scha ffst</w>
k um
entde ckt</w>
Ar my</w>
su chst</w>
cap able</w>
c igar
de gre
be wusst</w>
v ement</w>
scha ffe</w>
I EL
though ts</w>
schlä gt</w>
län gst</w>
H unde</w>
Gir l</w>
C lau
un iver
re t</w>
lo cation</w>
a gn
Ch an
drin gend</w>
ans wer
Ver suchen</w>
S ong</w>
hinter lassen</w>
x on</w>
er schießen</w>
M E
Zu fall</w>
Ver k
Groß artig</w>
Sh ane</w>
h ieß</w>
deta ils</w>
S ally</w>
L em
b on</w>
äu men</w>
be sprechen</w>
Sop hie</w>
Einz el
Christ op
Com ing</w>
vi er
p ig</w>
bed room</w>
Ear l</w>
en ever</w>
profession al</w>
T O
Ha ven</w>
fin gers</w>
Al ph
f a</w>
be a
Antwor ten</w>
ver g
scre wed</w>
lie b
Bu d</w>
wel chem</w>
sp üren</w>
be merkt</w>
ac coun
M en</w>
zul ernen</w>
Z entr
sci ence</w>
recei ved</w>
Glau b</w>
g ott</w>
z w
be tro
Se el
J O
wea ther</w>
z zy</w>
e qui
a da</w>
ste hlen</w>
medi zin
com pla
Tri ck</w>
H it</w>
schle chter</w>
NO W</w>
verur sa
po cket</w>
quar ters</w>
erzä hlte</w>
h ü
as ion</w>
N ancy</w>
T ha
Dar auf</w>
St ates</w>
F isch</w>
te sts</w>
or ed</w>
L im
no ise</w>
fä lle</w>
Geschä fts
Gan ze</w>
thre at</w>
l oud</w>
F ick</w>
em ber</w>
Y u
Ber n
tu al</w>
se her</w>
de ck</w>
Weihnach ts
Pe g</w>
plan ned</w>
IN E</w>
men tioned</w>
hunder t</w>
R ein
col or</w>
wün sche</w>
Vo gel</w>
S ab
po ints</w>
auf geben</w>
ssi ons</w>
f illed</w>
erlau bt</w>
ü re</w>
Coo per</w>
te ste</w>
in ner</w>
sho wing</w>
na tion</w>
lie bte</w>
wh oever</w>
qu ali
wa hre</w>
f ty</w>
Sc ully</w>
m än
s or</w>
fort une</w>
Mat the
Fol low</w>
spe ech</w>
S .
O l
de pre
un ge
dete ctive</w>
de sper
ti sh</w>
pra y</w>
Tra vis</w>
wün schen</w>
ru hen</w>
br o</w>
verlan gt</w>
ff e
Auf merk
At lan
so oner</w>
jo bs</w>
ir re</w>
Fre ut</w>
r uns</w>
f arm</w>
ex ample</w>
Ru fen</w>
t schaft</w>
fä hrst</w>
Er geb
tion s
be dro
B A
th a
ein iges</w>
kennen zulernen</w>
Krä fte</w>
ter y</w>
introdu ce</w>
free dom</w>
ordin ary</w>
Da von</w>
j ung
elec tri
Ran dy</w>
Le hr
foot ball</w>
Ther ap
In v
pro cess</w>
si ert</w>
hor ses</w>
re sul
kin da</w>
scre w</w>
d icht</w>
am ong</w>
S car
ca st</w>
Unter stü
Gar ten</w>
Ent weder</w>
wh er
we t</w>
sa ß</w>
do cum
c ting</w>
ba hn</w>
langu age</w>
gesch ah</w>
J ordan</w>
ähn lich</w>
or es</w>
go ti
fer n
F ür
r ab
l hre</w>
Ver ein
C ousin</w>
hig t</w>
sour ce</w>
Sch wä
C ops</w>
Nach dem</w>
Kon z
we s
nor th</w>
Ber eit</w>
K uss</w>
Bürger meister</w>
conc ern</w>
ben e
Jun ior</w>
rec ently</w>
g ungen</w>
al es</w>
m .</w>
fü hlte</w>
F F</w>
re spec
Mi ami</w>
sch einen</w>
C hil
sp are</w>
k ul
emp loy
Angel es</w>
e ful</w>
Ger ü
anno un
na m</w>
Mex ico</w>
Je des</w>
woh n
her z
che ese</w>
c oh
wus stest</w>
t at
hi ll</w>
war test</w>
dar aus</w>
z one</w>
fra gst</w>
arbei test</w>
Nat ur</w>
Angel a</w>
ta sche</w>
onn e</w>
c iety</w>
Fra g</w>
man age</w>
Groß vater</w>
fre m
Amerik aner</w>
w u
ger ei
Kom mun
pra kti
ch o</w>
Toile tte</w>
Kat ie</w>
ab holen</w>
St ory</w>
Ar m
ba gs</w>
Off iz
ff in</w>
kü ssen</w>
Sch uss</w>
an de</w>
We sen</w>
Pu bli
ß es</w>
lan ds</w>
B U
grö ßer</w>
ex pla
ü brigens</w>
is elle</w>
fall ing</w>
ep tion</w>
disc u
d eln</w>
open ing</w>
let ters</w>
or a</w>
li ter
erinn erst</w>
V ER</w>
D rei
f its</w>
WH AT</w>
O w</w>
za hlt</w>
f s</w>
b ow</w>
En dlich</w>
ke hr
For m</w>
t le
h te</w>
Any body</w>
li ft</w>
off izi
nach denken</w>
P D</w>
tra p</w>
p ie</w>
cir cum
cre ated</w>
S qu
regre t</w>
re f
w einen</w>
ma p</w>
gre w</w>
G ood
Aar on</w>
to wards</w>
Woh l</w>
To des
B ay</w>
st ur
wel ches</w>
Ver trag</w>
E va</w>
be stimm
unter nehmen</w>
tö tet</w>
br icht</w>
Fo ot
dig keit</w>
st ro
schei ße</w>
wir ken</w>
ch a</w>
aus gehen</w>
Staats an
G lo
Di am
ter ed</w>
gesch ieht</w>
Men sch
sub ject</w>
T atsächlich</w>
M O
C op</w>
c ow</w>
P op</w>
Lie fer
4 0
sta dt</w>
sch wei
par ts</w>
ge brauchen</w>
Shel don</w>
reas ons</w>
ei le</w>
- Hey</w>
F luss</w>
Wor auf</w>
d in</w>
R in
Erinn erung</w>
Da vis</w>
Aufmerk samkeit</w>
v ul
Dä mon
Cla y</w>
wh ore</w>
pa cken</w>
bre cher</w>
ma ma</w>
Erinn erungen</w>
N ei
Gu ck</w>
. de</w>
wel chen</w>
ti ckets</w>
a va
Di ck</w>
sch aut</w>
la h</w>
A in</w>
w ling</w>
sug gest
Mur phy</w>
lon ely</w>
ank s
wich tiger</w>
N ight</w>
schei ß</w>
b an</w>
beha vi
Lü ge</w>
Is land</w>
ER ING</w>
bi ke</w>
al tet</w>
li on</w>
voll kommen</w>
th ol
i ker</w>
ha ssen</w>
che st</w>
For give</w>
r auf</w>
is se</w>
fin ds</w>
dis covered</w>
A ff
sc are</w>
ni k</w>
caus ed</w>
b one</w>
Wel ches</w>
T aus
tran spor
sha ke</w>
o il</w>
Na than</w>
c amp
ent lassen</w>
Sch utz</w>
Ö H
crea te</w>
S O
H ou
v ens</w>
langwei lig</w>
A gain</w>
si re</w>
k amp
Wel t
überzeu gt</w>
a ges</w>
Geheim nisse</w>
re turned</w>
T H</w>
et wegen</w>
bu ying</w>
sol chen</w>
I mm
stre ets</w>
sh es</w>
ro oms</w>
y st
sa tt</w>
S ing
gu ards</w>
sp ring</w>
iss a</w>
ger ät</w>
tra ff
can cer</w>
1 2
under standing</w>
d ys</w>
el son</w>
Super man</w>
Sta d
wur dest</w>
sh ots</w>
wahn sinnig</w>
hand some</w>
Te ddy</w>
P izza</w>
Gä ste</w>
Ei ther</w>
GH T</w>
i at
D oug
er f
M .</w>
sp ä
sit ze</w>
Zwei fel</w>
O ut
mu ß</w>
Gl or
F li
incredi ble</w>
x ing</w>
Lei chen</w>
ja gt</w>
ge heiratet</w>
sa tis
gel ei
bur ned</w>
CH UCK
st yle</w>
pick ing</w>
har der</w>
de sp
Sti mm
Ste ele</w>
Näch ste</w>
u se
sus pic
stom ach</w>
in vite</w>
ar beit</w>
Deut sche</w>
ge glaubt</w>
Mar tha</w>
li cen
fa te</w>
bot en</w>
g lo
al ed</w>
räul ein</w>
n ights</w>
sex u
an gel</w>
Franc isco</w>
t ät</w>
d get</w>
Pau la</w>
Hal tet</w>
cen ter</w>
but t</w>
Klin k</w>
nie der
mo del</w>
drin ks</w>
Un ivers
St one</w>
victi ms</w>
su ck</w>
contra ct</w>
chan ges</w>
pa ck
man s</w>
k le
c ally</w>
Kom pli
K nie</w>
Wh e
Th eater</w>
Fa hrer</w>
ob vious</w>
G rant</w>
under stood</w>
wo anders</w>
fanta stisch</w>
deli ver</w>
G na
wor t</w>
wa ited</w>
S E</w>
M ine</w>
un it</w>
co s</w>
Tat sache</w>
zurück zu
ell es</w>
strei ten</w>
W unsch</w>
Qu inn</w>
Perfe ct</w>
sig ns</w>
gef re
ge ous</w>
or iginal</w>
el and</w>
Gu ter</w>
the ory</w>
guar an
K ö
ri se</w>
mi eren</w>
ani k</w>
Will en</w>
it ation</w>
Cha mpa
Dire ktor</w>
divor ce</w>
h ot
Bla ck
wä hlen</w>
in surance</w>
hum ans</w>
gen ius</w>
Fa hrt</w>
Ho wever</w>
Hat te</w>
Gen ug</w>
pp y</w>
ju st
hol i
Sam my</w>
hoff en</w>
a tionen</w>
gu cken</w>
St är
Be er
1 5
col ate</w>
Dien st</w>
vern ün
pa int</w>
N umber</w>
verste h</w>
anks giving</w>
G it
wi s</w>
O scar</w>
tech nolo
ga z
char ges</w>
W E
An zug</w>
K offer</w>
4 8</w>
bla ck
SCH RE
Hit ler</w>
El li
hin gehen</w>
hei mlich</w>
Mil es</w>
ad d</w>
Pro jekt</w>
Fer tig</w>
state ment</w>
pein lich</w>
emo tional</w>
arbei ter</w>
che cking</w>
ch el
schrei en</w>
Juli an</w>
ung sk
ge braucht</w>
wi schen
groß ar
S ea
tr ou
ti ere</w>
pro per</w>
Tar a</w>
Whi t
Dre ck</w>
über lebt</w>
wir k
m ood</w>
Kl aus</w>
ru in</w>
ba th</w>
stra tion</w>
posi tive</w>
m eal</w>
k lug</w>
ch i</w>
wat ched</w>
low ly</w>
Sto ck</w>
vamp ire</w>
f ought</w>
S end</w>
Lü gen</w>
än gst
in deed</w>
b un
Er klärung</w>
1 .
ch ose</w>
W E</w>
ble eding</w>
am a</w>
pi ssed</w>
F räulein</w>
i scher</w>
ver nor</w>
an geht</w>
Groß mutter</w>
schrei bt</w>
ist s</w>
appo intment</w>
Par ker</w>
zen tr
medic ine</w>
Wa ffen
s n
freund lich</w>
com peti
brea d</w>
zeu ge</w>
M illion</w>
C at
A ah</w>
ck end</w>
G U
un schuldig</w>
dre y</w>
V ar
Jap an
wo für</w>
O P</w>
kau fe</w>
getr ennt</w>
der al</w>
ven ue</w>
ha fen</w>
ST ÖH
gen den</w>
zä hlen</w>
m ann
Ser ena</w>
m i</w>
Kir k</w>
r eit</w>
d die</w>
Gren ze</w>
sta un
Franc is</w>
einz igen</w>
L ä
Je de</w>
Glei che</w>
Con nor</w>
pre ten
T ina</w>
War st</w>
R ü
t ie
regu lar</w>
g am
p ills</w>
Agen ten</w>
w ow</w>
Bos ton</w>
so cial</w>
schrei be</w>
p ed</w>
k tor
ber ed</w>
avo id</w>
Jer emy</w>
tru g</w>
P H
mü ssten</w>
R ome</w>
Ein satz</w>
nur se</w>
ver däch
l ück
Dan a</w>
ann on</w>
in ti
verhin dern</w>
dest o</w>
clas si
ar men</w>
Wen dy</w>
G la
ell en
il able</w>
de fe
E .
stri ct</w>
Tra cy</w>
Margar et</w>
ste h</w>
öp fe</w>
do ctors</w>
Krank heit</w>
fan cy</w>
M eilen</w>
4 00</w>
Par k
ro s</w>
außer halb</w>
L ou</w>
Sp re
Ja g
charac ter</w>
sch lei
r ely</w>
tin y</w>
ru ined</w>
gh ost</w>
L A</w>
prison er</w>
Bar bar
Mar i
st lich</w>
ersch re
Da zu</w>
memor ies</w>
sp y</w>
Lin col
ri er</w>
- Du</w>
ol er
am ü
Lie bes</w>
Bla ir</w>
ell as</w>
sche dule</w>
per cent</w>
B ald</w>
ki es</w>
v ot
sc ar
re venge</w>
Z umindest</w>
Krie gs
Al though</w>
h unt</w>
Mi k
ick s</w>
fl at</w>
Sei ten</w>
sin ging</w>
qu es</w>
gent leman</w>
über legen</w>
fan ge</w>
sto ßen</w>
Näch stes</w>
wit ne
vac ation</w>
rom antic</w>
en g</w>
your selves</w>
schla ge</w>
passi erte</w>
oto gra
cla im
Mil ch</w>
ess a</w>
hil f</w>
di sch</w>
D Y</w>
respe kti
na tion
ge hofft</w>
De fin
Cent ral</w>
exc iting</w>
Au drey</w>
person ally</w>
in i</w>
gef ol
N either</w>
off ered</w>
W olf</w>
Nachbar n</w>
en zen</w>
T I
Ma gie</w>
au tom
wi de</w>
sch mut
ampa gne</w>
Cl ose</w>
kontrol lieren</w>
en em
US A</w>
äu fer</w>
Le wis</w>
C OM
Wa de</w>
ner in</w>
gere ch
Befe hle</w>
ver se</w>
vermis se</w>
Sch lie
P op
per mission</w>
e ds</w>
Frei tag</w>
setz ung</w>
ne goti
ja cket</w>
di stra
Brau t</w>
fi a</w>
Sch ande</w>
st ems</w>
mor gens</w>
bab ies</w>
ig n</w>
bor ing</w>
R U
Le x</w>
A unt</w>
wün scht</w>
s outh</w>
li mit
Trot tel</w>
T wi
war ning</w>
Da ten</w>
j or
P anik</w>
An wäl
do s</w>
H ure</w>
enttäu scht</w>
gi bts</w>
Wor über</w>
Sig nal</w>
Pre viously</w>
ei fer
an nen</w>
stör t</w>
di ent</w>
br ight</w>
Blöd sinn</w>
er ei</w>
P flicht</w>
G A
B ol
el low</w>
ar zt</w>
le sson</w>
air port</w>
beg an</w>
Zä hne</w>
Sh oot</w>
Sol dat</w>
SC RE
sch ickt</w>
sh ine</w>
Hol en</w>
brea thing</w>
bl ü
Tr otzdem</w>
de pen
Hal lo
da tion</w>
pla te</w>
kompli ziert</w>
k um</w>
it es</w>
for dert</w>
Ken ny</w>
Au ßen
wi re</w>
ton gue</w>
W ett
Kol legen</w>
lo wer</w>
ing ton</w>
verletz en</w>
z ene</w>
t ied</w>
rei ch
h ook</w>
an tun</w>
d liche</w>
ava ilable</w>
Pf und</w>
ver lässt</w>
au l
celebra te</w>
tre ffe</w>
prot ection</w>
v ig
j ün
F ac
We b
Neh mt</w>
up s</w>
k rä
demo iselle</w>
Wer k
d an</w>
R ennen</w>
Men schen
Gel d
Alkoh ol</w>
w alls</w>
las si
er wachsen</w>
Ha d</w>
kü sst</w>
pati ents</w>
le s
R el
Woll t</w>
f ass
den k</w>
Lie be
Fel ix</w>
ss ig</w>
ol as</w>
nach her</w>
cr ash</w>
cou rage</w>
Schwe stern</w>
Famili en</w>
Schrei b
lie st</w>
Ver rä
Flug hafen</w>
t tern</w>
er gibt</w>
ab hän
Kör per
ver bin
ge b</w>
ar ti
scre aming</w>
Dea th</w>
sy m
einfa cher</w>
Mot or
Al most</w>
lei det</w>
W on</w>
tou ched</w>
mater ial</w>
co ck
bil d</w>
Selbst mord</w>
Lo gan</w>
om bie</w>
ell i</w>
a wake</w>
re com
H oh
sch wach</w>
Heil ige</w>
ome ter</w>
Pist ole</w>
Hex e</w>
Si ster</w>
Aus sage</w>
sto ck</w>
ma in
- How</w>
i let</w>
sch iff</w>
chan ging</w>
M ason</w>
Sp uren</w>
Cha os</w>
Ca stle</w>
stär ker</w>
sa men</w>
po unds</w>
a unt</w>
Stu hl</w>
Kun st</w>
k ör
Jap an</w>
mi er
la id</w>
k s
in iti
dro ve</w>
bri lliant</w>
T em
I ma
Ges und
Bau er</w>
z el</w>
ki cked</w>
Gre g</w>
Wa ke</w>
der jenige</w>
Th ought</w>
M um
Inter ess
kennen gelernt</w>
Sie g</w>
Lincol n</w>
conf used</w>
mi ssion
mm ed</w>
Bab y
neighbor hood</w>
ra ised</w>
de vice</w>
T .
G I
um sonst</w>
f lei
L os
Ger ä
le u
belie vable</w>
Unterstü tzung</w>
su dden</w>
ett i</w>
erzä hle</w>
er stes</w>
Frü her</w>
Ar t.</w>
fle et</w>
an nehmen</w>
T A
amo unt</w>
j o</w>
ha med</w>
K ünst
gu ess
en er</w>
d der</w>
wo ke</w>
ve hi
mur derer</w>
defen se</w>
enem ies</w>
S U
R em
Präsi denten</w>
An th
gier ig</w>
f liegt</w>
succ ess
der ation</w>
c lin
Mä r
G us</w>
as hed</w>
A u</w>
rie cht</w>
m um</w>
la cht</w>
mit genommen</w>
te x
O therwise</w>
r ights</w>
ph e
her ein</w>
Ker le</w>
gä be</w>
bel ei
Ac cording</w>
tz er</w>
z ir
pf lich
ma chten</w>
bel n</w>
ich e</w>
er kannt</w>
O hr</w>
ster be</w>
ste ps</w>
gra teful</w>
l or</w>
expen sive</w>
real ity</w>
ch ern</w>
Mü he</w>
Ih m</w>
Qu ick</w>
De partment</w>
schie ßt</w>
min destens</w>
mi schen</w>
ev ent</w>
commun ity</w>
Th anksgiving</w>
T ier
Op a</w>
gro wing</w>
gr ab
e chter</w>
offic ial</w>
i ent</w>
f rau
R and
M ün
R Y</w>
Kom mandant</w>
ma id</w>
l ern
ger issen</w>
conne cted</w>
a dop
Sch loss</w>
Gri ff</w>
sa mp
is i
con fir
S ä
Der ek</w>
se cure</w>
gest anden</w>
b ill
be handeln</w>
zu hören</w>
gel an
gu t
V ul
N ich
Po i
Arbei t
schu le</w>
da ta</w>
weiter hin</w>
Al len</w>
pas sen
gen des</w>
co ck</w>
sp in
C op
sol ve</w>
sex ual</w>
re s
heal thy</w>
belon gs</w>
K ell
mi ral</w>
be endet</w>
Se chs</w>
p et</w>
ak u
las en</w>
e f</w>
L as
Coun ty</w>
k us</w>
zurück kommen</w>
Spra che</w>
gra d</w>
sor ge</w>
iz ation</w>
Da isy</w>
un ver
Wa ch
Kü hl
P ie
os si
Vi ol
sh ape</w>
ma sch
bra cht</w>
ump ing</w>
M S</w>
new spap
im in
ba ge</w>
Li am</w>
Gr as</w>
Ga be</w>
hin ein</w>
di son</w>
ble w</w>
y in</w>
cur ious</w>
Mon day</w>
D ead</w>
Bot schaft</w>
T w
Ro ber
Hal te</w>
lan ce</w>
i den</w>
be trifft</w>
U p
Frank reich</w>
E than</w>
zw ungen</w>
in e
g lasses</w>
An gele
in du
w ound</w>
soll tet</w>
ar ch
Schat ten</w>
u ed</w>
sch ade</w>
Glor ia</w>
hun ting</w>
erle bt</w>
Du ke</w>
- Sie</w>
Flor ida</w>
Bab ys</w>
resul ts</w>
bas ed</w>
äu ß
war n</w>
fa ces</w>
wa che</w>
app ear</w>
Don ald</w>
trei bt</w>
t oll
K id</w>
J oh
Ch anc
st an</w>
s wea
o v
ne ben
gra du
Prin z</w>
Herr gott</w>
überzeu gen</w>
ic ans</w>
gere gt</w>
at tor
Hom er</w>
fas hi
Willi ams</w>
Co ach</w>
rein kommen</w>
jer k</w>
7 5</w>
we l</w>
Hon or</w>
Pier re</w>
P E
Qu iet</w>
ti p</w>
del iver
ag gre
sch rank</w>
mo chte</w>
ba be</w>
Poi rot</w>
la dung</w>
Un fortunately</w>
T ick
o therwise</w>
Schn au
W ert</w>
Cle ar</w>
Är zte</w>
en ne</w>
R om</w>
S et</w>
Mick ey</w>
Alph a</w>
kno wledge</w>
car rying</w>
Brie f
weh tun</w>
rea ched</w>
T est
Koh le</w>
univer se</w>
erfol grei
itä ten</w>
komple tt</w>
eg gs</w>
Lu cky</w>
stin kt</w>
kos ten</w>
beoba chtet</w>
Ver rü
Rie sen</w>
Stra ßen
L am
bo ard
ä st
hi dden</w>
ben ö
Fein de</w>
Christop her</w>
ger aten</w>
fr igh
U l
Car eful</w>
re i</w>
ci li
sk ey</w>
r ush</w>
disapp ear</w>
ch amp
Step hen</w>
Stan ley</w>
vir us</w>
geb ung</w>
gan t</w>
famili es</w>
i ley</w>
ent sch
R ita</w>
wech seln</w>
10 0
will en</w>
Re por
schar f</w>
pain ting</w>
Ein heit</w>
Grö ße</w>
Ab sicht</w>
A kten</w>
Ih n</w>
gar age</w>
eig n</w>
Schw ein
verdamm ter</w>
m ely</w>
fi xed</w>
An n</w>
un det</w>
Spo ck</w>
P ru
ther ing</w>
sch rieb</w>
app ears</w>
ma ti
dre ck
Ide en</w>
us er
I M</w>
Go ing</w>
e du
Schü ler</w>
Mac Gy
f i</w>
Z ehn</w>
Flu cht</w>
sich t
l hr</w>
heraus zufinden</w>
w ör
e urer</w>
Ver stehen</w>
ph otos</w>
me aning</w>
ck ers</w>
al coh
Se con
su chte</w>
hi re</w>
e chten</w>
Oli via</w>
ne st</w>
be ster</w>
v it
st ea
lei hen</w>
m ol
le bst</w>
i ö
fre d</w>
Cre w</w>
to ilet</w>
br ei
assi stant</w>
Vie t
woh ner</w>
K as
sh opping</w>
besch iss
im p
hö flich</w>
gu s</w>
F ang</w>
Me gan</w>
Kamp f
schn itt</w>
bo l</w>
ver geben</w>
tra u</w>
sch icke</w>
es sel</w>
ci p
R ab
co ol
tel ep
at t</w>
re quest</w>
W ouldn</w>
Kno chen</w>
S la
Fin den</w>
schla u</w>
ab ly</w>
J .
v ard</w>
R ou
bi es</w>
la ke</w>
ex am
ci an</w>
P ick
eas ily</w>
Ver sprechen</w>
schn appen</w>
af fair</w>
Lang sam</w>
an z</w>
W är
M US
resc ue</w>
om i</w>
al o
Pre sse</w>
Lü gner</w>
s no
be u
ast ro
B ank
Absol ut</w>
TH IS</w>
Kin o</w>
o in</w>
Hallo ween</w>
Ga st</w>
hä l
Ma c</w>
Au g
entschuldig e</w>
sc ary</w>
rom anti
Glei ch
ci ti
Den nis</w>
cle an
Tro y</w>
äl ter</w>
dise ase</w>
MacGy ver</w>
Kar l</w>
d ale</w>
Arbei ts
Ar i</w>
sol ution</w>
Di ane</w>
w and</w>
Victor ia</w>
unter suchen</w>
i ze</w>
Not fall</w>
so ft</w>
sag es</w>
beg ann</w>
Zie mlich</w>
N elson</w>
gar den</w>
F abri
- Okay</w>
stu dents</w>
gek laut</w>
cla im</w>
Ju sti
ca b</w>
Ge e</w>
Aller dings</w>
. m.</w>
fe male</w>
ver sion</w>
sp read</w>
R icky</w>
P ick</w>
loy d</w>
in spi
gu ests</w>
M ill
win gs</w>
ung lück
po ison</w>
licen se</w>
über legt</w>
wor e</w>
bur ger</w>
ten ed</w>
Barbar a</w>
pa ckt</w>
ow ner</w>
bur ning</w>
Per sön
Ch er
w boy</w>
ill ing</w>
v els</w>
pla yer</w>
Ger ade</w>
19 9
stron ger</w>
gent eil</w>
as hamed</w>
Ri ley</w>
m ute</w>
c oll
l ene</w>
Verschwin den</w>
O .
her kommen</w>
W alt</w>
Jen ni
G as
ck ett</w>
Rau m
Kre bs</w>
um gehen</w>
mem bers</w>
K ab
tr ennen</w>
it t
Pfer de</w>
Blei bt</w>
ge on</w>
cor e</w>
gen e
convin ced</w>
con du
la ted</w>
tu m
it u
Ch em
itä n</w>
h mt</w>
D ick
un ion</w>
j unger</w>
Mon t
convin ce</w>
Fä lle</w>
val ue</w>
al t
Ste p</w>
t oo
C lo
wei st</w>
be stellt</w>
2 7</w>
IEL D</w>
&apos; clock</w>
offic ers</w>
cra ck</w>
V om</w>
Fan ta
w ns</w>
sei tig</w>
prä sen
tru sted</w>
happ iness</w>
ha ted</w>
Be eil</w>
zie hst</w>
Kri min
su gar</w>
Rebe cca</w>
t v
au di
B oo
ver ändern</w>
beglei ten</w>
Ge genteil</w>
lie fern</w>
eifer süchtig</w>
N eil</w>
ör t</w>
Ste ph
sch ein</w>
Par don</w>
zei tig</w>
to ast</w>
hal tet</w>
es a</w>
p izza</w>
app arently</w>
wö lf</w>
sp rich</w>
lei ten</w>
su ffer</w>
ben e</w>
ba dly</w>
Spe zi
Wie der</w>
on t</w>
OU T</w>
ut tle</w>
Stei g</w>
Je den</w>
stru g
iss ues</w>
l ch</w>
B B
em ents</w>
Wen igstens</w>
el imin
si sters</w>
R on</w>
Clar ence</w>
sch reit</w>
ex change</w>
Se ems</w>
mäch tig</w>
Unter suchung</w>
To de</w>
stan ces</w>
li fe
J as
bo und</w>
Br ust</w>
gewin nt</w>
Sch ade</w>
Rech nung</w>
ge mein</w>
st ück
di am
auf geregt</w>
auf gehört</w>
Ken ne
Erlau bnis</w>
neu lich</w>
Spen cer</w>
Dar über</w>
ver end</w>
sho ck</w>
l ds</w>
gaz ine</w>
thro wing</w>
pul ling</w>
am bul
Arti kel</w>
Deta ils</w>
on nen</w>
bir ds</w>
mana ged</w>
Li z</w>
Dien st
trä umt</w>
dol lar</w>
advan tage</w>
Irgend wie</w>
Har ris</w>
E v
ver sau
ei en</w>
U R</w>
Russ ell</w>
d le</w>
Läch eln</w>
Fü hr
Bü hne</w>
zu gehen</w>
Ali son</w>
ver liert</w>
tal ent</w>
ran g</w>
fanta stic</w>
cu sto
sch ien</w>
hel ps</w>
Proz ess</w>
Jenni fer</w>
konzentri eren</w>
f ice</w>
dul d</w>
pleas ed</w>
ce an</w>
as soci
ann ie</w>
aliforni a</w>
Vor stellung</w>
Ma x
B ill
tri es</w>
prie st</w>
Go ddamn</w>
exc ellent</w>
St ich</w>
Her man</w>
Dan iel
feu ern</w>
bor row</w>
sch st</w>
treat ment</w>
Fol ge</w>
stimm ung</w>
ra p</w>
Zu gang</w>
Bri tish</w>
den s</w>
St au
R E</w>
Mü ll</w>
F as
tre ated</w>
ter ms</w>
shi el
fa il</w>
schw ul</w>
ge m</w>
escap ed</w>
19 8
sp it
kti v
a tic</w>
Le ben
s at</w>
pl om
R ot
Di rec
le gi
is ieren</w>
ro l</w>
pre pare</w>
al a</w>
ac compli
S ki
P y
War ren</w>
th ief</w>
fl uss</w>
akzep tieren</w>
Sp rich</w>
for mer</w>
chea p</w>
ca kes</w>
an ger</w>
Sh e
s hr
gar anti
So on</w>
W ü
K am
di sh</w>
U gh</w>
Prie ster</w>
Anth ony</w>
s i</w>
bi le</w>
N as
Ger ech
t ent</w>
Sam stag</w>
Be stes</w>
mä ßig</w>
Sch lu
H ot</w>
Schlaf zimmer</w>
succ ess</w>
ci se</w>
u ts</w>
as ide</w>
Ele k
rich tung</w>
gra m</w>
Ver gessen</w>
a he</w>
Ha y
Wer de</w>
Sch ri
B auch</w>
hou se
ck ey</w>
Entschuldig t</w>
E .</w>
v eil
viol ence</w>
k m</w>
Medi zin</w>
vi du
de aler</w>
U se</w>
L ana</w>
mista kes</w>
ep y</w>
b lich</w>
P S</w>
Liebling s
. I.
so ciety</w>
hn te</w>
hal ben</w>
cor n</w>
G ER
ten der</w>
mira cle</w>
grand father</w>
mä dchen</w>
Theor ie</w>
4 user
ge heim</w>
Proz ent</w>
N ett</w>
G ou
Dy lan</w>
se tting</w>
flie hen</w>
coo per
Verdamm te</w>
tv 4user
schie f</w>
an z
Sy l
scre en</w>
Sa ve</w>
SE UF
E L</w>
tre es</w>
t all</w>
g ly</w>
ein verstanden</w>
din nen</w>
Re d
po is
mi c</w>
po the
n irgendwo</w>
commit ted</w>
G as</w>
ur t</w>
tv4user .de</w>
par king</w>
mo ves</w>
sher iff</w>
K en</w>
Jer sey</w>
sur ro
p tion</w>
cho colate</w>
UN D</w>
7 .</w>
our th</w>
gef asst</w>
For d</w>
s ni
ge meldet</w>
en gine</w>
ch ase</w>
au gh
Pr os
Jac ke</w>
tra vel
m are</w>
Ab teilung</w>
zwin gen</w>
ur a</w>
pla ced</w>
Dar ling</w>
ma tes</w>
i le</w>
be graben</w>
direc tor</w>
J ill</w>
x y</w>
ologi cal</w>
moun tain</w>
Ch o
abo ard</w>
us ive</w>
Beer digung</w>
m end</w>
her vor
ger ä
C e
temp or
Ver halten</w>
star ds</w>
L D</w>
Fil me</w>
verwir rt</w>
an gesehen</w>
it ors</w>
L un
z wan
wen dung</w>
stopp en</w>
ko chen</w>
Ki ste</w>
CH EN</w>
ver giss</w>
spo ken</w>
physi cal</w>
out ine</w>
lea ding</w>
Ro ad</w>
E a
wr iter</w>
neh m</w>
d ka</w>
Swe et</w>
Din gen</w>
Bess eres</w>
lea ds</w>
direc tion</w>
board .
H üb
For ce</w>
Dä mon</w>
An s
par ano
ch ell</w>
P ea
jo king</w>
ier ung</w>
te en
Verzei hen</w>
stu dio</w>
par don</w>
vol un
ier ten</w>
größ ten</w>
Re gel</w>
In formation</w>
C alifornia</w>
na sty</w>
i th
antwor tet</w>
i ans</w>
disgu sting</w>
dec ent</w>
J U
S A</w>
sti mme</w>
ste aling</w>
fre qu
Win ter</w>
trin ke</w>
get reten</w>
Ray mond</w>
Ral ph</w>
hig her</w>
geschn itten</w>
po s</w>
ab and
Z elle</w>
E ve</w>
überprü ft</w>
schmer zen</w>
mer cy</w>
che ster</w>
ous y</w>
Sy dney</w>
Exc ellent</w>
t tet</w>
pr inc
gen ü
fa ctory</w>
Z wischen
Ch and
n it
ff el</w>
crow d</w>
Nor den</w>
Mitta gessen</w>
Kap itän</w>
An k
Ad miral</w>
tt in</w>
ro e</w>
probi eren</w>
Ma demoiselle</w>
- The</w>
o dd</w>
ha ir
board. tv4user.de</w>
Al te</w>
ou ts</w>
geb il
f ein
ca stle</w>
Da bei</w>
dist ance</w>
S ö
Japan ese</w>
repor ts</w>
auf genommen</w>
gerech net</w>
bi o
He h</w>
i sches</w>
Über wach
t äu
er warte</w>
Sch aden</w>
Ein mal</w>
No ti
se ason</w>
may or</w>
her gekommen</w>
T ür
swi m</w>
Ver ab
De ckung</w>
zwei mal</w>
th ri
To p</w>
Sp ea
Be st</w>
ha ut</w>
ex act</w>
Vamp ir</w>
Sa id</w>
Auf hören</w>
m ung</w>
jour ney</w>
ab hauen</w>
Ste ven</w>
go d
ear n</w>
ver ne
a to</w>
Sonn tag</w>
laugh s</w>
Ver wand
SH IELD</w>
heraus gefunden</w>
SI GHS</w>
dre am
lan den</w>
attor ney</w>
traff ic</w>
agen ts</w>
val u
su cks</w>
Ben jam
A cht</w>
ge zwungen</w>
ff eln</w>
Se ba
Par a
Ju stin</w>
Geb iet</w>
h ost</w>
geflo gen</w>
blö de</w>
w elt</w>
pro gress</w>
lü gt</w>
er tragen</w>
Gir ls</w>
D um
Com p
Th ur
Schnau ze</w>
Freund schaft</w>
war nt</w>
SEUF ZT</w>
In spe
Gerech tigkeit</w>
k an</w>
olo gie</w>
Ser vice</w>
F an</w>
B all
B E</w>
co inci
uni form</w>
Tal ent</w>
F ant
sel ten</w>
friend ly</w>
Pati ent</w>
Hel den</w>
arbei tete</w>
Cha se</w>
C at</w>
lie der</w>
repar ieren</w>
refu se</w>
Mit t
re geln</w>
h s</w>
H ome</w>
Gro ßer</w>
war ri
gesam te</w>
equi pment</w>
P hy
Bo x
Ex perim
spra chen</w>
p ure</w>
los op
fa cili
Steu er
dr o</w>
deut lich</w>
F ron
weiter machen</w>
dun kel</w>
ab li
C oll
t ur</w>
desper ate</w>
Alex ander</w>
ein sam</w>
Wh oever</w>
P I
Matthe w</w>
3 2</w>
stei gt</w>
loy al</w>
le bte</w>
fan t
custo dy</w>
st ell</w>
me chan
lei chter</w>
kne es</w>
ver lo
ver boten</w>
R eal</w>
ann i
ac y</w>
wieder sehen</w>
partic ular</w>
m assi
Sp rin
Dämon en</w>
schme ckt</w>
Vir gin
wei ßen</w>
vertrau e</w>
leben dig</w>
f ying</w>
I an</w>
ver missen</w>
gele bt</w>
bas ement</w>
T on</w>
vol u
rin a</w>
direc tly</w>
cle aning</w>
D ata</w>
n ig
mar kt</w>
STÖH NT</w>
An führer</w>
mar k
i sation</w>
ci ent</w>
Gi ft</w>
Ge duld</w>
ruin iert</w>
Er wachsen
ER S</w>
Donn er
D e</w>
prison ers</w>
ür t</w>
technolo gy</w>
consi dered</w>
E h</w>
trä gst</w>
na p</w>
e ti
do zen</w>
H ill</w>
d s
P ur
C ouldn</w>
tem per
b utter</w>
Wa che</w>
fa il
Mon k</w>
ru s</w>
S S</w>
Medikam ente</w>
vor n</w>
br and</w>
M ig
Z we
ex plan
ent weder</w>
H E</w>
samm eln</w>
Pal mer</w>
C ru
Bö se</w>
B isher</w>
ou l</w>
entwick elt</w>
H under
Fin ally</w>
t ungs
f ed</w>
F OR</w>
f ör
b ones</w>
ambul ance</w>
Spiel en</w>
Mi a</w>
swi tch</w>
ri son</w>
br ennt</w>
war rant</w>
ma tic</w>
au ßerdem</w>
ala ce</w>
Sa int</w>
tr ot
k ing
im a</w>
f in</w>
Gesch en
F rea
C amp</w>
Al arm</w>
ri ding</w>
mar ks</w>
dire ct</w>
P O
D S</w>
Bern ard</w>
perfe kte</w>
bl on
N ap
kn app</w>
gesch ichte</w>
W ün
l tig</w>
Vir us</w>
t um</w>
ja h</w>
bra ins</w>
sc en
erzä hlst</w>
H ans</w>
ia o</w>
ga ge</w>
b um</w>
verschwin de</w>
ren nen</w>
circum stances</w>
Z y
Ro ck
Hal f</w>
on able</w>
W an
Mon tag</w>
Au ss
m ant</w>
i erst</w>
Tan z</w>
o de</w>
lea gue</w>
ha tes</w>
est ing</w>
S hir
führ te</w>
J our
Fern seher</w>
beru higen</w>
verb unden</w>
ter m</w>
g ment</w>
e --</w>
ar tic
Stra ßen</w>
genie ßen</w>
Sa ck</w>
we sen
w re
Nor mal
schle chten</w>
ne tter</w>
an gel
Ein druck</w>
Ger ichts
Gen ie</w>
Co unt</w>
Beau tiful</w>
good ness</w>
can c
Mon roe</w>
Com pu
thous ands</w>
p ity</w>
is ol
de sire</w>
schwar z</w>
as sure</w>
s ale</w>
se ction</w>
art ist</w>
appro pri
W ood
Be deut
chan ces</w>
U .S.</w>
z em</w>
passi on</w>
M ind</w>
y --</w>
tr apped</w>
re peat</w>
wich tige</w>
sit z</w>
il er</w>
berei ten</w>
Ge fällt</w>
w eint</w>
riski eren</w>
P LA
Ner ven</w>
J A
D ür
r ole</w>
offizi ell</w>
n ick
bil dung</w>
Na z
K ent</w>
Gra y
Ü brigens</w>
en ced</w>
e th
Se p
co ach</w>
K leider</w>
spiel st</w>
con di
Entschei dungen</w>
sp ot
gi ant</w>
defin itiv</w>
Ru hig</w>
us ch</w>
j ects</w>
s wa
mis er
sch lug</w>
ange kommen</w>
K E
B loo
W ut</w>
o x
g on
M ight</w>
n ungs
Je annie</w>
To by</w>
dum p</w>
Mal col
be freien</w>
Hem d</w>
shoul der</w>
sacri fice</w>
offen bar</w>
ein deu
angeneh m</w>
Erzä hlen</w>
con stru
beg ei
MUS I
En joy</w>
suffer ing</w>
con su
Plan et</w>
F ass</w>
ha fte</w>
existi ert</w>
de cl
wa hren</w>
Lem on</w>
Be din
wa ve</w>
Tat ort</w>
Loo king</w>
- So</w>
zu stellen</w>
tech ni
rele ased</w>
cent ury</w>
Sch mu
&apos; t
St or
Se ñ
Klei dung</w>
ver passen</w>
Sch wer
za hl</w>
w ley</w>
lo aded</w>
er hö
erzä hl</w>
Tran spor
Hol ly</w>
schei den</w>
har m
T üren</w>
F ie
m ally</w>
Sen dung</w>
presen ce</w>
b our
Un iver
Champa gner</w>
star ing</w>
o ber
Rich ie</w>
M itte</w>
Ha mmer</w>
n te</w>
gegen seitig</w>
am ent</w>
er leben</w>
We ge</w>
Ob viously</w>
but ton</w>
CHUCK LES</w>
dür fte</w>
T E</w>
O t
H ier
D ex
trie ben</w>
da ted</w>
ab gesehen</w>
g ö
as ha</w>
Re gen</w>
Benjam in</w>
grand mother</w>
getau cht</w>
be ast</w>
scha den</w>
lin k</w>
Dunk el
kl ein
e dge</w>
M anny</w>
ther ed</w>
li ber
schwi mmen</w>
fer red</w>
dr um</w>
Fü hrer</w>
Beru hige</w>
pe e</w>
on ds</w>
im um</w>
d ell</w>
t oller</w>
le ss
es c
v ous</w>
p unch</w>
Verrä ter</w>
La ke</w>
Ir gen
ver an
Mon d</w>
Malcol m</w>
bewa ff
sch uss</w>
eben falls</w>
Perfe kt</w>
Pap iere</w>
E at</w>
wi g
ke eper</w>
bit s</w>
Wa chen</w>
Hel fen</w>
D ON</w>
m osp
br an
ab gel
Mit tel
W ay</w>
E p
AL F</w>
wä sche</w>
sig ni
Qu ite</w>
sy stems</w>
lo ving</w>
C ran
da her</w>
beoba chten</w>
un ru
St rom</w>
gewä hlt</w>
Trin ken</w>
x ie</w>
re gar
Z unge</w>
Mü ll
ver zwei
Sti mmen</w>
gesto ßen</w>
C .
sch i
4 2</w>
te i</w>
for est</w>
b lieb</w>
Bul lshit</w>
inner halb</w>
ei lig</w>
eff ect</w>
H o</w>
zeich nen</w>
we cken</w>
bor der</w>
Wh oo</w>
T iger</w>
Soll ten</w>
smo king</w>
ik a</w>
S zene</w>
K el
interessi eren</w>
Rei ch</w>
K rist
z ens</w>
yo unger</w>
li br
be y</w>
ver haften</w>
W anna</w>
Stra fe</w>
st ill
peri od</w>
ss y
gr ä
ar ro
Ru th</w>
ru de</w>
est abli
N A
eil ung</w>
be eilen</w>
stran ger</w>
ri sh</w>
cli ents</w>
Fähig keiten</w>
schwar zen</w>
pr int</w>
ju ice</w>
fle sh</w>
br ief</w>
sear ching</w>
pu ssy</w>
princ ess</w>
fin ger
ac cording</w>
Schön heit</w>
inclu ding</w>
care fully</w>
Ver flu
Spie gel</w>
Lo ck
v ollen</w>
tz ei
fa cts</w>
def end</w>
at ors</w>
Got ta</w>
F lo
los werden</w>
Tw enty</w>
Krie ger</w>
Ä CH
zu letzt</w>
ch ers</w>
can dy</w>
Dar an</w>
Be ing</w>
g ist</w>
da tes</w>
P le
No ah</w>
Freun dinnen</w>
rema ins</w>
besch rei
Sicher heit
pas sing</w>
offic i
Ex per
ta gs</w>
C all
ur s</w>
stän dnis</w>
g i</w>
berü hm
aller dings</w>
A venue</w>
do ck</w>
Qu elle</w>
ck le</w>
zü glich</w>
veil lance</w>
f ea
an i</w>
Star k</w>
tot en</w>
en si
Je ffer
E t
e ks</w>
st ead</w>
an ony
Wur de</w>
V it
L auf
zeu gen</w>
mit tel
fe hl
Re verend</w>
Ge bt</w>
Bo ys</w>
kap iert</w>
t ear</w>
sm ells</w>
k lau
sch ungen</w>
non sense</w>
h lich</w>
tele vision</w>
intellig ent</w>
Könn test</w>
g ger</w>
sensi tive</w>
ein st</w>
S D
Ra di
d lichen</w>
Tru ck</w>
Finger ab
sho e</w>
fri sch</w>
C el
al tes</w>
T am
tö te</w>
dauer nd</w>
Gesch mack</w>
ch at</w>
Din ner</w>
be findet</w>
R onnie</w>
Phi li
3 6</w>
da von
Ste hen</w>
K ul
Beru f</w>
tal ks</w>
Mög lichkeiten</w>
La chen</w>
dep ends</w>
Irgend wann</w>
Gen au
N O</w>
sc ore</w>
rou te</w>
go ds</w>
f ul
qu ie
die selbe</w>
bb ing</w>
attemp t</w>
ad v
Do kum
w ha
mom ent
O wen</w>
Chand ler</w>
prot ecting</w>
dra g</w>
ber eu
Le ck</w>
oo kie</w>
in tend</w>
bro chen</w>
An rufe</w>
1 6
intellig ence</w>
W em</w>
W OM
Sta aten</w>
ima ge</w>
ele v
ali a</w>
Gebur t</w>
Fil m
yst al</w>
o te</w>
V ic</w>
tra ce</w>
el st</w>
nen ne</w>
Secon d</w>
st op
ger echt</w>
Hü hn
é e</w>
re pu
me ssen</w>
im pro
ly mp
Scho kol
Prin cess</w>
E ven
stra te
sp aren</w>
whe el</w>
ren der</w>
Ch ap
squ are</w>
an ziehen</w>
Mon a</w>
Euro pe</w>
Engli sch</w>
Ans wer</w>
tra ined</w>
con vi
clos et</w>
Gr and</w>
y ellow</w>
s stest</w>
ö fter</w>
auf nehmen</w>
&apos; M</w>
ur ies</w>
tr igger</w>
r are</w>
Jo an</w>
shi ft</w>
f ab
b id</w>
et ings</w>
Bro t</w>
unterstü tzen</w>
pack age</w>
oo p</w>
mir ror</w>
Sp ren
Ar cher</w>
p ft</w>
gefol gt</w>
ge warnt</w>
M hm</w>
mid night</w>
bel ow</w>
Mex iko</w>
Grün de</w>
Fol gen</w>
tä r</w>
tr on
sour ces</w>
ol e
D A</w>
kill s</w>
deta il</w>
coo king</w>
au x</w>
We sten</w>
Be en</w>
s se
Gö tter</w>
räu men</w>
tö tete</w>
ber y</w>
S per
Vor schlag</w>
T ess</w>
Sp ei
ab geschlossen</w>
geschn appt</w>
gen en</w>
Car son</w>
A si
j ury</w>
gra ce</w>
W etter</w>
D al
mach ung</w>
k u</w>
ge setz
fi cken</w>
c ameras</w>
Ka therine</w>
un usual</w>
i i</w>
ann ten</w>
Wissen schaft
ut ch</w>
- Why</w>
v age</w>
k il
her d</w>
ac ke</w>
B ell</w>
ver age</w>
sus pen
see k</w>
kno cked</w>
engin e
bege gnet</w>
ad mi
SA M</w>
Gewe hr</w>
on ie</w>
har te</w>
betro gen</w>
hum ili
consci ous</w>
ac tor</w>
T our</w>
Ger many</w>
Be sten</w>
ver gewal
hur ting</w>
ber ry</w>
sta hl</w>
ph ones</w>
dest ru
Hea ther</w>
B ron
ge fühl</w>
Nic ole</w>
schaf ts
Pun kte</w>
Mo un
ver lor</w>
ge steckt</w>
e state</w>
Y et</w>
na men</w>
rich tiger</w>
lei se</w>
d ust</w>
Sy n
Sa fe</w>
Herz lichen</w>
verschwin det</w>
spor ts</w>
some time</w>
sand wich</w>
mot ten</w>
bra chten</w>
- And</w>
s now</w>
Span ish</w>
La ger
Bedeut ung</w>
sp ending</w>
mon key</w>
Gel ie
E ight</w>
ler in</w>
P ad
Le gen</w>
woh ne</w>
wen dig</w>
was ser</w>
k ein
Sti r
2 6</w>
masch ine</w>
lo g</w>
ge sti
Lei tung</w>
os se</w>
mon t</w>
eu rem</w>
ab sur
Die smal</w>
Bu ddy</w>
ver bracht</w>
ti al</w>
myster y</w>
li a</w>
d ün
St ä
2 8</w>
tr ash</w>
pos t
la ck</w>
di an</w>
St ol
Adri an</w>
us i
st ings</w>
schla fe</w>
rie chen</w>
re fle
even tually</w>
be coming</w>
Är z
re ti
Hü tte</w>
rau chen</w>
hä re</w>
f ellas</w>
exp ert</w>
be sucht</w>
Prom ise</w>
Kos tü
tre ss</w>
We st
Mir anda</w>
Klin ik</w>
L ot
r s</w>
lei te</w>
Di vision</w>
Ba ck
ver s
g ere</w>
enga ged</w>
Tra ining</w>
Sch aut</w>
Mar tin
Fant as
Dex ter</w>
wi llig</w>
bla de</w>
Sam an
conc ent
irgend jemand</w>
H ector</w>
Amer icans</w>
poli tical</w>
Tran s
H all</w>
m ighty</w>
ir m</w>
T ests</w>
se c</w>
p sy
Mit chell</w>
Fel d</w>
lan d
Q U
Za hlen</w>
Kre dit
trans fer</w>
k ö
bra ch</w>
Seba stian</w>
Foot ball</w>
st or</w>
Schi ffe</w>
P ear
ne ten</w>
P .</w>
Mitg lied</w>
therap y</w>
mehr ere</w>
ern sthaft</w>
sent ence</w>
ge dreht</w>
eben so</w>
be antworten</w>
ab lo</w>
ster ium</w>
cou ch</w>
Ge däch
di schen</w>
beg rü
Ver letz
Ri ver</w>
Cin dy</w>
mon y</w>
pu ts</w>
pleas ant</w>
guaran tee</w>
ex er
Ver mutlich</w>
Ne ben
ha tt
cor por
Ber g</w>
kl yn</w>
ch in</w>
La ter</w>
K ru
Stre ss</w>
Me tho
Dec ke</w>
k na
dum me</w>
Cer tainly</w>
om et
bri de</w>
B ou
B lin
prakti sch</w>
night mare</w>
ku chen</w>
for ms</w>
b oot</w>
T hi
Indi an</w>
sch eu
re ss</w>
S id</w>
prü fen</w>
Vamp ire</w>
v i</w>
SCRE AM
Pe ggy</w>
N ol
Get ting</w>
t ank</w>
su it
f ella</w>
e ing</w>
Nor d
remem bered</w>
for ces</w>
1 000</w>
j un
men te</w>
bor ed</w>
agre ement</w>
Sto ff</w>
19 6
je derzeit</w>
Nach t
Kä se</w>
Ha mm
pre ssion</w>
ne ar
SP EA
Fe hl
R on
wh enever</w>
S mo
Ge wissen</w>
re g
gi er</w>
dre ds</w>
a gency</w>
P fa
ur o</w>
Sch lange</w>
Pe ch</w>
sa b
pla ys</w>
gu es</w>
Son der
Na tional</w>
Ital ian</w>
Gei ster</w>
ss el
challen ge</w>
ch ampagne</w>
Person en</w>
high ly</w>
b ust</w>
T ele
vertei digen</w>
ss ert</w>
de ad
1 4
einz el
cor rec
Al ly</w>
schwar ze</w>
explan ation</w>
ea t
back up</w>
um zubringen</w>
re du
ge fü
appropri ate</w>
Mar s</w>
war nen</w>
pul se</w>
mission er</w>
le m</w>
fra g</w>
T S</w>
P ater</w>
Bezie hungen</w>
2 ,
sli p</w>
in cident</w>
D utz
schick te</w>
p ig
di sche</w>
arri ve</w>
stopp ing</w>
Ern sthaft</w>
y n
win ter</w>
sich erung</w>
sha l</w>
extre mely</w>
Dri ve</w>
Aff äre</w>
sch il
an ity</w>
schlä ge</w>
g ab
a ktivi
Be dro
wor um</w>
op ter</w>
op pos
Unter haltung</w>
sil ver</w>
Tu es
ra ft</w>
ir o</w>
f ers</w>
Tu cker</w>
über geben</w>
L ance</w>
Gre y</w>
Gefangen en</w>
De bbie</w>
ra k
kennen lernen</w>
an genommen</w>
Ken n
o is</w>
di agn
Sonn y</w>
Fin dest</w>
wo zu</w>
Je ff
in ny</w>
hear ts</w>
ang le</w>
an fassen</w>
Jon as</w>
vor aus</w>
Sch rank</w>
Sa mm
D O</w>
AR E</w>
s lowly</w>
hör de</w>
coun ting</w>
Gou verne
klär t</w>
ge fühlt</w>
kamp f</w>
erlau ben</w>
Tech nolo
b and
author ity</w>
E rei
succ e
merk würdig</w>
Tim es</w>
frü h
Hoh eit</w>
Ba iley</w>
ch ain</w>
B o</w>
wor thy</w>
cur se</w>
Fin de</w>
Ben ny</w>
mo der
g ster</w>
T äter</w>
ü ben</w>
pan ic</w>
ki ssed</w>
f th</w>
win ner</w>
et tes</w>
H of</w>
F ort</w>
Qu a
un ts</w>
gar bage</w>
c ampa
Elli ot</w>
fran zö
f lä
cre ature</w>
bess eren</w>
Mor ris</w>
neu gierig</w>
ch asing</w>
separ ate</w>
hon estly</w>
friend ship</w>
Pap ier</w>
Ne e</w>
H E
ru b
in si
schu he</w>
ho ben</w>
Mit tag</w>
Kl o</w>
ge öffnet</w>
ben en</w>
Al fred</w>
19 7
ver mas
ump s</w>
j umped</w>
hor n</w>
win ning</w>
für chten</w>
Ma d
zu machen</w>
g ig
fal se</w>
Ver stär
wel t
wei te</w>
un fair</w>
spa zieren</w>
ver ein
mi es</w>
behavi or</w>
Ober st</w>
mitt eln</w>
ba stards</w>
WOM AN</w>
Te en
S ue</w>
Mi ck</w>
- Wir</w>
wan ting</w>
o the
Saman tha</w>
ous ine</w>
or n</w>
Wom en</w>
ander em</w>
Tre ppe</w>
sou p</w>
sch luss</w>
op tion</w>
mos tly</w>
Ver trau
Chanc en</w>
irgen deine</w>
Me g</w>
sei tdem</w>
no tes</w>
wa sting</w>
n ant</w>
Han ds</w>
provi de</w>
f ur</w>
WA S</w>
sur veillance</w>
gelie fert</w>
bein ahe</w>
Nat alie</w>
A ir
o un
la ws</w>
con ference</w>
sper ren</w>
oto k
kl in</w>
clos ing</w>
ch osen</w>
Me eting</w>
Aug ust</w>
unter schreiben</w>
sp üre</w>
Stur m</w>
te ur</w>
A th
us eless</w>
se ssed</w>
Ver sprochen</w>
Neu e</w>
vor gestellt</w>
ver fü
ru ssi
br ennen</w>
be finden</w>
Virgin ia</w>
Fin n</w>
är gert</w>
Was n</w>
V il
S ir
pil ot</w>
le en</w>
er freut</w>
ea ten</w>
da durch</w>
Ro bot
versu chst</w>
ig o</w>
Kranken wagen</w>
GH ING</w>
Ein ladung</w>
Dunkel heit</w>
Nat ur
Sha w</w>
nega tive</w>
flo wer</w>
Tru e</w>
Sh ouldn</w>
Kin d
Eig en
Die b</w>
8 0
Fre ddy</w>
5 5</w>
el li
8 .</w>
durch einander</w>
Mon ey</w>
Be cky</w>
kt ur</w>
hou ses</w>
disappo inted</w>
R oom</w>
Kun st
H os
1 50</w>
ti le</w>
Lou ise</w>
An scheinend</w>
vehi cle</w>
part ners</w>
Ne ed</w>
klin gelt</w>
geh ts</w>
fru it</w>
bewa hren</w>
K lo
t ollen</w>
kom men
ch ick</w>
ich ter</w>
prin ce</w>
Ste ht</w>
ver mute</w>
eg g</w>
be comes</w>
B y
lau ter</w>
L ight</w>
hung rig</w>
e b</w>
aus ger
O .</w>
E nd</w>
D rü
Br it
volun te
rei che</w>
rau sh
Ba hn
tzei tig</w>
th ern</w>
mei den</w>
al ert</w>
Sie ben</w>
Bla ke</w>
Öff ent
sk ills</w>
le bens
gu i
f it
ra i</w>
Sto ck
Ar men</w>
x is</w>
threaten ed</w>
cos tu
chu ckles</w>
B le
polic y</w>
f ishing</w>
be ating</w>
Kur t</w>
k at
hon our</w>
zz ie</w>
f at
as sign
appro a
aband oned</w>
Pr ost</w>
Ba be</w>
schie ben</w>
Valent ine</w>
To te</w>
Frau en
verursa cht</w>
vern ichten</w>
in te
c ue</w>
Ner ven
Beson ders</w>
hal ter</w>
fail ure</w>
eff ort</w>
ti mate</w>
le ans</w>
las sen
ac tions</w>
success ful</w>
hi stor
Sp ort</w>
S wi
M em
F lash</w>
den y</w>
Entsp ann</w>
l ers</w>
hi elten</w>
N ur
D ir
Bei de</w>
inn st</w>
ig ten</w>
e house</w>
da hinter</w>
Man hatt
For tsch
ver z
sch were</w>
man che</w>
co unter
W inst
Ver on
ch ens</w>
war ned</w>
behaup tet</w>
ar ily</w>
Spea king</w>
Be eilung</w>
verzei hen</w>
ro pe</w>
ier end</w>
Man ager</w>
E T</w>
A da
use ful</w>
st ent</w>
g ins</w>
comp an
Bri dge</w>
pus hed</w>
car ried</w>
wei ße</w>
w der</w>
gesch enkt</w>
vernün ftig</w>
enti rely</w>
witne sses</w>
iz ing</w>
irgend ein</w>
N ed</w>
An ton
6 0
the or
coinci dence</w>
bar es</w>
f ie</w>
Stär ke</w>
F arm</w>
en or
C amer
pri de</w>
h ers</w>
auf stehen</w>
Dun can</w>
sett led</w>
kre u
audi ence</w>
C af
k tionen</w>
deser ves</w>
Th ough</w>
schlie ßt</w>
re tt</w>
re move</w>
je doch</w>
3 8</w>
hör ten</w>
f end</w>
Sü den</w>
S H</w>
repu tation</w>
n os
ler nt</w>
sol ved</w>
Pru e</w>
Kla motten</w>
K NOW</w>
schau e</w>
hoff entlich</w>
Lor ela
a i</w>
dar kness</w>
L ex
Kom mando</w>
ver halten</w>
th am</w>
ri p</w>
m ask</w>
eindeu tig</w>
ant i</w>
Wom an</w>
k enn</w>
Spiel er</w>
Mit tel</w>
Brie fe</w>
trie b</w>
sch rau
erf unden</w>
AT T
ver prü
pa thetic</w>
J en</w>
Gren zen</w>
s isch</w>
clu e</w>
O ff</w>
Ba hn</w>
w ol
rele vant</w>
de bt</w>
viol ent</w>
ru fst</w>
bas ically</w>
e fully</w>
ac tive</w>
E la
et ern
bar t</w>
as ks</w>
Wa sch
Gra d</w>
&apos; RE</w>
y ton</w>
r oten</w>
dec is
Za ck</w>
H osen</w>
E M
gl ed</w>
cros sed</w>
b liche</w>
abge hauen</w>
s ighs</w>
ble ss</w>
Su pp
Ne ga
K im
rech tzeitig</w>
Wunder bar</w>
M uch</w>
Dre h</w>
Afri ca</w>
konta kti
durch gemacht</w>
Unter richt</w>
F RA
sil ent</w>
samm elt</w>
or ity</w>
ie ben</w>
de cken</w>
G ala
Exp losion</w>
speci fic</w>
ie gen</w>
Tun nel</w>
M any</w>
g al
N icky</w>
K IT
Cur tis</w>
rie sig
hei len</w>
Schauspiel er</w>
Lorela i</w>
Brau chst</w>
ver tre
gelan det</w>
Clar a</w>
zu hause</w>
ni ck</w>
Sch wi
un ding</w>
p he</w>
c and
W ra
K uh</w>
in ge</w>
glaub te</w>
chil d
R ob</w>
Re vier</w>
zurück kehren</w>
o cean</w>
er schaffen</w>
e he</w>
b illi
Wh ose</w>
Hei ßt</w>
ver ly</w>
trin kt</w>
s and</w>
mur ders</w>
me ssed</w>
d ine</w>
G ina</w>
zu recht</w>
su bst
sta ys</w>
on i</w>
hol y</w>
quar ter</w>
par ties</w>
cover ing</w>
Po int</w>
L ac
Ha ar
yl on</w>
sta mmt</w>
ou ting</w>
los es</w>
eh nt</w>
Man tel</w>
Broo klyn</w>
z wölf</w>
re call</w>
p id</w>
in flu
Schul ter</w>
Kap it
E van</w>
Da her</w>
6 00</w>
rea giert</w>
Spre chen</w>
Pa ck</w>
Mot or</w>
nu mmer</w>
Verab re
ma tion</w>
l lan
d assi
bei gebracht</w>
Un i</w>
z lich</w>
verar schen</w>
o v</w>
beson dere</w>
Schei dung</w>
Gna de</w>
Euro pa</w>
Ca thy</w>
ver langen</w>
Nei ll</w>
dr itten</w>
Bul le</w>
stür zen</w>
rei z
pri ma</w>
bas sa
auf gefallen</w>
Hon estly</w>
zu tage</w>
zi a</w>
kä me</w>
Ver n
Ab ra
zer o</w>
su its</w>
se u
be zwei
pro vo
hi p</w>
d man</w>
Ge hst</w>
B each</w>
verschie dene</w>
Sy mp
pot ential</w>
app le</w>
Pro be</w>
H eu
Et wa</w>
Din ger</w>
su e</w>
l i</w>
f ere</w>
dam ned</w>
at titude</w>
Wy att</w>
Sy m
San dy</w>
R T</w>
Arbei ten</w>
ul d</w>
sy mp
f ts</w>
Ru by</w>
P asst</w>
H unter</w>
- Hi</w>
bl er</w>
bar s</w>
Schön e</w>
tre asure</w>
ti er
te ars</w>
parano id</w>
e fore</w>
P fle
libr ary</w>
Mat er
vi ctory</w>
mes sages</w>
ge p
T op
B ä
pas se</w>
or able</w>
el ep
Na vy</w>
H anna</w>
Christ ine</w>
sch win
ken n
de termin
cut ting</w>
E ach</w>
- Well</w>
din al</w>
Sche ck</w>
tun nel</w>
bar er</w>
Stu art</w>
C off
mul ti
d oll</w>
Hä user</w>
wa ffe</w>
th or</w>
betra yed</w>
Uni form</w>
Sk y
Ir is</w>
I I
R ett
erfü llt</w>
K amer
re chte</w>
ma ker</w>
che f</w>
Dep uty</w>
supp ly</w>
da y
I van</w>
F ru
B ates</w>
z ie</w>
terna cht</w>
man ce</w>
hand ed</w>
get eilt</w>
gest ört</w>
de z
Wel chen</w>
Sta at</w>
delic ious</w>
Offiz ier</w>
K .</w>
5 ,000</w>
ven ture</w>
h u</w>
deli very</w>
be teil
W r
Stra f
Politi k</w>
trä ge</w>
some place</w>
ro cks</w>
ra c
d ge
ch am
Mensch heit</w>
B lan
rie l</w>
mom ents</w>
h ug</w>
e es</w>
ch ill</w>
Mit ternacht</w>
D at
ti a</w>
ge küsst</w>
co unter</w>
ab or
befe hl</w>
star ten</w>
re sult</w>
r ape</w>
gru ppe</w>
Hur ens
ge tragen</w>
Manhatt an</w>
Ly dia</w>
gen der</w>
ber gen</w>
presen ts</w>
n annte</w>
kin ds</w>
ein gesperrt</w>
n ali
fi ziert</w>
Gre g
pro fessor</w>
per or</w>
US T</w>
T eil
Lau gh
Kil ometer</w>
normal erweise</w>
ci es</w>
auf gegeben</w>
O lymp
Fa ir
E wig
y an</w>
v ine</w>
taus end</w>
gi es</w>
Schwach sinn</w>
F au
Be gin
Ver fü
Kei th</w>
sta g
Ma th
stell st</w>
mensch liche</w>
d ank</w>
R ol
Ge danke</w>
Bo y
Sti l</w>
weis ungen</w>
cur rent</w>
hl ten</w>
ge wohnt</w>
no mmen</w>
geb or
di rt</w>
beschü tzt</w>
an bieten</w>
Dopp el
holi day</w>
Jan et</w>
Ank lage</w>
lü gst</w>
Tues day</w>
Steph anie</w>
Bri lle</w>
us hed</w>
P ablo</w>
s lo
ga tion</w>
T eal</w>
T ING</w>
May or</w>
Jun e</w>
telep hone</w>
st ie</w>
kidn apped</w>
behaup ten</w>
P eter
ver gif
shar p</w>
indi vidu
dest iny</w>
P ool</w>
O H</w>
schul de</w>
ro om
ran ts</w>
fortun ate</w>
be schuldig
Bl ood</w>
ter n
män n
ber e
belie ves</w>
C ent</w>
C al</w>
n allt</w>
mein s</w>
Vor wärts</w>
Inspe ktor</w>
Berei ch</w>
rel ated</w>
ab le
Deut sch
re min
pos sibility</w>
jo ined</w>
dun kl
begei stert</w>
Ge gen</w>
Fran klin</w>
th eater</w>
stell ten</w>
ele k
be sides</w>
Or leans</w>
x e</w>
sin gt</w>
s que
recei ve</w>
d unk
ch ap
berü hrt</w>
al bern</w>
Re chte</w>
Hum ph
3 7</w>
fü llen</w>
exp los
Ma gst</w>
th ee</w>
colle ct</w>
blo ck
Verstär kung</w>
El i</w>
y la</w>
besch lossen</w>
beeindru ckt</w>
Stimm ung</w>
Y ang</w>
Jul es</w>
Wor um</w>
In du
hi tting</w>
pre cious</w>
n atür
l hnen</w>
erle i</w>
p it</w>
Zei gen</w>
EL L
Do yle</w>
schri ften</w>
eut zutage</w>
di sku
ch at
Sp rit
ß te</w>
r ose</w>
do or
- Wie</w>
jo int</w>
hi d</w>
ge hörte</w>
bestä tigt</w>
ac tual</w>
N r.</w>
Ä n
win dows</w>
et tel</w>
V ik
Do g</w>
tr unk</w>
n ut</w>
cra ft</w>
Winst on</w>
Tschü s</w>
secre tary</w>
I C
Fei er
Ger ät</w>
Bür ger</w>
An to
impre ssed</w>
gl er</w>
fav our</w>
S li
Les lie</w>
Di ana</w>
m ie</w>
fä ll
con sequ
com fort</w>
W IT
Spor t
gleich zeitig</w>
br ief
br en
Eis en
mus stest</w>
groß zü
Har t</w>
Camer on</w>
servi ert</w>
gewi sse</w>
bestra ft</w>
Chi p</w>
be stens</w>
Schul den</w>
stie g</w>
ne s
H im</w>
wher ever</w>
d ges</w>
Su chen</w>
N ine</w>
Trä nen</w>
No v
milli ons</w>
Ver mögen</w>
wor auf</w>
survi ved</w>
cer em
Del ta</w>
ß end</w>
schen ken</w>
ner ve</w>
C lin
R us
Die sen</w>
Dam als</w>
Be handlung</w>
sci enti
ol es</w>
beg onnen</w>
Wir k
wir ft</w>
gi cal</w>
de ckt</w>
Ot to</w>
off ering</w>
gl ück</w>
thro wn</w>
bu g</w>
an cient</w>
A L</w>
4 7</w>
wick elt</w>
sy mpa
dr itte</w>
T itten</w>
T hir
Sp eak</w>
gesch altet</w>
jen igen</w>
H an</w>
F angen</w>
E mer
An trag</w>
st ops</w>
spiel te</w>
even ts</w>
er b
u lation</w>
tri cks</w>
pus hing</w>
Bu ck</w>
Z ir
Mar co</w>
F est</w>
th at
irgend wohin</w>
C iao</w>
Be stimmt</w>
be wusst
Schn eller</w>
Sch utz
Offen sichtlich</w>
GRUNT ING</w>
tu ch</w>
tran sport</w>
scre am</w>
Schä del</w>
inter vie
Fe el</w>
Att en
über nehme</w>
ea u</w>
Ver lust</w>
Sep tem
Mit ch</w>
Lei chen
K aliforni
war f</w>
sil ence</w>
Li ppen</w>
Col um
ste ckst</w>
re chten</w>
aus einander</w>
Lei ter</w>
ver sagt</w>
neh mt</w>
bie tet</w>
be qu
Me et</w>
Hand sch
9 .</w>
t lichen</w>
sp u
raus finden</w>
Z one</w>
Unter nehmen</w>
Spe zial
O c
liter ally</w>
gesch ü
d sch
be sessen</w>
Z it
A ra
t oler
psych iat
verg isst</w>
toll es</w>
t ask</w>
Jeffer son</w>
kam st</w>
hä u
H ear</w>
ossi p</w>
hal t
ac cu
Fran z
wor k
sa mt</w>
rei ten</w>
per man
ha ber</w>
erschre ckt</w>
D as
ver ließ</w>
er o</w>
ff ed</w>
ein laden</w>
den noch</w>
Thur sday</w>
Sch reck
Kar to
Clar ke</w>
Bun dy</w>
Be glei
war tete</w>
to x
ma gazine</w>
ce ful</w>
Van essa</w>
Fre sse</w>
Coll ins</w>
ver liere</w>
inter rupt</w>
ing ly</w>
embarrass ing</w>
Compu ter
campa ign</w>
SCHRE IT</w>
G onna</w>
An dere</w>
L U
Zwe ck</w>
P ac
Ju an</w>
om y</w>
o grap
m ers</w>
YO UR</w>
H ead</w>
D est
fer enz</w>
contr oll
cigar ette</w>
R um
Go a</w>
fre ssen</w>
miser able</w>
erfolgrei ch</w>
absur d</w>
Gro ße</w>
5 .000</w>
hy th
ar i</w>
Viet nam</w>
Schla cht</w>
Lei den
sol id</w>
ish ment</w>
frei e</w>
be unru
Le ster</w>
s ige</w>
proper ly</w>
lear ning</w>
ac ci
I ll
High school</w>
Gr unde</w>
sen den</w>
mu st
identi ty</w>
est ed</w>
cab in</w>
Res er
us el
sta ke</w>
lö cher</w>
ge träumt</w>
b ay</w>
an scheinend</w>
T anner</w>
ge kämpft</w>
HA VE</w>
en gli
co ordin
wor über</w>
wor n</w>
sp lan
pop ular</w>
Verste ck</w>
Schn ei
Bl on
ti vi
Zeu ge</w>
ge merkt</w>
Ra ke
Ima gine</w>
Be wä
8 00</w>
k eu
d re</w>
bel äst
Schne e</w>
L L</w>
sla ve</w>
er seits</w>
mel de</w>
Y ING</w>
Septem ber</w>
S MS</w>
R ome
Mar sh</w>
Direc tor</w>
repor ted</w>
mi x</w>
for eign</w>
competi tion</w>
bel e
al terna
re hear
lä ss
ear ned</w>
Wor k</w>
Hou ston</w>
E F
le bend</w>
Wa ter</w>
Er in</w>
Brea k</w>
tt eln</w>
P fei
L il
Erinn ern</w>
Bo oth</w>
wa hl</w>
s oul
bu ck</w>
Pos t
lu st
com mit</w>
b ble</w>
R ein</w>
Cor por
hear t
Mar kt</w>
Kar a</w>
ver t</w>
reas onable</w>
lau ghter</w>
Sp äter</w>
Sch l
verschw and</w>
cir cle</w>
bestä tigen</w>
Hei m</w>
EL T</w>
Bro dy</w>
hi ts</w>
b y
Bas is</w>
wur f</w>
tro ops</w>
er geben</w>
durch s</w>
Sel t
Schw eine</w>
Mili t
des ert</w>
hüb sche</w>
fic ation</w>
aufre gend</w>
ad di
Ma il</w>
H ear
öp ft</w>
prot o
S hin
Re alität</w>
- Where</w>
tä glich</w>
newspap er</w>
f ence</w>
Z ach</w>
Mi d
K off
gesch aut</w>
g eil</w>
ex hau
Mar ine</w>
LE E</w>
tra il</w>
fe deral</w>
bin ation</w>
Ta schen
ä lt</w>
oo h</w>
Mist stück</w>
Lin ie</w>
Jag d</w>
Gr oup</w>
re kt</w>
mo dern</w>
ge kehrt</w>
demon s</w>
d son</w>
Un be
I ra
t us</w>
t one</w>
Öffent lichkeit</w>
cir cu
Set h</w>
re p
Sch ach
R ING
Ho ch</w>
H U
Gra ham</w>
ster ed</w>
Sch lei
Hin weis</w>
rot ten</w>
re gel
neighb or</w>
B oh
ver wenden</w>
schwe ster</w>
L hr</w>
Besit z</w>
sit ter</w>
br äu
an x
spe zi
sch er
d ner</w>
d --</w>
c ats</w>
an statt</w>
Mas ke</w>
Dra ke</w>
Alli son</w>
2 .
1 .000</w>
s om</w>
ja ck</w>
char ming</w>
3 3</w>
f ourth</w>
T ren
Die go</w>
sur ely</w>
ig an</w>
frei willig</w>
ed ith</w>
Sü d
K ay</w>
Ma gen</w>
Ell ie</w>
C ab
v ere</w>
sp rü
se ur</w>
ru g</w>
for dern</w>
Juli en</w>
Ha stings</w>
- Es</w>
bru tal</w>
Au str
spea ks</w>
Gl enn</w>
D ale</w>
und ry</w>
supp or
er staun
Vertei digung</w>
F ab
pp el</w>
hil fst</w>
Kir a</w>
z ell
verbr ei
su mm
on ey</w>
go al</w>
bassa dor</w>
Hir n</w>
sp ei
ma dam</w>
gewö hnt</w>
Pier ce</w>
FF FF</w>
ser vation</w>
reco gn
Reg gie</w>
Pen ner</w>
z y
wi ssen
some day</w>
gor geous</w>
Sa gte</w>
th alten</w>
sur face</w>
pur se</w>
ol o</w>
bli othe
EN T</w>
or ing</w>
ir r
Publi kum</w>
pros ec
g rie
Humph rey</w>
ge höre</w>
bul lets</w>
Sch mi
NO T</w>
Mel issa</w>
Marc el</w>
über lassen</w>
ti ous</w>
la test</w>
geschä ft</w>
Cra zy</w>
stu hl</w>
th ouse</w>
t led</w>
Za hl</w>
PH ONE</w>
J or
Br ig
g osh</w>
b ang</w>
wesen heit</w>
ha u</w>
ge hörst</w>
ba u</w>
S na
verbr annt</w>
pro be</w>
f tige</w>
Künst ler</w>
Flu ch</w>
F all
vir on
ter rit
li qu
in zwischen</w>
fas zin
I E</w>
wi shes</w>
kar ten</w>
for e
an gelogen</w>
Ver brecher</w>
V as
L loyd</w>
K ür
th an
Ü R</w>
herr scht</w>
fü hre</w>
ca p</w>
bro wn</w>
Verfü gung</w>
p in</w>
com par
auf getaucht</w>
Kreu z
opp ed</w>
ma g
Shi rt</w>
P on
Mi key</w>
Himm els</w>
Ar no
hol es</w>
Y an
7 0
infor miert</w>
N igger</w>
suspic ious</w>
s wal
gest iegen</w>
Ster ne</w>
Kaliforni en</w>
y ö
pa th
Z un
T eile</w>
B lock</w>
Re y
O z</w>
tra di
ja hr
Ru ssen</w>
Car la</w>
un its</w>
mit ted</w>
h op</w>
er fährt</w>
der ungen</w>
custom ers</w>
Ur teil</w>
Trin k</w>
Kan di
Au ßer
p per
ber ech
Sand wich</w>
Aben teuer</w>
9 9</w>
viel es</w>
ho wever</w>
elev ator</w>
In iti
m ou
appro ach</w>
T asse</w>
Stu dio</w>
S aul</w>
Phi lip</w>
sh y</w>
re ward</w>
O hh</w>
H ood</w>
Wa ch</w>
Her aus
Glau be</w>
Gesund heit</w>
B it
Sim pson</w>
Ro yal</w>
Gar age</w>
to wer</w>
to s</w>
fi anc
ar gue</w>
Geschen ke</w>
wer k
ge zeichnet</w>
exp losion</w>
F isher</w>
zü ge</w>
wi ves</w>
Univers um</w>
C enter</w>
si de
sch lü
gu ts</w>
So zial
Schreib tisch</w>
Mor de</w>
perfor mance</w>
R ö
terror ist</w>
rü stung</w>
dr auf
Ma ya</w>
J UST</w>
tr at</w>
mar y</w>
Stör ung</w>
Kan z
pri vi
met al</w>
bi a</w>
Re publi
Fun ny</w>
Cha mp
Besit zer</w>
nic ally</w>
B itch</w>
wunder voll</w>
oc cur
Pr otok
d omin
bo ots</w>
b ills</w>
über s</w>
verwand elt</w>
lo a
Ver sa
Sch win
Sch ar
Le ft</w>
Heim at</w>
Absch luss</w>
p ink</w>
nor male</w>
na il</w>
S O</w>
J ar
Deutsch land</w>
z ent</w>
hinter her</w>
pla y
ca tions</w>
Po wer</w>
home work</w>
confi dence</w>
Veron ica</w>
Ver trau</w>
Fo x</w>
il es</w>
er re
Wat son</w>
Be su
w und
tor y</w>
rob bery</w>
an halten</w>
Wal lace</w>
Offen bar</w>
Inv est
te u
lo an</w>
Ver dacht</w>
Rea ktion</w>
Kühl schrank</w>
ex pl
at ures</w>
alcoh ol</w>
Vor teil</w>
rä chen</w>
rec ke</w>
grea ter</w>
RE N
rin ging</w>
be e</w>
k le</w>
guil t</w>
Thom pson</w>
Ster ben</w>
ru b</w>
respon se</w>
inter ro
einz iges</w>
dro w
a x</w>
Ku geln</w>
B ER</w>
ün k
win digkeit</w>
consi dering</w>
Aus weis</w>
mi lar</w>
de signed</w>
Chi r
w ins</w>
sp rung</w>
is ode</w>
decis ions</w>
ange zogen</w>
Milit är
verdamm tes</w>
tra cking</w>
tom s</w>
gri d</w>
Wa hl
Pla y</w>
P el
N am
verab schieden</w>
P om
L i</w>
Ch urch</w>
stren g</w>
sel fish</w>
be stellen</w>
Won der
Sch ritte</w>
Hat ten</w>
Gi bbs</w>
schwer er</w>
g ste</w>
emp lo
be am
Mar ge</w>
AU F</w>
oppos ite</w>
embarrass ed</w>
ca ge</w>
f s
In tellig
pi ano</w>
gener ous</w>
el f</w>
Ant eil</w>
sa chen</w>
nach zu
Selbst verständlich</w>
Schlimm ste</w>
stei g</w>
schlä fst</w>
dro pping</w>
be fre
accep ted</w>
La dys</w>
some thin</w>
inter rup
K S</w>
Fei gling</w>
ass ault</w>
G lad</w>
to ward</w>
guess ing</w>
bi eren</w>
Ur sache</w>
Sch eint</w>
zur ufen</w>
cle ared</w>
- Und</w>
ti tle</w>
ob ject</w>
chi p</w>
al th</w>
Tit el</w>
P .
Gab riel</w>
un den
m ör
Li ve</w>
Ber g
je wel
Tur ner</w>
Sea ttle</w>
Rome o</w>
H ass</w>
ver sprechen</w>
rec ent</w>
must n</w>
Gouverne ur</w>
än derung</w>
za hle</w>
qui red</w>
el ing</w>
ar den</w>
ans as</w>
al li
R ap
P illen</w>
t ful</w>
Mit arbeiter</w>
Comp any</w>
zz le</w>
zau ber
ge bt</w>
Wor f</w>
Stol z</w>
Staatsan walt</w>
Ne ws</w>
we ed</w>
bie te</w>
Ha wa
kei ts
fe ver</w>
Por ter</w>
Cra ig</w>
hun dreds</w>
re fer
g yp
Nich olas</w>
Lin d
C ass</w>
wer te</w>
we hr</w>
stat us</w>
ket ball</w>
h ose</w>
Re volution</w>
Con rad</w>
ri ck</w>
S low</w>
ti li
ter ing</w>
La wr
Cran e</w>
di plom
d ungs
ch eating</w>
S ookie</w>
- Who</w>
wal d</w>
franzö si
Or iginal</w>
Ge mü
wal let</w>
qu it
frea king</w>
P far
ünk tlich</w>
schreck liche</w>
kön ig
Stu pid</w>
Fingerab drücke</w>
wä hlt</w>
os tet</w>
Ma kes</w>
Ener gie
Bar nes</w>
impre ssive</w>
geh end</w>
er wischen</w>
entfer nen</w>
an dra</w>
a chten</w>
Fam ily</w>
t land</w>
sau ce</w>
ot te</w>
Un der</w>
Mor des</w>
Dra ma</w>
ser ving</w>
offen se</w>
ange stellt</w>
Nol an</w>
mi ster</w>
attra ctive</w>
absol ute</w>
Zu cker</w>
W inter
Ster nen
A del
Normal erweise</w>
wor an</w>
un er</w>
tr ö
sa mes</w>
oo per
har ma
b u</w>
Str om
moun tains</w>
mot or
mo tion</w>
di l
T eller</w>
Nov ember</w>
Nor a</w>
Le on</w>
G wen</w>
sha dow</w>
mean time</w>
Zie hen</w>
S un</w>
S co
K A
Fre ddie</w>
re action</w>
bede ut
10 .000</w>
P ä
K ong</w>
K ameras</w>
t une</w>
a ce</w>
pro pos
ne ur
l n</w>
f o</w>
emp fangen</w>
Tem per
valu able</w>
p fei
emo tion
cin ating</w>
Th row</w>
Scho ck</w>
Da chte</w>
An weisungen</w>
3 4</w>
r ö
lo cks</w>
H ong</w>
Co ck
wal ks</w>
verur teilt</w>
sen ti
s wing</w>
ir on</w>
hr te</w>
confe ss</w>
bu sted</w>
L e</w>
- Don</w>
z ard</w>
tea ching</w>
repor ter</w>
g les</w>
dre aming</w>
b ier</w>
To de
Hel ft</w>
Mie te</w>
M otel</w>
Le ktion</w>
Har vard</w>
Dre w</w>
CH E
ha m
ein ander
blo wn</w>
Re gen
O VER</w>
- Are</w>
wa it
Spit ze</w>
Mer ry</w>
Be zir
rich tet</w>
astro phe</w>
Verabre dung</w>
In for
Cop y</w>
stell er</w>
gebil det</w>
el ang</w>
os ex
arran ged</w>
TH ING</w>
Sti ck</w>
Sch önen</w>
- Good</w>
la unch</w>
ju red</w>
mög lichen</w>
el ine</w>
Hä tten</w>
D aten
Vo y
K einen</w>
Dien stag</w>
Ash ley</w>
un ning</w>
gest ür
auf gaben</w>
Kl einen</w>
rea u</w>
lern te</w>
disa ster</w>
d ure</w>
bewer b</w>
a h
In stead</w>
so a
sch rieben</w>
mit g
Schla g
Ela ine</w>
B lau
ur gent</w>
no thin</w>
lu g
den s
Person al</w>
Mer edith</w>
L L
Eri k</w>
nut z
Fie ber</w>
ver bess
om bies</w>
ins ist</w>
com mer
bal ance</w>
Lawr ence</w>
L ange</w>
E uren</w>
Ab machung</w>
de mand</w>
champ ion</w>
tor ture</w>
Verdäch tigen</w>
Kil o</w>
wes halb</w>
beg ging</w>
Pri v
Nut te</w>
Ju gend
Jen na</w>
th less</w>
igh ted</w>
H ein
se t
einz iger</w>
Mu sch
Fre eze</w>
tr ig
t sel</w>
s -</w>
Jo bs</w>
All ein</w>
f las
Schw u
Mus st</w>
D C</w>
pap er
Rat te</w>
Mä use</w>
Mich el</w>
K night</w>
verrü ckte</w>
th eit</w>
mu tig</w>
häss lich</w>
ge ber</w>
Ba ker</w>
fu el</w>
Umstän de</w>
Hurens ohn</w>
Fabri k</w>
D all
A M</w>
ge sich
fra me</w>
an stren
G .</w>
D im
B ish
re mo
g lichen</w>
br ush</w>
be sitzt</w>
Ros a</w>
Dre h
Doug las</w>
Bo x</w>
you --</w>
ignor e</w>
Kommun ik
pro file</w>
bus h</w>
Rel ig
Ge pä
ta x</w>
son gs</w>
figh ter</w>
Identi tät</w>
Hä ttest</w>
C i
th ei
entr ance</w>
bas eball</w>
tic a</w>
olo gist</w>
confe ssion</w>
Pha se</w>
Du sche</w>
50 .000</w>
ord entlich</w>
Umstän den</w>
Sü ß
RE N</w>
O ver
nu clear</w>
gy m</w>
fri sche</w>
facili ty</w>
con firm</w>
blo cks</w>
bedro ht</w>
S ING
Bea m
un schuldig
ta ges</w>
cru el</w>
assign ment</w>
Wer k</w>
Pat ty</w>
Me er
Kra m</w>
GRO AN
tau schen</w>
schei ß
raus kommen</w>
op tions</w>
dig ging</w>
A la
on e
Scheiß kerl</w>
Arno ld</w>
A ction</w>
z it
vorberei ten</w>
ver mu
j ection</w>
be gangen</w>
a do</w>
C T</w>
An aly
gen heiten</w>
fe sth
cy cle</w>
artic le</w>
Pap ier
ü bt</w>
sna ke</w>
ea ts</w>
Tru ppen</w>
ki ssing</w>
as ses</w>
Lau fen</w>
Hat test</w>
Bi bliothe
Bedro hung</w>
Angele genheit</w>
- She</w>
e go
ang reifen</w>
P P
cli mb</w>
W ein
P han
Jä ger</w>
Har per</w>
zei t
ter ie</w>
le se</w>
eh em
Tab le
wor kers</w>
ex ten
bo xes</w>
b os
Z wan
Na omi</w>
Jung frau</w>
C lear
mä ß
ger ade
ge kümmert</w>
frigh tened</w>
Chir ur
w hat
do o</w>
clean ed</w>
In stit
Bin go</w>
terri fic</w>
terri bly</w>
ven tion</w>
ve get
r ungen</w>
fa hrer</w>
T in
y elling</w>
vil la
to ber</w>
hea da
h ut</w>
g liche</w>
colle ction</w>
bu ll</w>
Je di</w>
Emp fang</w>
10 ,000</w>
Rit ter</w>
Mut ter
K nö
Gre en
Stü cke</w>
Li ber
GRUNT S</w>
Car dassi
ver wendet</w>
qu ality</w>
preten ding</w>
Terror isten</w>
Hel ena</w>
E urer</w>
Atten tion</w>
stu diert</w>
dür f
Ro cky</w>
Lau ren</w>
Ger uch</w>
Gedäch tnis</w>
as es</w>
O hr
Mu seum</w>
s w
pri ze</w>
bla u</w>
besie gen</w>
activ ity</w>
DO OR</w>
A g
wo unded</w>
tr äume</w>
tel li
suffer ed</w>
hin ein
War d</w>
WIT H</w>
Jac ques</w>
sen ior</w>
Le vel</w>
Ju dge</w>
In s
Hin ter</w>
tra cks</w>
su peri
sti sche</w>
Scot ch</w>
S ci
Mik ro
jähr igen</w>
Un möglich</w>
C ON
re moved</w>
kör per
ar ies</w>
Vier tel</w>
Sp ring</w>
Len ny</w>
Jeff rey</w>
A ffen</w>
hier mit</w>
en viron
S tern</w>
E X
C ross</w>
grand ma</w>
flä che</w>
an tly</w>
am bi
Hol mes</w>
erkl äre</w>
K reis</w>
nie der</w>
cri sis</w>
C am</w>
Über leben
nen nst</w>
deliver ed</w>
degre es</w>
Z will
Y ear</w>
Ta ges
Sing le</w>
Mo ther
Hochzei t
H ard</w>
Er le
sch after</w>
s u</w>
d ne
b um
Zau ber</w>
Gen e</w>
r outine</w>
erfü llen</w>
M einer</w>
Ir r
verzwei felt</w>
tt es</w>
beru higt</w>
R AN
tou ching</w>
ste chen</w>
ig st</w>
ber icht</w>
ap o</w>
Sher lock</w>
be stehen</w>
K han</w>
Bet t
un gern</w>
ser vant</w>
f ie
S and</w>
Ein verstanden</w>
Ein fluss</w>
v essel</w>
man ds</w>
proce dure</w>
bu ch
sa telli
rei st</w>
ing ham</w>
befre undet</w>
Wil low</w>
Mar s
Fron t</w>
Wom it</w>
H osp
Pas sa
Be e
ot a</w>
lö schen</w>
jud gment</w>
ear ance</w>
bo den</w>
G O</w>
impre ssion</w>
gr und
ang ri
Te pp
B rand
zentr um</w>
stu dying</w>
ser ies</w>
raush olen</w>
fo c
char ity</w>
O ther</w>
Ka iser</w>
D one</w>
wei sst</w>
sl igh
si g</w>
oll o</w>
la tor</w>
de pri
de ep
coll ap
back ground</w>
at oes</w>
St ö
Mü ssen</w>
Bet rü
pa ct</w>
Mau rice</w>
ma ß
Wei ßen</w>
S hei
G oo
C ir
1 ,000</w>
gefä ll
for th</w>
f abri
S now</w>
Min i
D einen</w>
Y up</w>
S um
P at</w>
to te</w>
si milar</w>
co ward</w>
tal e</w>
si der</w>
gr oss</w>
e sar</w>
bö sen</w>
Mus ic</w>
ver ti
us hing</w>
k ru
f are</w>
en cy</w>
el u
spec ies</w>
de ca
c ome
In deed</w>
Den kt</w>
rea d
ra t
de cor
App ar
do c</w>
c ells</w>
brea ks</w>
Schil d</w>
sol ch</w>
prin ci
Ver gewal
Under stand</w>
Phy si
Ali cia</w>
äuß erst</w>
wen ige</w>
schwei gen</w>
ow ns</w>
resp ond</w>
gefre ut</w>
et ta</w>
KIT T</w>
K L
Gerä usch</w>
FRA U</w>
De ck</w>
Cal eb</w>
qu at
T rei
Sil ver</w>
Sch wie
O ri
Hol z</w>
Fre e</w>
z um
tter t</w>
setz te</w>
schul dest</w>
pun ishment</w>
kra ft</w>
da wn</w>
com mander</w>
O sten</w>
Kon to</w>
C onn
roll ing</w>
mi xed</w>
bla h</w>
t our
mm ert</w>
W ör
W unde</w>
reali se</w>
prac tically</w>
app er</w>
Tech nik</w>
Drin ks</w>
neighbor s</w>
fr eit</w>
Spi ke</w>
Land es</w>
fli r
berü hmt</w>
Sp in
P ass
in ess
Wal k</w>
W all</w>
Is ra
Deut schen</w>
2 9</w>
äch ter</w>
king dom</w>
Univer sit
Do wn
über fallen</w>
char ged</w>
be hörde</w>
Wissen schaft</w>
Mit leid</w>
B ree</w>
Ar ab
verflu cht</w>
soul s</w>
la undry</w>
gest at
d umped</w>
Wirk lichkeit</w>
Fa ir</w>
De von</w>
wür det</w>
prot ected</w>
e ase</w>
cri mes</w>
Hol z
C AN</w>
her ein
de ter
angeb oten</w>
clin ic</w>
c able</w>
Ta ten</w>
M is
Kind heit</w>
fr ö
Vö gel</w>
Cou ch</w>
Bu y</w>
degre e</w>
cos ts</w>
El vis</w>
pre dic
par a
out fit</w>
argu ment</w>
Dutz end</w>
ge hor
Donner stag</w>
offici ally</w>
n y
imm st</w>
h unter</w>
aus ziehen</w>
S no
K immy</w>
DI E</w>
z ar
sch mu
r y
plan en</w>
net work</w>
klin gen</w>
in dic
bereu en</w>
st ry</w>
lö st</w>
child hood</w>
N an
D ouble</w>
9 11</w>
sp ann
se ts</w>
Viol et</w>
To des</w>
ti ming</w>
ta xi</w>
rä che</w>
o van</w>
le cker</w>
cho ices</w>
an en</w>
u chen</w>
su cker</w>
par ti
life time</w>
fa irs</w>
blö den</w>
ar io</w>
Wü ste</w>
Kreu z</w>
F A
B is
kra m</w>
b lä
Zigar ette</w>
Schwar ze</w>
S icht</w>
I l
ste me</w>
ma ßen</w>
Tur n
Nor ma</w>
D. J.</w>
de sign</w>
b schrau
Kos ten</w>
A x
w ski</w>
ne phe
lieb sten</w>
Leiden schaft</w>
Bish op</w>
AN T</w>
ll s</w>
li ver</w>
k ward</w>
k on</w>
arran ge</w>
Y ou
D sch
Ale c</w>
1 3
- Er</w>
wa ff
sch em</w>
er ungs
Rand all</w>
Aut or
vor her
pat tern</w>
bo ar
O k
Dall as</w>
vor an</w>
si ck
h ell
bei bringen</w>
Re x</w>
Pri me</w>
Frie d
Fac e
wa sted</w>
rei f</w>
gr ass</w>
N ick
Ben nett</w>
th um
los sen
g olf</w>
p lä
le gte</w>
ig er
answer ed</w>
St in
R ead</w>
Coff ee</w>
ur teilen</w>
tion ing</w>
star ke</w>
ge ar</w>
fir ing</w>
confir med</w>
be te</w>
t man</w>
su r</w>
rein gehen</w>
r ell</w>
gelö scht</w>
cerem ony</w>
Wissenschaft ler</w>
A tom
- But</w>
gu ckt</w>
Kno ck</w>
Gent leman</w>
swe at</w>
sicher er</w>
mm i</w>
ge wollt</w>
enjo ying</w>
bli cken</w>
an dal</w>
Spiel e</w>
de pos
be half</w>
Schi ff
S ing</w>
K onn
Heraus for
ück en</w>
vi an</w>
ta te</w>
schü chtern</w>
ad ult</w>
ac ted</w>
M ali
wür d</w>
tra fen</w>
tr en
ta g
K et
Defin itely</w>
wom it</w>
Wei ße</w>
ch s
Fel d
Di xon</w>
tri bu
c ell
Pos ten</w>
Ha ving</w>
woh l
p ist
Tan z
Sol che</w>
Señ or</w>
Robot er</w>
O u
High ness</w>
Geschä ft
Ca esar</w>
ein ig</w>
answer ing</w>
Su ppe</w>
Sam u
Per ry</w>
or igin
ck in</w>
ad vis
Tot al</w>
Schrei ben</w>
Bea u</w>
sh ing</w>
re place</w>
re cken</w>
nä her
la ger</w>
gl or
di scre
de utet</w>
Zigar etten</w>
Dy na
Com missioner</w>
v est</w>
ste h
se ats</w>
hö her</w>
b ter</w>
experim ent</w>
d ose</w>
ck chen</w>
Schmi dt</w>
Pri ma</w>
Ge fä
C lu
schle chtes</w>
bor ne</w>
adv ance</w>
E her</w>
dra wing</w>
Wor ten</w>
or ange</w>
Tr ying</w>
Cor n
Su z
tal kin</w>
ri c</w>
ref used</w>
rap ed</w>
per form</w>
k al</w>
hosp it
ausge setzt</w>
P assen</w>
Ja x</w>
Ander son</w>
wieder holen</w>
lich ste</w>
hop ed</w>
grei ft</w>
Hum or</w>
Geor gia</w>
E i</w>
sta b</w>
Fel ic
Anto ine</w>
o ved</w>
custom er</w>
Sü ßer</w>
St ro
Gerü chte</w>
servi ces</w>
p ünktlich</w>
op ti
no ble</w>
ie ved</w>
St ea
S ohn
Me dic
Kön nt</w>
Z immer
O D</w>
K ut
wä chst</w>
schmut z
in en
rec ru
p al
har d
bas is</w>
Sec ret</w>
LAU GHING</w>
ö glich</w>
Über all</w>
sur render</w>
spi ra
od ds</w>
nach sehen</w>
g oo
Schwie ger
Diam anten</w>
Be verly</w>
zeich nungen</w>
ver wan
er ne
Win d
T ie
50 ,000</w>
unglück lich</w>
schmei ßen</w>
sch ick</w>
hil fe</w>
e as</w>
defe at</w>
beg ins</w>
W ells</w>
T ext</w>
Ga st
20 .</w>
ver bergen</w>
v ity</w>
swi mming</w>
i to</w>
aus ruhen</w>
S OM
Ewig keit</w>
Bet ra
moment an</w>
j an
in jured</w>
fli es</w>
cr ush</w>
a .m.</w>
Shar on</w>
Kl eines</w>
un heimlich</w>
schmer z
mög licherweise</w>
Seel en</w>
Lo y
ss er
ra ts</w>
mm el</w>
be vorzu
We g
Rück kehr</w>
R ho
lu ss
hal f
ex it</w>
cH FF
c ot
Str ange</w>
Bas eball</w>
verstän dnis</w>
g le
N enn</w>
G ur
2 000</w>
pa cked</w>
got t
bi an</w>
Ge gner</w>
einge stellt</w>
T än
Schokol ade</w>
Frem den</w>
infor med</w>
f eln</w>
an stän
B our
p it
Wes ley</w>
Unter lagen</w>
unter sucht</w>
p ump
Haus aufgaben</w>
Fa kten</w>
E mm
pri ck</w>
medi a</w>
Technolo gie</w>
ut ed</w>
del s</w>
P F
L amp
ver meiden</w>
stru ck</w>
rei s
Sec re
Go vernor</w>
Be wusst
un dation</w>
otogra fi
in her
er scheint</w>
T old</w>
trau r
jo kes</w>
identi fy</w>
Lau rel</w>
L ots</w>
Ja h
weiter es</w>
blo wing</w>
bit ches</w>
at or
Woll te</w>
Hochzei ts
E th
fei er</w>
be auf
ο u</w>
supp lies</w>
ba il</w>
ap top</w>
Y esterday</w>
m ass</w>
li ste</w>
W ally</w>
S imm
Mar c</w>
Fran zö
Car men</w>
poli tics</w>
J on</w>
P ope</w>
Lehr erin</w>
squ ad</w>
li f
Da wn</w>
pain ful</w>
l ousy</w>
a z
Lu x
to y</w>
qu et
consci ence</w>
Un recht</w>
Sohn es</w>
B ear</w>
- Come</w>
verdi ene</w>
under cover</w>
c ans</w>
bezwei fle</w>
Com mun
- Do</w>
ap ology</w>
Don ovan</w>
Af gh
9 0
me as
gener ation</w>
R ad
scha ff
grap h</w>
S em
Fre e
th ou</w>
or ts</w>
mp s</w>
jähr ige</w>
ho o</w>
ehem al
d ü
D EN</w>
Bor is</w>
mi cro
f tigen</w>
B är</w>
law yers</w>
enjo yed</w>
ann ivers
R oll</w>
deep ly</w>
E ver
Bade zimmer</w>
le gend</w>
dur fte</w>
ba cks</w>
ab du
Trin k
Mä del</w>
tre d</w>
star ving</w>
instru ctions</w>
c up
Indi aner</w>
Her ein</w>
Di a
po wder</w>
help ful</w>
fü gen</w>
ff ing</w>
Spiel chen</w>
Schön es</w>
Kn arre</w>
ut zt</w>
ke e</w>
gin ge</w>
fer tig
bi l</w>
K y
Brun o</w>
A na
zei ten</w>
pi pe</w>
ä tz
vi se</w>
bab y
Sp ani
za hlung</w>
trot z</w>
mo s</w>
ger ung</w>
bar ung</w>
ba dge</w>
app li
SCH N
N in
Auf nahme</w>
sprin gt</w>
ha mmer</w>
fi es</w>
eu s</w>
en ix</w>
con nec
E T
b ungs
T ä
R ig
samm lung</w>
raus zu
mor s</w>
geb ro
Afri ka</w>
identifi zieren</w>
exer cise</w>
blon de</w>
Sau erst
GE T</w>
Fu ll</w>
Bro ad
surro unded</w>
hin zu
ca ve</w>
berei tet</w>
auf machen</w>
anni bal</w>
Therap ie</w>
K ron
Es ther</w>
under wear</w>
hör den</w>
er kenne</w>
cli m
ar ian</w>
St ief
ti k</w>
n alist</w>
hos tage</w>
ge dy</w>
R ot</w>
P am</w>
w son</w>
ver öffent
rein gelegt</w>
pic al</w>
c i</w>
Bre tt</w>
Au fre
un comfortable</w>
stir bst</w>
sh a</w>
abhän gig</w>
Mei ster
IL L</w>
Ge setz
Be oba
gü ltig</w>
gek ostet</w>
ck ter</w>
T olle</w>
Konz ert</w>
C assi
Auf tritt</w>
zei gte</w>
so unded</w>
sich ts
h on</w>
esc ort</w>
cap tured</w>
N Y
F ound</w>
Eig ent
w etten</w>
soll t</w>
fle he</w>
da chtest</w>
Ter min
Mar shal</w>
Kur z</w>
wo unds</w>
un happy</w>
idi ots</w>
fuck ers</w>
an ces</w>
W ette</w>
Tö ten</w>
mis sar</w>
be mü
aufzu halten</w>
Stau b</w>
wel ve</w>
lin gs</w>
car ed</w>
Pf lan
Luci fer</w>
Genau so</w>
A ur
sp ür
pla stic</w>
fu hren</w>
ER T
t ür</w>
gl ory</w>
g ons</w>
foot age</w>
conne ct</w>
Wil ly</w>
Ju d
In stru
At ta
An zeichen</w>
un glaub
down town</w>
con cl
wi pe</w>
lin ed</w>
lie utenant</w>
aus ch</w>
annivers ary</w>
a il</w>
läch eln</w>
flei sch</w>
berü hren</w>
G rau
Am ber</w>
yö u</w>
ne ck
in ting</w>
f und</w>
Ehr en
be kämpfen</w>
an zurufen</w>
JO H
I ss</w>
ver setzt</w>
tra itor</w>
samp le</w>
ir a</w>
F lin
la ting</w>
id an</w>
canc el</w>
bo wl</w>
be am</w>
Wr ong</w>
Gil bert</w>
tu b</w>
scra tch</w>
illi an</w>
durch zu
W ea
Na zi</w>
M OR
K iss</w>
är in</w>
re bel
mensch lichen</w>
gu ide</w>
aufge wachsen</w>
Sp ion</w>
Sen der</w>
Fü hrung</w>
- They</w>
b or</w>
Mur ray</w>
Jahr hundert</w>
Ge mä
Fü ßen</w>
- Thank</w>
ver wei
nie dr
me tho
bei des</w>
auf nahme</w>
Zentr ale</w>
Tri p</w>
Russi ans</w>
Jahr hunder
3 1</w>
zi p</w>
ir ren</w>
St eine</w>
I mmer
Cha rak
s um</w>
lei tung</w>
hä r
Tea ms</w>
Fri ends</w>
sol le</w>
neben an</w>
P h
Cour t</w>
volu tion
hel ic
St ie
verk auf
ab ends</w>
Organ isation</w>
G on
4 3</w>
paper work</w>
ill on</w>
gr ou
ehr en
blau en</w>
b illion</w>
Mar io</w>
Hosp ital</w>
Br o</w>
t ling</w>
signi fic
mar sch
il leg
ga ther</w>
er a</w>
Wä sche</w>
Mater ial</w>
K N
Con tin
Re ese</w>
P ay</w>
Ermitt lungen</w>
stö ßt</w>
Y EA
Ti pp</w>
AND A</w>
über sehen</w>
tig sten</w>
com in</w>
To wer</w>
Mig uel</w>
Kop ie</w>
Ju den</w>
Irgen detwas</w>
we sen</w>
ro ws</w>
rea gieren</w>
r und</w>
Y S</w>
Sa ys</w>
K ie
4 4</w>
was hed</w>
versch wenden</w>
u mmer</w>
sp la
dan eben</w>
be freit</w>
U P</w>
RI GHT</w>
Or der</w>
Mili tär</w>
Bar on</w>
A ch
y land</w>
tt en
stra ße</w>
sp ren
entsp annen</w>
di en</w>
b chen</w>
Sch ein
N on
Hu bschrau
Gu ard</w>
lan ded</w>
hän ge</w>
extre m</w>
bus iness
Ver a</w>
L as</w>
G PS</w>
st ets</w>
r rt</w>
Z ombie</w>
P a</w>
C hel
ör en</w>
territ ory</w>
cap ital</w>
Ver sicherung</w>
C ec
hil frei
bl ood
ausge sucht</w>
t ant</w>
sa al</w>
pf lan
gh ts</w>
So weit</w>
Ein stellung</w>
wich tigen</w>
h et
Ta schen</w>
Scot ty</w>
Ma fia</w>
LE Y</w>
Absch luss
ea th</w>
warri or</w>
ver pflich
f ett</w>
dopp elt</w>
A partment</w>
st eam</w>
k yo</w>
bel le</w>
be mer
Wor an</w>
Sta mm
Sp ann
Sat z</w>
threaten ing</w>
ne ath</w>
k lang</w>
beza hle</w>
Tre vor</w>
To ast</w>
K ette</w>
wor ker</w>
tea ms</w>
geb ü
al o</w>
acc used</w>
Fei er</w>
größ ere</w>
et it</w>
dr en
Tö te</w>
Russi a</w>
C es
A I
spir its</w>
schie ß</w>
fun ction</w>
aw kward</w>
an schauen</w>
Son dern</w>
Ros ie</w>
H al</w>
Fi ona</w>
un höflich</w>
lo ck
ern s</w>
d dies</w>
We ch
ti ts</w>
nephe w</w>
mon sters</w>
hy po
boo m</w>
Mau er</w>
Bel oh
mom my</w>
V iz
N Y</w>
Mar il
F ish</w>
Con trol</w>
Al lah</w>
- A</w>
rü ber
occ up
f lash</w>
ein fallen</w>
Wel ch</w>
Sch icken</w>
He dley</w>
ó n</w>
si x
lea k</w>
Ergeb nis</w>
Chin e
ver lasse</w>
sti cks</w>
lan ding</w>
geb issen</w>
kämp fe</w>
kur ze</w>
influ ence</w>
ersch einen</w>
atta cks</w>
I --</w>
Co wboy</w>
ver ga
Sat elli
telefon ieren</w>
inv itation</w>
d entin</w>
Val ley</w>
D ap
B Y</w>
A gn
sh own</w>
pla tz
gol den</w>
g nen</w>
develop ed</w>
de tte</w>
vor s</w>
t ief
p isch</w>
kom mun
cu lar</w>
contin ues</w>
amerik anische</w>
Fa ce</w>
ti tles</w>
re minds</w>
e con
Hawa ii</w>
Dien er</w>
stri p</w>
pen is</w>
du ck</w>
St ella</w>
H oo
Bu ck
Ben zin</w>
s alt</w>
Voy ager</w>
S leep</w>
Mar ion</w>
L is
Ergeb nisse</w>
ra h</w>
ight ning</w>
edu cation</w>
Sul li
Schn itt</w>
nor mally</w>
m alt</w>
Ma gn
Ger mans</w>
Über haupt</w>
zurück gekommen</w>
loo kin</w>
er kennt</w>
chi ps</w>
St al
Arsch löcher</w>
trau ma</w>
n an</w>
imagin ation</w>
hu a</w>
hal l
Wei ter
C OU
verwand eln</w>
vamp ires</w>
au bt</w>
ste cke</w>
sal ad</w>
loy alty</w>
k se</w>
erwä hnen</w>
dy na
determin ed</w>
spiel er</w>
scri pt</w>
sch ten</w>
lin ie</w>
Schu ss
Hun de
Bat man</w>
Auf enth
ÄCH ZT</w>
strug gle</w>
mo vement</w>
ger annt</w>
Wes halb</w>
S D</w>
I ke</w>
Gray son</w>
ven ess</w>
se m
pre chen</w>
n ings</w>
Frea k</w>
y man</w>
ll ed</w>
hea l</w>
gn is
ein stellen</w>
bra v</w>
Ver piss</w>
Schü sse</w>
N ennen</w>
Ha fen</w>
Er ster</w>
wich es</w>
k ir
V el
Beloh nung</w>
- This</w>
pre vent</w>
ou red</w>
kill ers</w>
fashi on</w>
costu me</w>
an geschossen</w>
amerik anischen</w>
Hö hle</w>
Gesch le
D emo
Cam ille</w>
tu ell</w>
consequ ences</w>
c ents</w>
bo thering</w>
besch euert</w>
listen ed</w>
as p
Sha ke
E I
li erst</w>
hä ttet</w>
cre epy</w>
be halte</w>
be an
Un glück</w>
Kä fig</w>
under ground</w>
ersch ein</w>
dr ank</w>
Mari anne</w>
sm iling</w>
k li
be wunder
Fi sche</w>
Ein heiten</w>
Bu dd
Bedin gungen</w>
Al ten</w>
wonder ed</w>
ul arly</w>
ta c
len ken</w>
conc ert</w>
b last</w>
S ich</w>
Car l
Bot schafter</w>
disa gre
P ut
P U
M ale</w>
Ärz tin</w>
as sin
Rey no
l ern</w>
ko v</w>
ge mü
et a</w>
Sat an</w>
Ent fer
sp ite</w>
h eutzutage</w>
divor ced</w>
ani scher</w>
N eal</w>
Mil dred</w>
Be weis
su me</w>
bri llan
I g
on g
mal en</w>
it ar</w>
Wus stest</w>
Liebe s
Alkoh ol
tur ing</w>
tre ating</w>
ss a</w>
sig nature</w>
ber ichten</w>
Star gate</w>
Star fleet</w>
Hu gh</w>
verbr ennen</w>
sch end</w>
res ist</w>
requ ire</w>
o bl
irgend einem</w>
Whi skey</w>
Face book</w>
vo ices</w>
qu is
p ound</w>
Hamm ond</w>
z ept</w>
ver handeln</w>
st ones</w>
sku ll</w>
j ur
hol st</w>
Ital y</w>
F ot
un known</w>
st eu
an hören</w>
Stra te
G ür
Fahr rad</w>
w rap</w>
ul en</w>
s can</w>
Wonder ful</w>
Wich tigste</w>
GA SP
sen de</w>
nü tzlich</w>
not wendig</w>
Rä tsel</w>
Mi ssi
Fantas ie</w>
sli pped</w>
getr ieben</w>
gar ten</w>
cul ture</w>
ch tert</w>
Zei ch
Je wish</w>
AM ANDA</w>
äch st</w>
z eln</w>
star ben</w>
sor s</w>
sicher lich</w>
s wit
massi ve</w>
ep herd</w>
Co dy</w>
Ber ü
sti val</w>
ruin ieren</w>
br annt</w>
Na tion
K ro
in ation</w>
erne ut</w>
claim s</w>
bene fit</w>
ass y</w>
Sam uel</w>
Kom isch</w>
BU T</w>
Aut op
9 5</w>
&apos; mon</w>
vergewal tigt</w>
si a</w>
or dnung</w>
le i</w>
Wich tiges</w>
P ush</w>
Dumm kopf</w>
Ch ang</w>
ta p</w>
k ern</w>
identi fied</w>
ent ist</w>
e dy</w>
auftau chen</w>
Kenne dy</w>
wen igen</w>
versau t</w>
sne ak</w>
mini sterium</w>
er sti
cre d</w>
Pre pare</w>
Be weg</w>
AR D</w>
der selben</w>
col onel</w>
Stell ung</w>
Se he</w>
Pho enix</w>
Inter esting</w>
H eil</w>
ill es</w>
SH E</w>
Haupt mann</w>
6 5</w>
so viel</w>
ma th</w>
die jenige</w>
de on</w>
Re g</w>
z ten</w>
verge sse</w>
lo cken</w>
bel ly</w>
Net z</w>
Ka i</w>
Col in</w>
schla g
kür zlich</w>
inter national</w>
ge jagt</w>
Under stood</w>
Th rough</w>
Mun ition</w>
F u</w>
hier bleiben</w>
g rant</w>
dre ssing</w>
Y a
Wil d
Bloo dy</w>
we hr
geb iet</w>
Ap ollo</w>
war p</w>
ser geant</w>
b s
Inter view</w>
Ehe frau</w>
Christ us</w>
pha se</w>
ki cking</w>
en des</w>
einfa che</w>
bel oved</w>
Rech ts
An zeige</w>
A mp
ss i</w>
is ely</w>
iel d</w>
Her oin</w>
F liegen</w>
E uro</w>
trei bst</w>
sp in</w>
ous ness</w>
gän ger</w>
gh os
cu red</w>
Hal b
Dra chen</w>
un ivers
tempor ary</w>
ge dauert</w>
enter ed</w>
dea f</w>
che at</w>
kno w
da ch
cre atures</w>
produ ct</w>
p on
i red</w>
hi o</w>
ar do</w>
Ma de</w>
stre am</w>
er lei
ab les</w>
Zer o</w>
tat too</w>
r ist</w>
ni es</w>
hun gern</w>
go s</w>
Sö hne</w>
Ber nie</w>
B eu
pp i</w>
kl appen</w>
gif ts</w>
Pal ast</w>
L är
hervor ra
exist ence</w>
descri be</w>
bei ßen</w>
In nen
Handsch ellen</w>
Ber ge</w>
la un
gn isse</w>
fla g</w>
stran gers</w>
dne sday</w>
be ef</w>
Verk auf</w>
Ver sion</w>
Ju gend</w>
Irgend welche</w>
In s</w>
wi g</w>
vis iting</w>
sk er
re v
occ asion</w>
Pen is</w>
J an</w>
y outh</w>
wor ries</w>
ver dienst</w>
qu ila</w>
infe cted</w>
hüb sches</w>
an or</w>
Vor sichtig</w>
Mar vin</w>
Li es</w>
Arch ie</w>
scheiß egal</w>
gestür zt</w>
fil thy</w>
ent ing</w>
clo wn</w>
Y ale</w>
Reyno lds</w>
Ma dison</w>
täu schen</w>
sp rit
sich ten</w>
pa ys</w>
inv esti
dra wn</w>
Sur ely</w>
Kr yp
I gn
G las
tig te</w>
n ass</w>
mor al</w>
F I
Dis ku
überra schen</w>
für chtet</w>
ed ul
Pu ppe</w>
Ha ken</w>
Ban de</w>
Alb traum</w>
wel le</w>
ou rite</w>
gei rrt</w>
War nung</w>
Sulli van</w>
Jo el</w>
wü ssten</w>
tr äumen</w>
ri en</w>
Nu ll</w>
Leu t
H ERE</w>
stell ungen</w>
st o</w>
pre scri
interest s</w>
ba te</w>
as hes</w>
Anwäl te</w>
i ding</w>
f tet</w>
b lasen</w>
accoun ts</w>
Ver rück
Flü gel</w>
voll es</w>
pre ssed</w>
hon ey
ge ttin</w>
an stellen</w>
Eli jah</w>
tri ffst</w>
shiel d</w>
klau en</w>
Wil d</w>
Wider stand</w>
D V
mu seum</w>
einz ig</w>
Shel by</w>
Kon sequ
un fortunately</w>
u al
repar iert</w>
m r</w>
j et</w>
ge heim
con test</w>
Gesich ter</w>
ss p
for men</w>
Ly nette</w>
K ansas</w>
- -I</w>
weh getan</w>
ung sp
tie fer</w>
sk ir
s an</w>
f u</w>
Sp ir
ten de</w>
sha red</w>
organ ization</w>
be have</w>
Pil ot</w>
Masch inen</w>
Liefer ung</w>
LI KE</w>
CT U</w>
Bun des
per su
eff ects</w>
W ong</w>
T oll
M .
p fel</w>
ger ü
g ates</w>
f low</w>
Teen ager</w>
T ap
Camp bell</w>
An dr
recom men
hol ds</w>
h men</w>
co ast</w>
V a
Lyn n</w>
Fr os
hum anity</w>
gan g
bef ör
G ate</w>
Ed gar</w>
CH E</w>
schie ße</w>
rob bed</w>
p alace</w>
dor f</w>
coun cil</w>
Er stens</w>
Dor o
C over</w>
C LA
An n
sug gesti
mi ere</w>
fän gst</w>
dre sses</w>
a mm
Pre sse
Naz is</w>
L ola</w>
tra dition</w>
thir sty</w>
ist ry</w>
he h</w>
ani stan</w>
an kommen</w>
mer ely</w>
finan cial</w>
Ver gleich</w>
Ver b
I rish</w>
A sche</w>
ver ärgert</w>
ac ts</w>
Nur se</w>
Erd be
tra g
ssy stem</w>
shi re</w>
rab bit</w>
ra tes</w>
gewö hnen</w>
St ein
Schlimm es</w>
Pfar rer</w>
Maril yn</w>
Jahr es</w>
wei ch</w>
stro ke</w>
sin k</w>
mus ik</w>
j ec
coun ts</w>
Sil as</w>
P ep
da heim</w>
at tend</w>
Zeit ungen</w>
Tra iner</w>
Grün den</w>
stör ung</w>
m otel</w>
j unk</w>
can di
Pro fi</w>
Na dia</w>
Gemein de</w>
ö l
ox y
fair y</w>
wor en</w>
t ely</w>
speci fic
kauf s
i que</w>
free ze</w>
Verflu cht</w>
ot er</w>
Thi rd</w>
I ts</w>
F RE
go vernor</w>
fa ced</w>
besch ei
Protok oll</w>
P an</w>
Mas sa
Chu ckles</w>
Be dürf
hop es</w>
drin gen</w>
abgel ehnt</w>
a wa
Pa ket</w>
Kit ty</w>
Cy n
Clau de</w>
B AR
tel le
sa tions</w>
Ver li
Park platz</w>
Letz tes</w>
Gewi cht</w>
Cl y
che cks</w>
V ision</w>
Si dney</w>
Shei la</w>
Rei ch
Ju de</w>
Ah h</w>
A ktiv
constru ction</w>
bil den</w>
Schri ft
pun ished</w>
commit tee</w>
cer ti
ann ing</w>
Schwä che</w>
Kopf schmerzen</w>
C ul
zu sagen</w>
op ens</w>
ha us
Sop hi
Le gende</w>
Hex en</w>
AL LY</w>
me th
L ang</w>
Koff er
Kno pf</w>
Immer hin</w>
Ent wick
- All</w>
op ath</w>
mista ken</w>
ann i</w>
Aus rüstung</w>
vir gin</w>
ut or</w>
ignor ieren</w>
gesam ten</w>
com pu
ap er</w>
Spa zier
Afgh anistan</w>
A wesome</w>
te sting</w>
V O
Un ion</w>
S mar
Pros titu
C rist
x en</w>
m und</w>
cigar ettes</w>
Bö sen</w>
tra gt</w>
sch edul
sacri fic
or ph
Wer bung</w>
R ad</w>
Gest apo</w>
Bus iness</w>
ser va
beteil igt</w>
W I
M ON
Kli enten</w>
author ities</w>
Z el
Skla ven</w>
Ka thy</w>
Gepä ck</w>
ti ss
mo bile</w>
mit bringen</w>
e kel
Le sen</w>
10 .</w>
Ü bung</w>
tre u</w>
sa cred</w>
mit machen</w>
m au
le gst</w>
ho hen</w>
ge fehlt</w>
a id</w>
Hir n
E mo
Co s</w>
B äume</w>
uni que</w>
ru t
in ch</w>
fav ourite</w>
W are</w>
Ha ft
G ab</w>
re d
proce ed</w>
f alle</w>
anno ying</w>
We dnesday</w>
Ei le</w>
Ar tie</w>
App etit</w>
persön liche</w>
di vi
Universit ät</w>
K öpfe</w>
Jan u
adi se</w>
Repor ter</w>
F O
Be wer
si on
sc ent</w>
chan nel</w>
Sti ft</w>
An ton</w>
Über fall</w>
herr schen</w>
ff el
der man</w>
P it
Mus ik
E m</w>
E M</w>
ter en</w>
me ssing</w>
ha bit</w>
k as</w>
gu ck</w>
fe e</w>
al ley</w>
Besu cher</w>
Be stie</w>
p rom</w>
l aus</w>
bin den</w>
T ot</w>
P RO
Na tion</w>
le ug
k let
dra ma</w>
b aum</w>
Mor gen
H amp
susp ects</w>
stand ard</w>
crimin als</w>
cc o</w>
ab geben</w>
Tri cks</w>
S ighs</w>
Bur ke</w>
te ch</w>
in da</w>
glau fen</w>
Ru dy</w>
An gri
e ste</w>
Su mmer</w>
Rau b
O mar</w>
Gewin ner</w>
Ele anor</w>
w dy</w>
tw enty</w>
sp ac
s om
recom mend</w>
priv acy</w>
her oes</w>
f isch</w>
Pol ly</w>
Hin weise</w>
ziel le</w>
ri l</w>
ri fle</w>
p lau
P ig
K aum</w>
vö geln</w>
sur geon</w>
lang samer</w>
com ment</w>
be sitzen</w>
G rä
spe are</w>
flie ge</w>
com a</w>
Som mer
Ma del
Lo ck</w>
sa il
auf grund</w>
z elle</w>
ja ck
dig es</w>
Pau lie</w>
F oster</w>
wieder zusehen</w>
gescha ffen</w>
far kt</w>
equ al</w>
docum ents</w>
b son</w>
Mo on</w>
Gra tu
Fol gendes</w>
F ight</w>
C AR
B ond</w>
verschie denen</w>
myster ious</w>
drän gt</w>
bo gen</w>
be sei
Pla sti
Haus es</w>
Fa ith</w>
Chil dren</w>
testi fy</w>
ja hr</w>
der in</w>
O x
E vel
Ö l</w>
jä ger</w>
char m</w>
beeindru ckend</w>
Wa is
Slo an</w>
Hot el
Gra f</w>
Brau chen</w>
om a</w>
bequ em</w>
T ÜR</w>
Sün de</w>
Sch luck</w>
SD H</w>
Ge setze</w>
suggest ing</w>
nit ure</w>
Ste uer</w>
Bo w
Aus druck</w>
x er</w>
ret ärin</w>
ex per
Taus ende</w>
Ser ie</w>
Fanta stisch</w>
vi ert</w>
shel ter</w>
hom es</w>
ft ware</w>
f ried</w>
emo tions</w>
di ce</w>
Ital ien</w>
GRO W
Ali bi</w>
2 50</w>
un kt</w>
she ep</w>
por n</w>
i onen</w>
hilfrei ch</w>
hal le</w>
atta ched</w>
Ran ger</w>
Hubschrau ber</w>
G is
y ell</w>
recor ding</w>
os ity</w>
el ection</w>
d om
con spira
besch issen</w>
Spiel zeug</w>
Ger ne</w>
Fig ur</w>
Bur k
Brü ste</w>
A sh</w>
mi sche</w>
Z wer
Mit be
Irgend wo</w>
sibili ties</w>
ein etwegen</w>
b ein</w>
angeb lich</w>
Ro dr
Medi zin
M el</w>
5 2</w>
st rau
sh ore</w>
pos session</w>
ge wissen</w>
ch ine
at uren</w>
S crew</w>
Hu go</w>
B ig
A ga
1 5.</w>
satis fied</w>
ro pol
m id</w>
di ck
as ka</w>
ad mini
Tor res</w>
Nie der
rie t</w>
ge ord
g g</w>
fiel ds</w>
ein kaufen</w>
e v</w>
de al
ch ron
bom bs</w>
Hea ven</w>
Bran don</w>
Arbei ter</w>
wei le</w>
schul den</w>
ra ted</w>
pro pose</w>
pi le</w>
lea gues</w>
experi enced</w>
c ey</w>
Ke hle</w>
än ge</w>
tra gedy</w>
inter pre
her e
attra ktiv</w>
Z wischen</w>
Kat astrophe</w>
un a</w>
st off</w>
re present</w>
persön lichen</w>
nat ur
jung le</w>
ein gehen</w>
a tions
Prü fung</w>
Man a
Ko ordin
travel ing</w>
ta ct</w>
stö re</w>
st um
ist in</w>
ig a</w>
fän ger</w>
TH ERE</w>
Nar r</w>
K ot
wi tz</w>
ge prü
festh alten</w>
Pic ard</w>
Bibliothe k</w>
romanti sch</w>
par ent</w>
ll a</w>
lin ken</w>
ge klappt</w>
aufge wacht</w>
Shake speare</w>
Sch wa
R and</w>
Pro fi
schrei bst</w>
pa cking</w>
Vor gesetz
Re ed</w>
H ell
weg gehen</w>
rei ßt</w>
k ly</w>
Rea gan</w>
Jul ie
pen ny</w>
jo ining</w>
Mitt wo
K unde</w>
Det ro
vi ces</w>
ser ial</w>
sa f
ch ick
c ep
Wir f</w>
Plä tze</w>
La une</w>
Je ez</w>
G at
pos se
le eren</w>
incredi bly</w>
fa cing</w>
dri ll</w>
ci vil</w>
Tr om
Moun tain</w>
C onnie</w>
zu gehört</w>
zi erte</w>
y ards</w>
ot ing</w>
Thir ty</w>
Stä d
Nä chte</w>
Kon zentri
G ü
F ö
un believable</w>
os au
kne e</w>
g rief</w>
MUSI C</w>
stab bed</w>
chine si
be züglich</w>
after wards</w>
Sch ick</w>
Hö he</w>
3 .
st ine</w>
op per</w>
investig ating</w>
fass ung</w>
Spa ce</w>
L ena</w>
v et</w>
ro y</w>
ro ads</w>
kri min
großzü gig</w>
grab bed</w>
Tre ffer</w>
Lei b</w>
re sources</w>
la p</w>
kön ne</w>
inv ented</w>
ad ul
S etzt</w>
ell or</w>
Mo tiv</w>
Bri en</w>
scha ff</w>
met ers</w>
l ut
h es
a a
Tot ally</w>
Reg ina</w>
Caf é</w>
- Let</w>
ra de</w>
n de</w>
S eil</w>
L ing</w>
Indi a</w>
w olle</w>
th ie
sich eren</w>
fle w</w>
ch ess</w>
Lieb haber</w>
p pers</w>
li mit</w>
e de</w>
ann es</w>
Schei sse</w>
Gefangen e</w>
D AN
sor en</w>
gesch enk</w>
erb är
Sün den</w>
Lo vely</w>
Fre der
woh nst</w>
to ols</w>
phi losop
ol ly</w>
just --</w>
im i</w>
Marc ie</w>
Lär m</w>
Bom ben</w>
An gie</w>
ump f</w>
sor g
shar ing</w>
keu p</w>
k lu
Unter wäsche</w>
K ane</w>
um ziehen</w>
mu d</w>
en tal</w>
dro ht</w>
X ander</w>
Ital ien
sci entist</w>
infor mieren</w>
de z</w>
Un schuldig
Si de</w>
Interess ant</w>
under neath</w>
fool ish</w>
ev ac
an lage</w>
Stad t
L et
wunder bare</w>
sü ße</w>
sh ell</w>
f au
EN G
C ousine</w>
A y
zeu g
s äu
ma cher</w>
cou ra
aus sagen</w>
Wir kung</w>
Sp u
Ma i</w>
Ko ch</w>
G au
ver heim
pun k</w>
n chen</w>
ex posed</w>
condi tions</w>
bewaff net</w>
Y ours</w>
T ook</w>
Fern seh
sp ie
schla f</w>
kein erlei</w>
be ard</w>
an ch
S weetheart</w>
R ich</w>
stu b
scho ol
schein st</w>
re turning</w>
lab or</w>
entwick eln</w>
denti al</w>
b ank
auff ä
Tra dition</w>
Kom missar</w>
son sten</w>
bit ter</w>
Um gebung</w>
Ter esa</w>
R auch</w>
Per cy</w>
L ost</w>
Kon kur
Den ise</w>
Brea the</w>
trans ferred</w>
sich ern</w>
off iz
mög liche</w>
it is</w>
de ssert</w>
c ess
Kom a</w>
C had</w>
B RE
tan zt</w>
st unden</w>
fa ith
blau e</w>
Fr ost</w>
B R
vot ed</w>
f teen</w>
Sit z</w>
Fran ç
Boy d</w>
st abili
selt same</w>
auf wachen</w>
UN G</w>
Tra in
R eid</w>
K rü
Eu gene</w>
En d
Doro thy</w>
Aus weg</w>
prom ises</w>
exhau sted</w>
dream ed</w>
de e</w>
chea ted</w>
Mo unt</w>
Kor ea</w>
Kat zen</w>
ne tten</w>
mus cle</w>
depen dent</w>
ac tress</w>
TH ER</w>
In n
ich i</w>
g om
fro zen</w>
fant asy</w>
Dire kt</w>
Detro it</w>
zurück kommt</w>
ob sessed</w>
kontrol liert</w>
for gi
fol gte</w>
dama ged</w>
app eti
admi re</w>
N or</w>
Glau bt</w>
wei sung</w>
unterstü tzt</w>
un gewöhnlich</w>
lei ter</w>
it ali
imagin ed</w>
gi ere</w>
dra gged</w>
Gl en</w>
Gi deon</w>
Ab stand</w>
ti more</w>
n ity</w>
ey e
cle ar
ch tel</w>
blo ws</w>
YEA H</w>
Ver hält
war ehouse</w>
tra v
tau b</w>
na ils</w>
et ry</w>
ch im
ad venture</w>
V .</w>
4 6</w>
1 2.</w>
pol o
Sher ry</w>
Rei fen</w>
Gre ek</w>
Fin anz
ler ne</w>
l de</w>
k tive</w>
assu med</w>
acc ent</w>
In dem</w>
weiter gehen</w>
less ons</w>
do pe</w>
disku tieren</w>
Temp el</w>
3 9</w>
schn ell
g at
clas ses</w>
b stahl</w>
b anks</w>
auf merk
F rit
ERT Ö
progra mm
gek o
ersch öpft</w>
br ut
Masch inen
F ul
Cha n</w>
wor rying</w>
neh mer</w>
min or</w>
heu tigen</w>
gesch ie
g ge</w>
Z ün
schlie f</w>
fur niture</w>
entschuldig t</w>
Wün sche</w>
Schla fen</w>
H I
Bi bel</w>
Aus gezeichnet</w>
AT E</w>
A cc
rech nen</w>
in form</w>
gh ters</w>
bess eres</w>
Sei tdem</w>
coun ty</w>
ar i
any time</w>
an gehen</w>
Mitg lieder</w>
Fr ö
Fi sch
7 2</w>
ran dom</w>
pu pp
me ster</w>
ick er</w>
entsch lossen</w>
W ELL</w>
Stu denten</w>
Cha m
Aut om
won ach</w>
shi r
sch lau
existi eren</w>
betra y</w>
Wohn zimmer</w>
B einen</w>
plan es</w>
Her zin
Be stä
ig sten</w>
häl ter</w>
ho he</w>
V ick
Tan zen</w>
Ra ven</w>
Fl ur</w>
Ab gesehen</w>
sp it</w>
s ins</w>
ro yal</w>
p fle
ow ned</w>
mo tive</w>
ic i
expla ined</w>
L AN
r in</w>
Versch wör
H unt</w>
Emp ire</w>
fet ch</w>
cu ts</w>
Me ss
Hö ch
Gei seln</w>
B and
Ar chi
mon itor</w>
et on</w>
Sin ne</w>
Kostü m</w>
Bru ders</w>
Be hörden</w>
B ang</w>
extre me</w>
diam onds</w>
bestimm ten</w>
be weist</w>
Schlie ßlich</w>
S ound</w>
wi scht</w>
sig ning</w>
satelli te</w>
o tic</w>
n icht
limit ed</w>
fe eding</w>
end ant</w>
e en</w>
au top
an don</w>
Ro bin
Re b
Ra j</w>
Motor rad</w>
Aus bildung</w>
so zi
irgen ds</w>
ge wachsen</w>
Vor fall</w>
Si x
Pul s</w>
Ein em</w>
vul ner
ha i</w>
ge klärt</w>
di men
Kämp fer</w>
Coun cil</w>
le vels</w>
g ina</w>
ch tete</w>
In fe
ghos ts</w>
bl ond</w>
ant ine</w>
A tem</w>
sto ß</w>
kla gt</w>
gen tle</w>
fi fth</w>
Agn es</w>
le tte</w>
infe ction</w>
St u</w>
Experim ent</w>
EN T
Dunk eln</w>
Bau ch
Bahn hof</w>
vermas selt</w>
univers ity</w>
pas sport</w>
et ch</w>
belie bt</w>
AR S</w>
ün digt</w>
äu sche</w>
sch wä
gel ten</w>
citi zens</w>
betr ü
Koffer raum</w>
questi oning</w>
e well</w>
bur ns</w>
Zur ück
Sch uh</w>
Mor ty</w>
D om</w>
onn y</w>
na cht</w>
n igger</w>
kor rekt</w>
gi o</w>
f otografi
er pre
be st
Ma ch
Konsequ enzen</w>
B .
Al p
vi c</w>
str ö
pin keln</w>
kauf te</w>
hal lu
e ktiv</w>
beschrei ben</w>
be danken</w>
To kyo</w>
P am
war ne</w>
w unden</w>
ver lange</w>
un angenehm</w>
rin ge</w>
pati ence</w>
ma ture</w>
grü n</w>
großar tige</w>
classi c</w>
ce des</w>
b old</w>
US E</w>
spra y</w>
perman ent</w>
p itch</w>
ech tes</w>
bas ic</w>
La ster</w>
u ing</w>
di os</w>
Li onel</w>
th ia</w>
stat ten</w>
se ct</w>
emp fin
eff ective</w>
beson deren</w>
be side</w>
TH EY</w>
Sek retärin</w>
Schwei gen</w>
Je anne</w>
st ap
pla yers</w>
exec u
di stri
Me hr
Ham il
sh h</w>
sa fer</w>
lö sung</w>
gei st
cal cu
Mex ican</w>
Fit z</w>
C D</w>
x ter</w>
h .</w>
berei ch</w>
Verdamm ter</w>
U s</w>
Sha wn</w>
P hone</w>
Fle ck</w>
D s</w>
unter s</w>
partic ularly</w>
hum or</w>
all zu</w>
Heil igen</w>
Gr ab
zurück bringen</w>
stra fe</w>
LAU GHS</w>
An a</w>
ri sche</w>
pay ment</w>
ist isch</w>
cro wn</w>
be aten</w>
Mö ge</w>
Mu ster</w>
G IR
su chten</w>
medi cation</w>
k eins</w>
f asst</w>
de x</w>
b aut</w>
Tur ns</w>
Russ land</w>
G olf</w>
Cro wley</w>
verab redet</w>
se al</w>
qu ote</w>
Pla y
Ma king</w>
Gu il
Cly de</w>
Bli tz</w>
Ada ms</w>
um drehen</w>
dez vous</w>
ab halten</w>
Ren n
Evel yn</w>
Ent führung</w>
Bal timore</w>
vergif tet</w>
st eak</w>
schau st</w>
Ko k
Frü hl
Bu ff
A D
un tie</w>
tech n
gu itar</w>
gef ickt</w>
ein heit</w>
ck el</w>
belei digt</w>
begrü ßen</w>
Phil lip</w>
J in</w>
Be sor
bar n</w>
Ver bre
Rei se
L icht
Führ erschein</w>
jün ger</w>
R ate</w>
Lö wen</w>
Leut nant</w>
Heil mittel</w>
Ar gu
vö l
gesp ürt</w>
gelei tet</w>
Ser ien
Bi ble</w>
Angel o</w>
sch utz</w>
lt st</w>
er setzen</w>
ca de
bit tet</w>
Verzei h</w>
Rat ten</w>
Jo y</w>
App laus</w>
ul a</w>
qu ir
mor on</w>
i ble</w>
high est</w>
e hrt</w>
den k
Se e
N S</w>
Lac ey</w>
Att ent
ru mp
mar rying</w>
hän dler</w>
d is</w>
Los er</w>
Get rän
zu kün
sch weren</w>
gent ur</w>
be k
Zu schau
St ars</w>
An kunft</w>
AT I
är gern</w>
such ungs
stea dy</w>
pat rol</w>
ir gend</w>
cri tical</w>
con gratulations</w>
bili ty</w>
Stie fel</w>
Julie tte</w>
temp le</w>
sear ched</w>
mm elt</w>
mi scht</w>
W OR
Sophi a</w>
Schie ßer
Glück s
Daniel s</w>
extra ordinary</w>
di strict</w>
be treten</w>
ab nehmen</w>
a verage</w>
Verein igten</w>
Miss verständnis</w>
Ex ist
Bewusst sein</w>
B ook</w>
wieder hole</w>
ri sk
ni c</w>
f ights</w>
a ire</w>
The o</w>
zeich nung</w>
tt ä
hy ster
er tr
ali ens</w>
Ver ge
T ue</w>
C ar</w>
Auss icht</w>
imm or
gre ed</w>
descri ption</w>
San dra</w>
Gal ac
wa gon</w>
mach ines</w>
ba it</w>
Ver sprich</w>
Spa in</w>
F ood</w>
Ab ig
verlo bt</w>
ti vely</w>
stän de</w>
prom o
pa ges</w>
p isst</w>
mo di
gr usel
cor pse</w>
ck ling</w>
Qu ickly</w>
B am
vern ichtet</w>
trä um
tro ck
ste el</w>
schmut zig</w>
g sten</w>
differ ently</w>
auftau cht</w>
analy sis</w>
sm ug
ro bot</w>
mei stens</w>
erst mal</w>
bro ad
Weihnachts mann</w>
Ma g</w>
B utter</w>
zu stimmen</w>
un gs</w>
t ome</w>
ous ins</w>
Fi re
relig ious</w>
le ute</w>
inv isi
ch est
beg ri
Ver rat</w>
Fro he</w>
Col a</w>
zu ver
ter ien</w>
ski p</w>
sen ds</w>
lun gs</w>
ist ers</w>
half way</w>
der te</w>
ban ds</w>
EL I
Bur ger</w>
B elle</w>
Ari z
An ders</w>
person nel</w>
neck lace</w>
g ala
Ber ichte</w>
Abra ham</w>
temper ature</w>
ka mmer</w>
geb uch</w>
di sor
as i</w>
a tion
Pea ce</w>
D onnie</w>
gesch missen</w>
f on
dä m
Zusamm en</w>
Squ are</w>
Scot land</w>
Pati entin</w>
In side</w>
Do ing</w>
schä tzt</w>
me ssen
f tung</w>
en es</w>
ch ased</w>
c ran
b ond</w>
Re zept</w>
K I
Ge mma</w>
Dur st</w>
therap ist</w>
schil d</w>
f us</w>
co l</w>
Por no
En kel
Ber gen</w>
trin kst</w>
pol ite</w>
normal en</w>
e an</w>
Wh er
Milli arden</w>
ste pped</w>
j umping</w>
hand led</w>
besie gt</w>
Spe ed</w>
M U
sc ale</w>
ight ful</w>
communic ation</w>
ben eath</w>
Wal ton</w>
Mo ore</w>
König s</w>
I ren
BO TH</w>
zz o</w>
s ir
pri ority</w>
pig s</w>
lich ten</w>
de mü
Fe deration</w>
Bri ck</w>
hand lungen</w>
f ans</w>
Pri or
Pra kti
La dung</w>
H olo
E. L
Clo wn</w>
AL LE</w>
sym bol</w>
stu dieren</w>
sl ut</w>
f is
ex press</w>
de served</w>
be eil</w>
Ros en</w>
zu halten</w>
ri pped</w>
oun ce</w>
mar ch</w>
comple x</w>
V augh
G ig
B ella</w>
no vel</w>
geneh m
Gra y</w>
Andre a</w>
ver wickelt</w>
re pla
pos itiv</w>
inten tion</w>
helic opter</w>
be dau
Telef onn
Sar g</w>
Män ner
y οu</w>
wit ches</w>
Pro ph
Hei di</w>
A very</w>
sp rün
re view</w>
nerv t</w>
l hren</w>
exist s</w>
aus steigen</w>
Hit ze</w>
lie fer
li ck</w>
Shir ley</w>
Schauspiel erin</w>
Mar ke</w>
hoo ked</w>
he ut</w>
dri ves</w>
din gton</w>
W unden</w>
V illa</w>
Tra gö
Har rison</w>
ERTÖ NT</w>
Dsch un
un sicht
sp ru
mas sage</w>
l ou
hin weg</w>
blu ten</w>
at met</w>
ass ass
Hamil ton</w>
Fit z
unter schrieben</w>
tu be</w>
rel ief</w>
gewi cht</w>
bar keit</w>
Vertei dig
Pro gra
Gol den</w>
un fall</w>
tau chen</w>
Un believable</w>
Sch rei</w>
Pe dro</w>
Cra w
versich ere</w>
thr one</w>
su ff
r ently</w>
j ap
approa ching</w>
Pap i</w>
Irgend jemand</w>
D utch</w>
Bra dy</w>
An dre</w>
- Hallo</w>
for med</w>
el er</w>
den er</w>
con fli
A S</w>
- lt</w>
zz i</w>
rup tion</w>
quie tly</w>
i able</w>
den selben</w>
ca ine</w>
Univers ity</w>
Trot z</w>
S al</w>
Mü tter</w>
sol e</w>
ge ments</w>
f ond</w>
b iz
al i</w>
B ie
re pea
radi ation</w>
pre s
ide al</w>
hat tet</w>
gni fic
ci pa
c unt</w>
T EL
Sit zung</w>
Se gen</w>
S S
Bur t</w>
un fortunate</w>
te sted</w>
sm aller</w>
lo cated</w>
fess elt</w>
be weg
T ill</w>
SCREAM ING</w>
Mo dell</w>
H .I.
wea kness</w>
train ieren</w>
th ick</w>
statt dessen</w>
sh outing</w>
plan ted</w>
fin est</w>
co des</w>
Justi ce</w>
H annibal</w>
Gar rett</w>
Col t</w>
um my</w>
schrei bung</w>
Mer k
Ariz ona</w>
A ktion</w>
we hren</w>
symp toms</w>
re tte</w>
k lassi
coo kies</w>
be tt</w>
Nik ki</w>
Kur z
Ein satz
y a
requ ires</w>
immer hin</w>
b lichen</w>
ali bi</w>
G rie
pro fit</w>
iz ei</w>
hom icide</w>
al though</w>
R äu
Fried hof</w>
Öff nen</w>
stü cke</w>
pro pos</w>
obl ig
le e</w>
fla tter
ent on</w>
dunkl en</w>
bor ro
W u
Relig ion</w>
Gesch wor
Ell is</w>
za hl
thr ough
ra tional</w>
ph ine</w>
oper ate</w>
occur red</w>
heada che</w>
S cre
Ret tung</w>
Pro je
Phili ppe</w>
Abig ail</w>
supp er</w>
lea ders</w>
gek nallt</w>
f tlich</w>
confi dent</w>
cap ture</w>
Z orn</w>
Tepp ich</w>
Ste vie</w>
F eu
z ombie</w>
shi tty</w>
i ken</w>
he ck</w>
f old</w>
be kamen</w>
app eared</w>
U su
trau t</w>
thin g
sen der</w>
on ic</w>
near by</w>
concent rate</w>
ass assin
Mil ch
C atch</w>
w ein
unter schie
star ren</w>
mi te</w>
fa c
N etz
Kranken schwester</w>
Ch ange</w>
com plain</w>
Sh uttle</w>
Lea gue</w>
C ot
te s
so ffen</w>
kno cking</w>
co in</w>
Kra wa
tro cken</w>
pra yer</w>
at mosp
B I
sh ut
pla tes</w>
k at</w>
fri dge</w>
frau d</w>
cou p
Han del</w>
Auf nahmen</w>
sprech ung</w>
mi stress</w>
geb unden</w>
enttäu schen</w>
aufge halten</w>
Slo ane</w>
R .
Pla ce</w>
Fähig keit</w>
Di ffer
D r
B um
ge kannt</w>
asse m
ab sichtlich</w>
Ste vens</w>
RE I
O hio</w>
Frem de</w>
F lotte</w>
De ep</w>
stau rants</w>
st unde</w>
ne e</w>
hol te</w>
abge holt</w>
Ro b
Ama zing</w>
zwei fel
ur i</w>
ta tions</w>
j am</w>
aly pse</w>
Kan al</w>
H ills</w>
Fer r
F OR
Bra d
An blick</w>
- Danke</w>
durch suchen</w>
dent ally</w>
com bat</w>
a te
Mar ian</w>
telefon iert</w>
man u
en try</w>
d us</w>
d ged</w>
au spro
Ver kehr</w>
R ico</w>
Mer lin</w>
Ab gemacht</w>
ver fi
sa ft</w>
br and
ble ed</w>
Tur tle</w>
ti ven</w>
ta ils</w>
he bt</w>
dis cover</w>
di al</w>
Stra ight</w>
mei ste</w>
hal b
gefre ssen</w>
Bor gia</w>
Atlan tic</w>
suit case</w>
Zauber er</w>
Ta king</w>
Ta gebuch</w>
Sim one</w>
Sch ieß</w>
Ev ans</w>
E ich
zo o</w>
wa ter
tt chen</w>
stru cture</w>
so da</w>
mit teilen</w>
i ah</w>
gi sche</w>
col league</w>
antwor te</w>
Para dies</w>
- Not</w>
verge u
room mate</w>
fig ures</w>
an tes</w>
wei chen</w>
ti re</w>
h ie
Rou te</w>
Lor i</w>
Li v</w>
Chine sen</w>
über wäl
über wachen</w>
ver lierst</w>
vel and</w>
im per
get äu
aus machen</w>
Ke kse</w>
Jo yce</w>
Gan gster</w>
De vil</w>
B eute</w>
to on</w>
str ing</w>
g oods</w>
Pen n
succe ed</w>
re ve
free zing</w>
bel ogen</w>
be gun</w>
ath le
Met ropol
Dru ck
un wichtig</w>
produ ction</w>
os ch
m all</w>
foc used</w>
erstaun lich</w>
Verli erer</w>
Ste ph</w>
Dor is</w>
Aus gang</w>
wol ves</w>
stri ert</w>
min us</w>
an gebracht</w>
Whe ther</w>
Mum my</w>
A propos</w>
wen de</w>
v ault</w>
ul u</w>
in sul
ch ung</w>
re ment</w>
or i
citi zen</w>
Al ready</w>
ge sessen</w>
boo ked</w>
Wett bewerb</w>
WH I
Fe bru
Dar k</w>
un en</w>
remo te</w>
re pair</w>
p lu
i ves</w>
ei gnet</w>
assi stance</w>
P lö
Lä sst</w>
G abri
zurück geben</w>
s ang</w>
her oin</w>
g loves</w>
fün f
ein geschlafen</w>
cool er</w>
ausge gangen</w>
Vaugh n</w>
Tick ets</w>
Neu n</w>
vorbei kommen</w>
sta tions</w>
re quired</w>
r eine</w>
lich st</w>
gesp räch</w>
gel in
chem ical</w>
app lau
Mar ines</w>
Anton io</w>
1 st</w>
l ernst</w>
grün den</w>
ern ä
Ir on</w>
Gehir n
F lan
D rau
pain ted</w>
c ried</w>
Thor n
Schä tze</w>
SPEA KING</w>
K auf</w>
C oul
5 1</w>
scho ck
ma x
Ma ck</w>
Hu gh
Fortsch ritte</w>
Chi cken</w>
Ces are</w>
4 1</w>
stub born</w>
si ons</w>
mü sstest</w>
il and</w>
honey moon</w>
bra ce</w>
Ver spä
Loy alität</w>
F unk</w>
E ss
Cle an</w>
Aus flug</w>
Ar mer</w>
pas ses</w>
du mm
cl ou
bein gs</w>
Pre mier
Franz osen</w>
Ca thol
verpflich tet</w>
schme cken</w>
p ill</w>
in et</w>
glück licher</w>
cir cus</w>
brau chten</w>
Stell t</w>
Robin son</w>
Ch i</w>
sä tze</w>
osex u
mana gement</w>
k öp
inst in
in sult</w>
gefäll igst</w>
con qu
aufmerk sam</w>
ap el</w>
Rett ungs
K ung</w>
Ju ly</w>
Jas per</w>
Dra gon</w>
2 ,000</w>
schreck lichen</w>
schlä gst</w>
op fern</w>
gi l</w>
d al
cor d</w>
che er</w>
Ri ver
Off ice</w>
DE A</w>
we e</w>
vis ions</w>
verrü ckten</w>
psy cho
lich em</w>
ge se
ck no
be ans</w>
Sul tan</w>
Mar ch</w>
K ick</w>
7 00</w>
plan ts</w>
gran ted</w>
H ER</w>
Gu ar
wund ere</w>
ne ttes</w>
ent gegen
de mands</w>
bur den</w>
ba cken</w>
as signed</w>
Kü ste</w>
Herzin farkt</w>
B oom</w>
ver rä
terror ists</w>
smo oth</w>
p y
d ger</w>
Jos hua</w>
Dan ke
pp chen</w>
mar ked</w>
Stri ke</w>
Priv ate</w>
K auf
Ber na
wu chs</w>
ver kaufe</w>
th rea
kä l
gel acht</w>
dr au
conc erns</w>
bewusst los</w>
T ac
Mother fucker</w>
Hu hn</w>
sha w</w>
po l</w>
mm ers</w>
ge stehen</w>
fli p</w>
dunk le</w>
Woh l
St recke</w>
Schwar zen</w>
N y
E bene</w>
wieder kommen</w>
verga ß</w>
strate gy</w>
ic y</w>
grau sam</w>
grand pa</w>
depre ssed</w>
Gil es</w>
Br and</w>
tur key</w>
spra che</w>
p re</w>
gen u
del ia</w>
car go</w>
be wiesen</w>
whi skey</w>
war s</w>
sa il</w>
ro unds</w>
gesp rungen</w>
ge e</w>
assh oles</w>
Schil de</w>
O ll
En kel</w>
D J</w>
ver sprach</w>
so ber</w>
oxy gen</w>
boo ze</w>
We ssen</w>
Indi ans</w>
E ben</w>
schlimm ste</w>
sch a</w>
ne ys</w>
gna r</w>
dau ghters</w>
cre di
K ni
Isa ac</w>
F otogra
&apos; LL</w>
über nimmt</w>
p ole</w>
o bili
lan e</w>
j ected</w>
gek la
g lu
dar unter</w>
aktivi ert</w>
Hühn chen</w>
Gen ie
Christ ina</w>
weg nehmen</w>
probi ert</w>
par ole</w>
es is</w>
Herausfor derung</w>
re tired</w>
pois oned</w>
la me</w>
heil igen</w>
aw fully</w>
Ru hm</w>
Ri o</w>
me etings</w>
d r</w>
cat ching</w>
bewa hrt</w>
Al terna
we glaufen</w>
su b</w>
pea ceful</w>
de ton
ab use</w>
Trau er</w>
K los
Da ch
im er</w>
commer cial</w>
G ates</w>
G am
D. C.</w>
D amp
Beru higen</w>
wh el
wer ke</w>
u h
m ich
for ensi
ent gegen</w>
dren al
an ständig</w>
Good night</w>
Cour se</w>
- Die</w>
wi s
we ars</w>
pp s</w>
i ater</w>
be er
au to
Kin des</w>
Ka ffe
Ein spruch</w>
DE AN</w>
vie ws</w>
j unk
coun sel
angel s</w>
anc est
Schwar z</w>
O st
H.I. E.L
zie hung</w>
ma tisch</w>
i v</w>
an walt</w>
Wra ith</w>
stür zt</w>
lei tet</w>
invisi ble</w>
identifi ziert</w>
fü ll
bur st</w>
Wor d</w>
Tim ing</w>
Schmu ck</w>
Rol and</w>
F at</w>
wa chte</w>
sp en
photograp h</w>
n in
f asse</w>
W u</w>
V ice</w>
Ter r
S mi
Kr one</w>
KN UR
we send</w>
ten nis</w>
s op
los igkeit</w>
engin es</w>
di stin
bot tles</w>
Ver le
Spiel t</w>
Sil ence</w>
Sa ft</w>
Man dy</w>
E D
relation ships</w>
clu bs</w>
Lan de
Gegen wart</w>
Assi sten
discu ssion</w>
de eper</w>
Secre tary</w>
S le
S ear
E z
8 5</w>
ur ing</w>
se aled</w>
la de</w>
fir ma</w>
dür ft</w>
Woll test</w>
W ick
S. H.I.E.L
Ka is
I o
Ab end
qu is</w>
n in</w>
gän ge</w>
gest ritten</w>
a ktiv</w>
Sm all</w>
M ic
Ab len
Ä US
ein halb</w>
der selbe</w>
U h
Sal at</w>
Medi a</w>
Gesch windigkeit</w>
Aus nahme</w>
st chen</w>
occ as
and au
We stern</w>
Ro dney</w>
Me an
Kau tion</w>
In f
wei r
so cks</w>
kur zem</w>
hn ten</w>
er for
besor ge</w>
Vor sit
Verschwin det</w>
Lit er
I ce</w>
Cle veland</w>
&apos; you</w>
ri dor</w>
pre c
ge wünscht</w>
de er</w>
ch in
bal lo
as hing</w>
Swe etie</w>
Samu rai</w>
Kapit el</w>
Ge ständnis</w>
5 7</w>
sti cking</w>
stat es</w>
ger icht</w>
dri ven</w>
Su cht</w>
But ler</w>
Bru st
- Is</w>
Ä hn
wr apped</w>
tot er</w>
sp li
p o</w>
or p
inten ded</w>
ch op</w>
U mar
D rit
An wesenheit</w>
y -</w>
verletz ung</w>
tr o</w>
to e</w>
te ss</w>
s ley</w>
le bten</w>
4 9</w>
sy l
rau t</w>
par ked</w>
du mmen</w>
Ziel e</w>
Y os
Wit we</w>
Ver suche</w>
Gener ation</w>
Dreck sker
Cr ystal</w>
quar tier</w>
inst ance</w>
gewe ckt</w>
ein setzen</w>
eat re</w>
Qu entin</w>
Hen ri</w>
Du ck</w>
weiter er</w>
normal er</w>
gewöhn liche</w>
ger ing
disp os
destru ction</w>
col leagues</w>
app ly</w>
Verrü ckte</w>
To gether</w>
wunder schöne</w>
ur n</w>
limit s</w>
lich sten</w>
gerä umt</w>
anzu sehen</w>
W et
SH O
J ury</w>
I -</w>
Ha aren</w>
um zu
to oth</w>
mat ches</w>
l end</w>
enga gement</w>
Ver sicher
O ze
Kontr oll
Broo ke</w>
st opp</w>
ri a</w>
pe an
p leite</w>
hüb schen</w>
fil ms</w>
durch gehen</w>
Z ar
St eak</w>
Far ben</w>
Cor delia</w>
superi or</w>
stu died</w>
shoot er</w>
schön ste</w>
ra ising</w>
pri me</w>
k lei
ac qua
W öl
Mög licherweise</w>
Mus li
G ul
Fin an
F ans</w>
Ba y
us ions</w>
s k</w>
necess arily</w>
main tain</w>
l n
head quarters</w>
arch it
ab andon</w>
Zwischen zeit</w>
Tick et</w>
M M
Jul iet</w>
ver der
olo ge</w>
neh m
gro unds</w>
en vel
c ope</w>
Nar ren</w>
Ma gic</w>
I vy</w>
vor über
schä men</w>
saf ely</w>
po ker</w>
mensch lich</w>
er land</w>
comp ound</w>
ali ze</w>
L äu
JOH N</w>
Gri ffin</w>
ssi v</w>
s have</w>
ll en
hom eless</w>
gen utzt</w>
but ter
S tru
Pos i
Fahr zeug</w>
A be</w>
vö gelt</w>
shor tly</w>
reck on</w>
nachzu denken</w>
me ckt</w>
los lassen</w>
gewöhn liches</w>
gehei me</w>
ex pression</w>
Th ea</w>
K rei
A mel
ver tragen</w>
ten dlich</w>
relig ion</w>
re mark
dra gon</w>
b assy</w>
Re c
Ran ch</w>
tap fer</w>
schul det</w>
psych o</w>
prac tic
nie ce</w>
lü ge</w>
k ooper
g um</w>
caus ing</w>
bat tery</w>
Ver kehr
Tan k
Sch icht</w>
Jul i</w>
G .
Che er
A ber
fre sh
c ence</w>
Ver handlung</w>
S än
IN K</w>
Fran ken
win z
ma ted</w>
m our
lau fe</w>
dig lich</w>
bu cht</w>
a king</w>
Wo dka</w>
Lu c</w>
Ha yes</w>
raus gehen</w>
o .</w>
Kri se</w>
Gelie bte</w>
Ar z
sha king</w>
s nu
ner ves</w>
l te</w>
be stimmen</w>
Ver änderung</w>
Tru ppe</w>
I i
tap es</w>
rec eption</w>
flo g</w>
blan k</w>
benö tigen</w>
beg rei
amü sieren</w>
Whit ney</w>
Wh enever</w>
Re cht
voll ständig</w>
trin k</w>
si mu
re cover</w>
ma keup</w>
Plö tzlich</w>
N SA</w>
Fur cht</w>
Blut druck</w>
&apos; m
ver laufen</w>
ot y
kl er</w>
dar y</w>
aus richten</w>
ann ed</w>
I CE</w>
Heil iger</w>
under stands</w>
tur en</w>
sh uttle</w>
phi a</w>
genau er</w>
ble ssed</w>
b out</w>
Ster n
Kol le
E ben
Dur ing</w>
Antwor te</w>
wa ves</w>
tau cht</w>
scho ols</w>
kün st
dre w</w>
be fürchte</w>
Zeu gen
Sch wer</w>
Pri ce</w>
Lu thor</w>
L S</w>
Dan ce</w>
w yer</w>
st alt</w>
ro b</w>
inter nation
cham ber</w>
ch se</w>
Corpor al</w>
100 .000</w>
pros titu
mör der</w>
hos tages</w>
Zu cker
Peter son</w>
P ER
O range</w>
Je ws</w>
Je w</w>
vulner able</w>
tech nically</w>
re volution</w>
ent zün
do x</w>
cH 00
Kl ein</w>
Galac tica</w>
A kti
la del
f euer</w>
employ ee</w>
dro ps</w>
bo ats</w>
Schlä ger</w>
Mittwo ch</w>
Me aning</w>
Gewin n</w>
Ab schie
sich ere</w>
qu et</w>
los zu
irgend einen</w>
ele gant</w>
Qu it</w>
NY PD</w>
Er fin
Betrü ger</w>
we ssen</w>
sli de</w>
k auf</w>
ff a</w>
Wer te</w>
U L
Ka th
Hex en
A va</w>
um wer
jun ior</w>
igh ten</w>
gnific ent</w>
ge hasst</w>
drän gen</w>
dra wer</w>
dea ths</w>
au th
Wör ter</w>
Wus sten</w>
Mer cedes</w>
Eu rem</w>
Bo ot
B ones</w>
po o</w>
person ality</w>
de ss</w>
d well</w>
as er</w>
W ang</w>
S ER
Pra xis</w>
Drau ßen</w>
Bu il
Bet ween</w>
Anwäl tin</w>
sau ber
ohn mächtig</w>
fu se</w>
frau en</w>
f es</w>
compan ies</w>
Z ü
Un gefähr</w>
Psych iater</w>
F let
Au stin</w>
Al ber
- Just</w>
zeu gt</w>
wi d
wer fe</w>
u pper</w>
tar i</w>
t os
fü hl
fä hig
Or te</w>
Mö gen</w>
Mos cow</w>
E sc
to wel</w>
schü tze</w>
requ ested</w>
geb lich</w>
fä llen</w>
distur b</w>
co wboy</w>
Ra gnar</w>
KL ING
H eart</w>
Ein bruch</w>
Chi ps</w>
C old</w>
Bro thers</w>
- --</w>
wech s
regi ster</w>
pun ish</w>
iz z
gr in
che er
Unter schrift</w>
R eu
H ä</w>
riesig en</w>
p our</w>
lo cate</w>
heira te</w>
app eal</w>
Rober ts</w>
An ru
wür fe</w>
terri fied</w>
sta mmen</w>
regi stered</w>
enter ing</w>
dan cer</w>
be hin
Iren e</w>
Gemä lde</w>
Fer ien</w>
Em peror</w>
Dap hne</w>
Champ ion</w>
A mt</w>
vis itors</w>
ten se</w>
tal ented</w>
cur rently</w>
De b</w>
ver ängst
stri es</w>
st entin</w>
ri schen</w>
ly n
konta kt</w>
ge wei
back wards</w>
abili ties</w>
a ye</w>
Spani en</w>
Lin ks</w>
Ein gang</w>
D oll
re verse</w>
nee dle</w>
investig ate</w>
gewi ss</w>
cho os
ch eln</w>
Sa y
Jon ah</w>
verbin den</w>
tran splan
bestimm te</w>
be fragen</w>
N ü
merk wür
est ro</w>
environ ment</w>
ch rist
any on</w>
W ish</w>
Verdäch tige</w>
Ver ständnis</w>
Soll test</w>
Simm ons</w>
Sh annon</w>
Gefän gnis
star rt</w>
schrei b</w>
l ein</w>
conspira cy</w>
Sou th
Auf zug</w>
whe els</w>
läu fst</w>
inspi ri
condu ct</w>
cha os</w>
be standen</w>
autop sy</w>
W O
Vo gel
Nachbar schaft</w>
Laugh s</w>
LA CHEN</w>
L up
lu x
ladel phia</w>
em onie</w>
Won ach</w>
L ila</w>
to es</w>
rei cher</w>
peri meter</w>
en ing</w>
desp ite</w>
bro ad</w>
ble ssing</w>
Schießer ei</w>
D ig
inten se</w>
gesch le
electri c</w>
da ily</w>
c om</w>
Zau n</w>
Ser ge
Dau men</w>
B ein
schli mme</w>
iel le</w>
cr ashed</w>
a im</w>
Sp ruch</w>
Fa ster</w>
A cade
wich tigste</w>
re en</w>
hi c</w>
du schen</w>
depos it</w>
be cue</w>
b ells</w>
Trau m
- Can</w>
ten den</w>
employ ees</w>
Kl ar
H AR
Char ming</w>
2 nd</w>
tr om
ste te</w>
sinn los</w>
re pa
put zen</w>
boar ding</w>
al ism</w>
Part ys</w>
Kra ft
Ca st
Bren da</w>
susp ected</w>
ra m</w>
o k
n ell</w>
iz ieren</w>
hoff te</w>
fi fty</w>
del ay</w>
dec ei
blan ket</w>
al y</w>
Sprin g
So cken</w>
Chel sea</w>
tain ment</w>
sti schen</w>
propos al</w>
p fe</w>
n i</w>
assu ming</w>
akzep tiert</w>
Sp on
Koordin aten</w>
Kol lege</w>
J ump</w>
I ron
Hal ey</w>
For sch
Flor ence</w>
B ert</w>
vor wärts</w>
star tet</w>
m anner</w>
Co y</w>
y u
testi mony</w>
shoul ders</w>
schedul ed</w>
p lot</w>
gef iel</w>
clos est</w>
Verletz ungen</w>
Stei gen</w>
Lu is</w>
G ut
schlimm sten</w>
ro d</w>
ri k</w>
mag ne
har ter</w>
ha ck</w>
gel o
faith ful</w>
ass ist</w>
Pap st</w>
E imer</w>
Al one</w>
survi val</w>
p atch</w>
interess ante</w>
er r
betra chten</w>
Verspä tung</w>
J et</w>
Gel ände</w>
stor age</w>
so eben</w>
separ ated</w>
rist s</w>
inter nal</w>
i as</w>
de uten</w>
bre che</w>
Zo o</w>
Syl via</w>
Sp rung</w>
Sp inner</w>
P AR
N ichte</w>
Che ster</w>
Ali en</w>
un able</w>
st ink</w>
mu ßt</w>
it able</w>
garanti ert</w>
fä l
coordin ates</w>
cc er</w>
can cel
Wei b</w>
Nap ole
M aus</w>
L ine</w>
L ars</w>
Groß es</w>
Gei sel</w>
G inger</w>
Fri sur</w>
Ar row</w>
ver treten</w>
mi ll</w>
me x
he ftig</w>
deter mine</w>
de alt</w>
Zwill inge</w>
Mär chen</w>
th aus</w>
n irgends</w>
liqu or</w>
fol k</w>
W ände</w>
U .
Tö chter</w>
Seel en
Le op
Kul tur</w>
Hü gel</w>
But ter
B ass</w>
Außer ir
wre ck</w>
r one</w>
le ton</w>
k unde</w>
fas cinating</w>
Versa ger</w>
Spar ta
Phi ladelphia</w>
ster o
fü llt</w>
au to</w>
Viz e
Sp ion
R ic
Par t</w>
G lä
shir ts</w>
rü cken</w>
polic eman</w>
o ven</w>
individu al</w>
genü gt</w>
gehei lt</w>
aus geben</w>
Su gar</w>
Gür tel</w>
Fe deral</w>
Danke schön</w>
Bet rug</w>
Appar at</w>
wom öglich</w>
lie ge</w>
kran k
finger prints</w>
bestra fen</w>
Sus ie</w>
po ckets</w>
pla tzt</w>
p el
n ten</w>
la ying</w>
kur zen</w>
e se
arro gant</w>
Mc Gee</w>
Ger ede</w>
über nommen</w>
sal es</w>
produ ce</w>
ot zt</w>
os sible</w>
ol ic</w>
mater i
gelei stet</w>
Zie ht</w>
Whi sky</w>
Symp tome</w>
Schil d
E yes</w>
Cyn thia</w>
z or</w>
k it</w>
aff ect</w>
T our
Sti ll
I F</w>
Ed wards</w>
tre te</w>
läu b
lo hnt</w>
Ver an
Sternen fl
Sch in
PI EP
Mau l
L ER</w>
K ha
ka sten</w>
ig ste</w>
ex hi
ben ehmen</w>
Can dy</w>
through out</w>
nut zt</w>
f chen</w>
alterna tive</w>
Träu men</w>
Ch et</w>
1 20</w>
ta stes</w>
entschei det</w>
appro ve</w>
W ell
Li zzie</w>
L om
Hu man</w>
Exist enz</w>
Bill ie</w>
zusammen arbeiten</w>
pro cess
ing s
engine er</w>
en z
di sh
c af
Tech ni
P A
Hä ltst</w>
Fla schen</w>
El sa</w>
Be at</w>
zu folge</w>
unter brechen</w>
un conscious</w>
to ys</w>
sei st</w>
sch rä
rit ual</w>
ge mo
delic ate</w>
bu ddies</w>
Some where</w>
Flet cher</w>
win d
whi sp
höch stens</w>
gehei men</w>
bar gain</w>
ant in</w>
Vik tor</w>
Sal z</w>
Cy ril</w>
5 8</w>
ste p
sque eze</w>
se du
natur ally</w>
grö ßer
gre ss
go at</w>
fant as
ear ing</w>
cover s</w>
ci o</w>
advan ced</w>
Wer be
Ver tre
Ver sehen</w>
To wn</w>
Sur prise</w>
Lau ft</w>
K ik
Bu reau</w>
Begin n</w>
y .</w>
kidn apping</w>
h ä</w>
er hielt</w>
Kap iert</w>
J ün
Fel sen</w>
Den ver</w>
soa p</w>
mi ssi
ge weint</w>
Ro gers</w>
RI CHT</w>
Pen ta
La von</w>
Kö der</w>
Craw ford</w>
B on</w>
scre wing</w>
pot atoes</w>
e ur</w>
b ic
Rake te</w>
Ma hl
F i</w>
zer in</w>
ver i
rie sige</w>
magi cal</w>
gla tt</w>
P assi
Hall elu
la ter
gewin ne</w>
forgi veness</w>
W es</w>
Sub titles</w>
So fa</w>
whi stle</w>
p im
k au</w>
fan gs</w>
W ächter</w>
T ank</w>
T al</w>
Stat us</w>
N etter</w>
Konkur ren
Cal vin</w>
vis ual</w>
celebra ting</w>
aggre ssive</w>
Schwan ger
Er st
Di agn
mo thers</w>
fil ed</w>
bi as</w>
Sig n
Imp ul
For eman</w>
Fla mmen</w>
Ä N
versch wendung</w>
sto ck
ologi sche</w>
o ke</w>
kl es</w>
e hren</w>
cl er
Table tten</w>
Suz anne</w>
Ga me</w>
G one</w>
Fuß ball</w>
zurück gehen</w>
tiss ue</w>
pro ph
ni ssen</w>
mp fe</w>
mann ers</w>
in su
gn ä
explo diert</w>
c ie</w>
Sym bol</w>
Raum schiff</w>
H ill
E V
wider lich</w>
o ath</w>
er fuhr</w>
aus schalten</w>
Ver mis
Kok ain</w>
JA CK</w>
Gi bst</w>
En gin
vo k</w>
schn ü
lau f
happ ier</w>
Mel anie</w>
Auf zeichnungen</w>
tw ins</w>
ta gs
signific ant</w>
oper ating</w>
geschie den</w>
gam bling</w>
die selben</w>
1 6.</w>
öff ne</w>
z ück
tu ral</w>
sla ves</w>
par ade</w>
k reis</w>
I DE</w>
Bom ben
3 rd</w>
ver w
stre tch</w>
le ment</w>
kur z
hy p
arran gement</w>
Mann schaft</w>
Hop efully</w>
Go tham</w>
Ge hört</w>
- Hello</w>
wech sel</w>
versch lossen</w>
ul ti
smar ter</w>
pil low</w>
neu tr
geflo hen</w>
e sten</w>
commit ment</w>
Mos es</w>
Mc C
Fin ch</w>
Broad way</w>
zu ständig</w>
sti ft</w>
r ott</w>
mm ere</w>
in spector</w>
grün dlich</w>
gefä l
ge sicht</w>
au sh
L ichter</w>
IS T</w>
sp ü
she ets</w>
schuldig ung</w>
mot or</w>
men u</w>
le diglich</w>
h ant</w>
din er</w>
bu cket</w>
be ats</w>
auf gebaut</w>
T ritt</w>
Jä hr
respekti eren</w>
ch ir
boo k
benut ze</w>
Selt sam</w>
Se a</w>
P o</w>
Nach bar</w>
Ex zell
Com mand</w>
- Did</w>
wis dom</w>
sin ger</w>
rev eal</w>
lü ss
grü nen</w>
gh etti</w>
gel angen</w>
do w
Tragö die</w>
S ort</w>
S ac
Nik ol
Klin gon</w>
Kanz lei</w>
Grund stück</w>
verschie ben</w>
train iert</w>
rich tiges</w>
p harma
lo vers</w>
h ert</w>
consi der
Sh epherd</w>
M ills</w>
M ea
Fa ch
samp les</w>
hör ung</w>
dra matic</w>
angri ff</w>
Vol li
Ven e
Re par
Er den</w>
Blöd mann</w>
Blu e
100 ,000</w>
v ain</w>
me sser</w>
inj ury</w>
frea ked</w>
af fairs</w>
Haupt sache</w>
verprü gelt</w>
ver legen</w>
sta che</w>
squ ir
pos ted</w>
har dt</w>
ein geschlossen</w>
bö ser</w>
Sch mei
Ros en
Ki ssen</w>
Ja ffa</w>
Bar geld</w>
is --</w>
im pact</w>
gesch woren</w>
g ige</w>
for bi
b ungen</w>
an do</w>
Zi vili
Ma che</w>
Ka bel</w>
Ak zent</w>
surpri ses</w>
r hyth
proto col</w>
gi en</w>
gen ial</w>
anx ious</w>
Y v
St ala
I. D.</w>
Hugh es</w>
vor m</w>
spot ted</w>
se gne</w>
scra t
ro o
over whel
hei l</w>
expla ins</w>
d eins</w>
brea sts</w>
Le b</w>
E O</w>
Dür fte</w>
Deta il</w>
BE EP
An gekla
&apos; s
ver sagen</w>
pa int
las sung</w>
cu ffs</w>
ci ans</w>
bu dget</w>
Wor king</w>
Bren dan</w>
A round</w>
sna p</w>
ma dness</w>
bas ket</w>
Zentr um</w>
Won der</w>
Reg is
Phi losop
Arch it
kl ü
car t</w>
Test ament</w>
Lauf enden</w>
Ha i</w>
über trieben</w>
un ken
suggest ed</w>
psych ic</w>
mis understanding</w>
hes it
getäu scht</w>
gemü tlich</w>
fab ulous</w>
coo ked</w>
Bri dget</w>
trou bles</w>
star ken</w>
schlei chen</w>
p hr
gele gen</w>
die t</w>
compu ters</w>
Jud ith</w>
Ge werk
F on
le un
e mail</w>
durch ziehen</w>
besch leun
Sig nor
Ma e</w>
La ß</w>
Er stes</w>
DI ST
th al</w>
ren nt</w>
olo gen</w>
mein etwegen</w>
k man</w>
h ten</w>
f illing</w>
c am
ba hn
Sk ye</w>
Cap it
A z
ot ch</w>
os a</w>
mand ing</w>
har ten</w>
get an
ei t
diam ond</w>
a den
Tar nung</w>
Sh ow
R oh
Metho de</w>
Ma in</w>
spar ty</w>
promo tion</w>
pri mi
drei mal</w>
Ter ri
Rei sen</w>
Re vol
Missi ssi
Ma ß
Fran z</w>
Da durch</w>
AB OUT</w>
öff entlich</w>
wa gt</w>
sp uren</w>
her gestellt</w>
durch sucht</w>
dr aus</w>
da tab
d ele
ali ke</w>
Pear l</w>
Ele fan
C hen</w>
Öff ne</w>
völ k
stan tly</w>
o bli
los gehen</w>
k rei
ge packt</w>
blu tet</w>
be setzt</w>
- ich</w>
- There</w>
pre vious</w>
ot gun</w>
mp en</w>
bo te</w>
bo dy
aufge hoben</w>
Val erie</w>
Spit z
PLA YING</w>
COM E</w>
Bar bie</w>
w ls</w>
ver trag</w>
trau e</w>
te dly</w>
schn it
recogn ized</w>
re stra
pr on
im o</w>
gl än
gerei st</w>
buil dings</w>
Tur k</w>
Pa stor</w>
O FF
In genie
Gar cia</w>
G in</w>
Bur sche</w>
Be th
An schlag</w>
wär men</w>
verz ichten</w>
st reichen</w>
st off
nu ll</w>
inst inc
in tel</w>
hüb scher</w>
fran kly</w>
Kompli ment</w>
F RAN
Cl an</w>
sa bot
li sted</w>
fre u</w>
fest genommen</w>
er heben</w>
e e
Schrei b</w>
t et
she et</w>
ma ils</w>
her gebracht</w>
elek tri
contr ary</w>
ak i</w>
Wil le</w>
T ER
Stu fe</w>
Sch rot
S ire</w>
N ig
K it</w>
Assi stentin</w>
Al arm
ste ckte</w>
normal es</w>
n au
multi ple</w>
m ig
ge sorgt</w>
ex am</w>
di vision</w>
Steu ern</w>
Que ens</w>
GASP S</w>
Fü hlst</w>
De aler</w>
änder ungen</w>
ver legt</w>
su ite</w>
stab il</w>
ru mors</w>
jahr elang</w>
cooper ate</w>
We der</w>
W N</w>
Temp o</w>
Sa ge</w>
Pan zer</w>
Bet te</w>
A ct</w>
thie ves</w>
mor t
kontakti eren</w>
immedi ate</w>
her unter
einge setzt</w>
distur bing</w>
col um
cap ac
be sprochen</w>
Sher man</w>
Schwar z
Fau st</w>
Cas sie</w>
wer e
sh ap
m ut</w>
han del</w>
a tional</w>
Ei fer
Do or</w>
1 4.</w>
versu chten</w>
pro ved</w>
gra y</w>
ba g
Wei sst</w>
Verbin dungen</w>
M IT</w>
K lassen
wi dow</w>
t ool</w>
sligh tly</w>
sel ten
auf hört</w>
as hi</w>
Tr ost</w>
Sum me</w>
Ri ker</w>
Lu x</w>
Lab or
Hä ft
High way</w>
Gu sta
G ossip</w>
Bur ns</w>
la c</w>
eigen er</w>
de ckung</w>
Fanta stic</w>
Ar ten</w>
selbst verständlich</w>
rom ance</w>
risk ant</w>
lie gst</w>
gu in</w>
geko cht</w>
caus es</w>
augh ty</w>
apologi es</w>
Vor berei
Tode sur
T IM
SI CH</w>
Ro bbie</w>
Imm obili
Coul son</w>
or ial</w>
ir rt</w>
esti mate</w>
O fen</w>
L .</w>
Acade my</w>
sti cs</w>
kom mando</w>
gelie hen</w>
f aul</w>
enti meter</w>
elep hant</w>
Vi vian</w>
T um
T rü
Re k
La w</w>
Im per
De fen
A tem
zie m
wel s</w>
vis ited</w>
st all</w>
schwö r</w>
sa int</w>
pi ssen</w>
mp tion</w>
mitt elt</w>
f ungen</w>
durch führen</w>
Zir kus</w>
Wä l
Ver fahren</w>
Tren nung</w>
R A</w>
L in</w>
H ass
Bra dley</w>
Aufre gung</w>
Über prü
wi ck</w>
sp häre</w>
invest ment</w>
entde cken</w>
c ers</w>
ad orable</w>
Vor der
Tru dy</w>
Sar ge</w>
Nega tive</w>
My lord</w>
Mor al</w>
L eine</w>
sla p</w>
r igh
c em
argu ing</w>
Z ombies</w>
Strate gie</w>
Spi der</w>
S G</w>
Non sense</w>
Hei mat
Har ley</w>
Er satz
D es</w>
Clau dia</w>
Amel ia</w>
wa ck
ra il
p .m.</w>
hand ling</w>
fo ols</w>
bef ohlen</w>
V ag
Jan ice</w>
Ga il</w>
Ali ens</w>
ti t
m ouse</w>
gef li
er nd</w>
dru ck
de als</w>
brea ch</w>
ben den</w>
al ized</w>
Telefonn ummer</w>
Ba ch</w>
Angele genheiten</w>
wirk ungen</w>
t ner</w>
näher n</w>
mm eln</w>
bur gh</w>
as i
Ver fol
T ust</w>
Konta kt
Irr tum</w>
F E
Bre m
up side</w>
ump y</w>
ti scher</w>
se vere</w>
schie f
ro cket</w>
ge g
do me</w>
compla ining</w>
ci ties</w>
beru hige</w>
Kla vier</w>
Jen kins</w>
Hinter grund</w>
Gener al
G im
Erwachsen e</w>
A bel</w>
5 th</w>
- Get</w>
&apos; s--</w>
ra dar</w>
pre ssing</w>
ch ard</w>
an ca</w>
Ver gebung</w>
Spazier gang</w>
Bor g</w>
An deren</w>
tor n</w>
servi eren</w>
medizin ische</w>
fre u
conven ient</w>
bräu chte</w>
all ed</w>
a chtet</w>
Fä llen</w>
Fin det</w>
r yl</w>
g bar</w>
auss uchen</w>
aus gerechnet</w>
Hel m</w>
B et</w>
sho cked</w>
Charak ter</w>
tra gic</w>
ge fesselt</w>
er öffnen</w>
Mont gom
Imp ossible</w>
F ar</w>
Entfer nung</w>
wie gen</w>
spi on
rea ching</w>
nega tiv</w>
ma ck
develop ment</w>
bu d</w>
bon us</w>
bel a
ST ER</w>
Be cca</w>
B au</w>
vo y
os s
n ör
kos t
gro cer
c ig
S eu
Jour nali
Got t
Co b
öff el</w>
inst it
hl ich
ff any</w>
bl ut</w>
ba ch</w>
Nik ita</w>
Haupt quartier</w>
GIR L</w>
Bren nan</w>
Andre ws</w>
specific ally</w>
sor ts</w>
h oh
c ane</w>
an ern</w>
Qua dr
Par tei</w>
F ili
Af ter
un ting</w>
rel ieved</w>
o bey</w>
l on</w>
incre ase</w>
gerei cht</w>
bl a</w>
bar rel</w>
ar se</w>
R up
E sp
sü ßen</w>
gesp annt</w>
Schach tel</w>
D U
A gentur</w>
shr ink</w>
rie sig</w>
han dy</w>
be stand</w>
Th in
Be eilt</w>
relig iö
m eln</w>
ha w
for getting</w>
a ged</w>
Tat too</w>
G H</w>
Flei sch
Er nie</w>
Cli ff</w>
Cl aus</w>
progra mm</w>
p ump</w>
ll ing</w>
for mul
el er
Verhält nis</w>
T ief
P fe
Le ber</w>
ran ch</w>
ex pos
A ffe</w>
re act</w>
coun tries</w>
co ke</w>
ass ung</w>
Rom ul
Pu ssy</w>
st el
posi tions</w>
las ma</w>
aus macht</w>
Y ard</w>
J i
Fre qu
Cassi dy</w>
Ba xter</w>
At mosp
Ö l
se ch
ktion s
in ev
Z elt</w>
H .</w>
Fal sch</w>
Bei leid</w>
4 .
ve sti
könn tet</w>
[...]
