#version: 0.2
e n</w>
i n
e r
t h
c h
e r</w>
a n
e n
u n
i e</w>
c h</w>
e i
a l
e s
th e</w>
t i
e s</w>
a r
o s
e l
a s</w>
o r
a t</w>
i s
i n</w>
a p
o n
l i
o n</w>
e in
a u
s t
in g</w>
t o</w>
i s</w>
o u
ap os
& apos
w i
an d</w>
&apos ;
r e
o f</w>
t e</w>
a n</w>
un d</w>
d ie</w>
d er</w>
a s
i t</w>
o t
d i
a b
e d</w>
r o
i ch</w>
q u
o m
a t
s ch
th at</w>
e h
t en</w>
d en</w>
o l
v er
n d</w>
qu ot
quot ;</w>
& quot;</w>
b e
l e</w>
u r
w h
o u</w>
r i
is t</w>
d e
er e</w>
v e</w>
g e
o r</w>
m a
r a
u s
y ou</w>
ch t</w>
l e
g en</w>
z u</w>
l y</w>
d as</w>
ei n</w>
&apos; s</w>
a m
n o
i t
w as</w>
w e</w>
s o</w>
ein e</w>
g e</w>
a c
n i
i l
d e</w>
a r</w>
wi r</w>
T h
t er
s i
a l</w>
@ -
@- @</w>
h r
A nd</w>
e t
ti on</w>
h a
th e
ch en</w>
d er
th is</w>
S ie</w>
s a
v on</w>
en t
l o
di es
k e</w>
un g</w>
s ie</w>
v i
as s</w>
o p
n e
u t</w>
s e</w>
en t</w>
s p
u m</w>
f ü
n en</w>
- -</w>
in d</w>
ou t</w>
d ass</w>
ni cht</w>
ar e</w>
t h</w>
e c
li ch</w>
U nd</w>
b er</w>
g en
e m
t er</w>
f f
h ab
al l</w>
i g
b e</w>
e m</w>
w or
m e</w>
l d</w>
i r
m it</w>
f or</w>
al ly</w>
au f</w>
el l
c e</w>
t e
s t</w>
s e
g i
ha ve</w>
ch e</w>
en n</w>
c om
g o
s en</w>
ei t</w>
ti on
ou r</w>
an n</w>
c k
the y</w>
a y</w>
u l
on e</w>
i r</w>
t u
b en</w>
t r
s h
p ro
w ie</w>
c an</w>
m an</w>
al s</w>
I ch</w>
wi th</w>
S o</w>
o w</w>
w er
fü r</w>
w ei
s ich</w>
f or
t s</w>
r e</w>
e x
eh en</w>
m en</w>
s ind</w>
p er
s u
i m
&apos; t</w>
u t
p e
wh at</w>
an d
g h
ein en</w>
hab en</w>
ab out</w>
ö n
g es
t a
b er
in g
p l
w e
i e
de m</w>
d o
wi r
w ar</w>
al l
ou ld</w>
e u
a hr
d en
th er</w>
no w</w>
i c
a ch</w>
l l</w>
ol l
c on
ä n
i er
i m</w>
eh r</w>
s om
no t</w>
u r</w>
k ön
es e</w>
a g
t o
S ch
d o</w>
D as</w>
a tion</w>
u m
d es</w>
h at</w>
I n
g r
a ch
f t</w>
ver y</w>
&apos; re</w>
au s</w>
th ere</w>
th ing</w>
E s</w>
ein er</w>
b es
op le</w>
el l</w>
en sch
us t</w>
I t</w>
u s</w>
c i
ro m</w>
d s</w>
r es
dies e</w>
gh t</w>
li ke</w>
a h
m y</w>
pe ople</w>
ü ber</w>
e l</w>
b r
f rom</w>
g l
an t</w>
v er</w>
W ir</w>
au s
o g
s el
h i
m o
V er
un s</w>
h e</w>
w enn</w>
al so</w>
au se</w>
e ar
ein em</w>
b o
w ar
m e
r u
d u
m or
A r
k ing</w>
un s
t ra
b ut</w>
g an
ü r
d a
p o
b t</w>
g t</w>
ur e</w>
k om
el t</w>
in e</w>
A l
z i
kön nen</w>
j ust</w>
z u
wer den</w>
i h
A n
Th e</w>
P ro
it y</w>
W e</w>
o der</w>
th ese</w>
un gen</w>
es s</w>
a m</w>
B ut</w>
th in
r ei
i f</w>
a d
c o
b y</w>
en d</w>
z en</w>
ch te</w>
au ch</w>
t ed</w>
u p</w>
au f
p ar
s o
h al
be c
ab er</w>
k now</w>
go ing</w>
S t
f in
d ar
k en</w>
the m</w>
h er
k l
0 0</w>
G es
L e
e y</w>
D ie</w>
k ann</w>
a te</w>
G e
lo o
j e
A ber</w>
mor e</w>
w ay</w>
w is
st en</w>
c k</w>
E r
t ing</w>
wh en</w>
w o</w>
M ensch
n e</w>
ing s</w>
in ter
d es
l an
er en</w>
bec ause</w>
e v
am e</w>
wir d</w>
o h
er t</w>
ha d</w>
s ehr</w>
b en
o d</w>
os e</w>
ou r
b ei
li t
z t</w>
a f
ä h
n ur</w>
J ahr
b i
ge t</w>
er s</w>
se e</w>
E n
h ow</w>
thin k</w>
g ro
wh ich</w>
eh t</w>
th ei
k t</w>
w n</w>
h ere</w>
o ther</w>
i d</w>
a tion
m an
hi er</w>
er n</w>
wh o</w>
y our</w>
ö r
gi bt</w>
Mensch en</w>
som e
s ehen</w>
thei r</w>
w ere</w>
d ur
a ti
re ally</w>
ap p
wi ll</w>
D i
m ich</w>
p r
er i
s ein</w>
I n</w>
m er</w>
y s</w>
li e
i hr
as t</w>
w ould</w>
st ell
w ur
d is
A u
f e
&apos; ve</w>
d ann</w>
a ge</w>
f e</w>
s ti
li ch
p h
il li
v or</w>
st ar
ti me</w>
B e
st e</w>
c re
z e</w>
U n
com p
h at
R e
Y ou</w>
b le
z ei
os t</w>
&apos; m</w>
wh ere</w>
t ri
or t</w>
eu te</w>
k s</w>
Th is</w>
th en</w>
s y
un g
der n</w>
a d</w>
no ch</w>
e t</w>
g u
d on</w>
wor ld</w>
et was</w>
f i
I h
b u
ac tu
ma l</w>
h as</w>
te t</w>
m ö
ä ch
an der
ab le</w>
t en
ol og
g h</w>
l en</w>
hab e</w>
s en
in to</w>
m us
som e</w>
g er
t al
l a
h e
v or
r an
actu ally</w>
ear s</w>
dies er</w>
ü ber
o b
n ach</w>
un der
ch n
d ay</w>
ac k</w>
g o</w>
m ir</w>
ou gh</w>
es t</w>
un d
li chen</w>
en ce</w>
m u
y ears</w>
th ings</w>
b l
S p
be i</w>
f ac
ti m
u n</w>
m ehr</w>
v es</w>
i el
N ow</w>
ti c
el y</w>
W enn</w>
ent s</w>
ch ti
t ur
li che</w>
s ol
wir k
k eit</w>
sch a
W elt</w>
w en
e p
w ant</w>
h er</w>
ch an
ein f
w ä
w a
et zt</w>
al le</w>
es s
f o
d y</w>
k on
h in
le t
vi el
Th ey</w>
d r
ch ten</w>
a k
h app
p p
c l
c ould</w>
ma ke</w>
g el
g te</w>
n te</w>
w ür
p a
au en</w>
f ir
be en</w>
di ff
f f</w>
ma chen</w>
ü s
y ing</w>
E in
t le</w>
on g</w>
g er</w>
ch t
f en</w>
b ra
u e</w>
ri ght</w>
f u
ch i
f ri
sa id</w>
kom men</w>
wur de</w>
i de
Ih nen</w>
as s
G r
v ing</w>
im mer</w>
in n
st u
com e</w>
m ent</w>
dur ch</w>
ein es</w>
m en
p or
ü ck
al i
z um</w>
th an</w>
some thing</w>
ü n
or y</w>
m t</w>
t re
m ost</w>
i c</w>
w er</w>
h eit</w>
at ed</w>
h ei
t wo</w>
ou s</w>
wor k</w>
wirk lich</w>
o m</w>
g re
be g
p os
d a</w>
n o</w>
mu ch</w>
0 00</w>
ig h
ier en</w>
o ff
at er</w>
an s</w>
ä u
p re
d ing</w>
m eine</w>
be t
i es</w>
m on
Al so</w>
diff er
s on
as si
m it
an k</w>
D in
st r
fir st</w>
tion s</w>
tu n</w>
al e</w>
b ack</w>
th ose</w>
ol d</w>
wei l</w>
ß en</w>
lit tle</w>
f l
go t</w>
m ar
g a
en ti
am p
ier t</w>
gl au
un ter
m s</w>
t ro
n eh
w oll
&apos ;</w>
m er
ne w</w>
g ra
vi el</w>
l ei
loo k</w>
on s</w>
is chen</w>
l t</w>
ä t
ung s
m p
en s</w>
Th at</w>
b le</w>
o ver</w>
sa y</w>
h is</w>
E r</w>
st em</w>
as sen</w>
ri e
re c
ac e</w>
W as</w>
ec t</w>
li fe</w>
ge f
uns ere</w>
m in
n t</w>
is che</w>
dies es</w>
at en</w>
k ed</w>
hat te</w>
s on</w>
k en
d am
ble m</w>
t y</w>
sa gen</w>
m üs
ch er</w>
re e</w>
f ol
as e</w>
L eute</w>
il d</w>
ihr e</w>
ti ve</w>
el n</w>
on ly</w>
ge b
dies em</w>
V or
k ind</w>
fu l</w>
W hat</w>
k eine</w>
t s
ma cht</w>
W h
v en</w>
ä t</w>
t ei
bo dy</w>
Z eit</w>
e k
d n</w>
du c
K in
ä r
w el
ar bei
Le ben</w>
ta ke</w>
di es</w>
d re
ie l</w>
ff en</w>
ne ed</w>
F ra
ver y
sh e</w>
z us
h el
wi e
i er</w>
o o
k an
p u
man y</w>
c ar
viel e</w>
ein g</w>
th r
Din ge</w>
an y</w>
b el
we i</w>
f ra
T e
ev en</w>
n at
h ar
müs sen</w>
p res
lo t</w>
sa gte</w>
1 9
M e
it s</w>
dies en</w>
war en</w>
einf ach</w>
fü hr
o und</w>
w s</w>
ti sch
h u
chn olog
t ure</w>
st and</w>
K on
o b</w>
r el
wis sen</w>
sel f</w>
il l
Jahr en</w>
ä l
gl ei
n ten</w>
i ge</w>
stell en</w>
s oll
is t
ec on
un k
co un
M a
di d</w>
y e
b in</w>
f a
Th ere</w>
ar ound</w>
ge w
in s</w>
Ar t</w>
eh r
O r
us e</w>
ges ch
m at
in gen</w>
b st</w>
z wei</w>
2 0
go od</w>
j etzt</w>
ell en</w>
Z u
and ere</w>
igh t</w>
g ehen</w>
uns er
do wn</w>
&apos; ll</w>
wi ck
d ed</w>
g eht</w>
ander en</w>
ge ben</w>
f an
s ur
e very
de t</w>
th ou
scha ft</w>
differ ent</w>
ei cht</w>
un den</w>
sch ie
In ter
for ma
thr ough</w>
ih r</w>
Ges chi
A us
ti c</w>
D er</w>
v ed</w>
ell eicht</w>
s ame</w>
el le</w>
z ur</w>
tr y</w>
por t
c al</w>
fin den</w>
on en</w>
er z
m i
Un ter
b eh
un i
all es</w>
F or
W ie</w>
neh men</w>
& #
&# 9
p i
f er
wür de</w>
a u</w>
b as
ß e</w>
N e
v ol
ter n</w>
z ur
r on
s c
dam it</w>
g eh
per c
c all
p ut</w>
W ell</w>
ti es</w>
ü ck</w>
at ing</w>
1 0</w>
fü h
ri t
b is</w>
ver st
c es</w>
br au
M ar
ei l</w>
H e</w>
o k</w>
s ch</w>
or s</w>
es t
n er</w>
b eing</w>
an s
En t
p assi
M illi
ver s
si de</w>
er g
e very</w>
Jahr e</w>
si on</w>
w an
S ta
le ar
do ing</w>
d u</w>
ah r</w>
t el
o ff</w>
ver su
m is
ye ar</w>
ne t</w>
den ken</w>
let z
I f</w>
g es</w>
v el
th ree</w>
s er
pl an
sh o
i on</w>
a in</w>
d an
W e
h o
sel bst</w>
B ei
ei ten</w>
om e</w>
an y
w ell</w>
g ing</w>
mus s</w>
g ut</w>
n ing</w>
re d</w>
b li
des ig
T a
wa ys</w>
mö g
ar y</w>
c ol
at s
m ei
v is
wi chti
ex per
ation s</w>
s ci
e ver</w>
call ed</w>
b ar
sch n
st ru
L i
com m
m ein</w>
M an</w>
qu i
i ma
A b
l er</w>
i k
äch lich</w>
f ahr
hal ten</w>
y p
it ät</w>
I de
d enn</w>
sch on</w>
sy stem</w>
p ri
r is
n ach
x t</w>
st er</w>
l in
sp re
&apos; d</w>
at es</w>
den en</w>
n ed</w>
G eh
o s</w>
lo w</w>
A fri
ti g</w>
m m
tal k</w>
d ung</w>
w oh
N un</w>
t ly</w>
perc ent</w>
zus am
sp ec
mö chte</w>
s k
W is
ma de</w>
inter es
wie der</w>
ar i
ol o
an ce</w>
illi on</w>
bu il
vi elleicht</w>
e p</w>
S a
I hr
ih nen</w>
ü t
qu es
al en</w>
S y
for e</w>
w om
am i
ge t
me di
ter s</w>
T E
n en
b re
po li
n or
ats ächlich</w>
Au f
wh y</w>
chan ge</w>
o k
kom mt</w>
el d</w>
e ff
r os
in t</w>
g s</w>
ti v
n ah
so ci
t in
hu man</w>
le t</w>
t ell</w>
Geschi chte</w>
o wn</w>
im port
Pro z
l u
es en</w>
ol e</w>
l er
da von</w>
f ind</w>
l es</w>
st a
2 0</w>
B il
ne u
s m
is ch</w>
bel ie
a de</w>
P er
p er</w>
j em
fac t</w>
G en
i l</w>
5 0</w>
tion en</w>
w al
k es</w>
M it
gre at</w>
c or
h eute</w>
au m</w>
F r
wei se</w>
hal b</w>
s ensch
sp e
Bei sp
i ch
lo b
gen d
hat ten</w>
Kin der</w>
sch ein
gan z</w>
bes s
c our
C h
ide a</w>
gr ö
H ier</w>
to day</w>
sch af
H er
n s</w>
o c
di dn</w>
ein ige</w>
bi g</w>
b in
In di
ih n</w>
e i</w>
W ei
l assen</w>
s et
, 000</w>
i z
iel en</w>
ü h
u tion</w>
le ben</w>
t ell
us ed</w>
di g
br ingen</w>
c ou
star ted</w>
l au
kön nte</w>
dar über</w>
M o
ig er</w>
c ul
af ter</w>
ex p
en de</w>
un ter</w>
lich keit</w>
l ast</w>
P ar
woll en</w>
Di ese</w>
n is</w>
w ent</w>
dre i</w>
F re
sch en</w>
d ort</w>
t es</w>
M on
än dern</w>
än der
pa ar</w>
ag o</w>
J ahr</w>
. .</w>
gi ve</w>
al is
t ung</w>
wi th
l l
sh ould</w>
thou ght</w>
w ing</w>
tim es</w>
in v
be fore</w>
b ot
w in
lit y</w>
r y</w>
tr u
or gan
bes ch
and s</w>
s eine</w>
z eu
ei gen
ati ve</w>
wer de</w>
pro blem</w>
h ear
cour se</w>
U m
m einer</w>
import ant</w>
om ent</w>
b it</w>
c an
ar d</w>
ent wick
n un</w>
P r
. ..</w>
D es
b ab
l ung</w>
S tu
d at
Geh ir
gen au</w>
B er
wur den</w>
k er</w>
bra in</w>
t wor
an other</w>
C om
bet ter</w>
grö ß
b eit</w>
l os
h ör
t atsächlich</w>
s it
pl ace</w>
sti ll</w>
m em
te chnolog
m ight</w>
g ent
b ri
en g
st ory</w>
si eht</w>
on der
forma tion</w>
e f
ch ts</w>
ou s
sh i
er ung</w>
le a
A m
ro p
ne ver</w>
son dern</w>
wis chen</w>
M us
ga b</w>
ch es</w>
par t</w>
B i
w ahr
hr end</w>
au t</w>
Le ben
E x
E in</w>
ne c
Th ank</w>
be de
star t</w>
erz äh
un de</w>
er te</w>
b ar</w>
ar ti
y si
unser er</w>
ge ther</w>
st e
p ic
happ en
k a</w>
sh ow</w>
sch i
ut zen</w>
f re
N ach
gr ap
t or</w>
n um
c y</w>
l and</w>
og ar</w>
ne xt</w>
Beisp iel</w>
to gether</w>
h im</w>
P h
z wischen</w>
B u
Pro blem</w>
ne ue</w>
k no
j a</w>
ck en</w>
C hin
oo l</w>
v om</w>
w us
w ater</w>
do es</w>
ä d
olo gi
da zu</w>
l ong</w>
f unk
f t
den ke</w>
l ess</w>
gen er
c ame</w>
k am</w>
ch il
ge macht</w>
g ung</w>
or en</w>
n am
Al s</w>
fo und</w>
wä re</w>
d ri
c ess</w>
p s</w>
g lob
U ni
i ce</w>
st er
ag ain</w>
k i
do ch</w>
T eil</w>
ür lich</w>
or d
de vel
3 0</w>
fe w</w>
Ge b
technolog y</w>
l ine</w>
en den</w>
S u
S e
ir gend
e ach</w>
ar s</w>
or i
si mp
zei gen</w>
pos si
B ec
me an</w>
W ass
s ogar</w>
we en</w>
li c
h ät
am en</w>
pro duc
Wh en</w>
for m</w>
wei ter</w>
ut z
n et
M en
st em
c ri
c ent
dur ch
sch ei
n ung</w>
j ect</w>
is h</w>
H ow</w>
amp le</w>
ö ff
n ie</w>
bet ween</w>
auf en</w>
at z</w>
k te</w>
k ein</w>
com es</w>
to o</w>
wei ß</w>
h ig
loo king</w>
ab i
funk tion
all en</w>
er n
li ght</w>
K om
ein mal</w>
ei te</w>
o t</w>
ic ally</w>
20 0
Di es</w>
k eiten</w>
Ta g</w>
N at
g ten</w>
c er
P o
Ne w</w>
n äch
po int</w>
a vi
au p
dat a</w>
re al</w>
l ar
glau be</w>
w a</w>
st ra
in cre
y be</w>
ver schie
dr en</w>
d one</w>
Bec ause</w>
l us
p on
sp i
l li
a h</w>
Me di
s ort</w>
oh ne</w>
TE D</w>
st o
tu r</w>
P l
mar k
ger ade</w>
arbei ten</w>
c ur
pl a
st at
ti gen</w>
Fra ge</w>
d ach
es n</w>
as ch
m ensch
lo ve</w>
d ru
ques tion</w>
li ve</w>
i gen</w>
E ine</w>
W ar
da für</w>
de l</w>
Z ei
uns er</w>
ex ample</w>
do esn</w>
ihr en</w>
gro ß
G er
we gen</w>
W ir
n is
k e
oll ar</w>
her aus
a ff
Am eri
passi ert</w>
ken nen</w>
Ar beit</w>
zei gt</w>
ni chts</w>
a st
zur ück</w>
s econ
f ami
e g
chil dren</w>
fac e</w>
wür den</w>
sel ves</w>
O k
ge m
W or
al ten</w>
wh ole</w>
it ed</w>
z wei
re ad
kon nte</w>
er sten</w>
c ap
ec ts</w>
f our</w>
dar an</w>
wä hrend</w>
wan ted</w>
under stand</w>
in ess</w>
Ü ber
ri chti
en d
c ra
wor king</w>
st än
sa gt</w>
f ten</w>
Milli onen</w>
Fr auen</w>
1 ;</w>
&#9 1;</w>
al ity</w>
3 ;</w>
&#9 3;</w>
n ess</w>
spre chen</w>
p le
ß t</w>
verst ehen</w>
Proz ent</w>
wom en</w>
ö h
war um</w>
z ed</w>
je der</w>
R ei
re as
vi e
st or
m illion</w>
c all</w>
b or
stru c
woh l</w>
ä s
no v
er ste</w>
ah l</w>
ar t</w>
us ing</w>
Ges ch
s am
p f
i g</w>
Ide e</w>
scha ffen</w>
econ om
per son</w>
z er
he al
ab ei</w>
Inter net</w>
R i
ation en</w>
tic al</w>
c le
1 00</w>
le c
D an
th er
ul ar</w>
a way</w>
s or
te l</w>
k ur
sch ool</w>
ev ol
comm un
un kt</w>
v al
i a</w>
an der</w>
desig n</w>
bede u
Ihr e</w>
comp u
tr ying</w>
tisch e</w>
T o
al ways</w>
wh i
st and
ma y</w>
et wa</w>
devel op
J e
v oll
po wer</w>
di c
M in
tr ans
Re gi
d ra
soll ten</w>
M ö
pos i
letz ten</w>
e as
sensch af
be kommen</w>
te te</w>
et er</w>
d el
er st</w>
belie ve</w>
exper i
ation al</w>
b us
h ol
ges ehen</w>
f ast</w>
ot s</w>
gro ße</w>
et s</w>
fe el</w>
t on</w>
hel p</w>
b il
h um
ac k
st re
soll te</w>
ran k
Q u
. 000</w>
ä f
si g
k un
m ent
L and</w>
en erg
ac t</w>
in nen</w>
i cht</w>
F ü
zi em
mei sten</w>
c a</w>
su pp
ki ds</w>
Ok ay</w>
v en
com ing</w>
kön nten</w>
m y
fi ve</w>
ber ei
t em
pr ot
all s</w>
on es</w>
M an
ver n
as k</w>
mon ey</w>
c ep
bo ok</w>
ro om</w>
Di es
ö s
ou t
G l
m einem</w>
gan ze</w>
su b
m einen</w>
ge gen</w>
el ec
coun try</w>
in formation</w>
ihr er</w>
sp ace</w>
i en</w>
con nec
woll te</w>
chnolog ie</w>
al t</w>
Uni vers
l dn</w>
B es
ge l</w>
wei ter
thin king</w>
b auen</w>
d abei</w>
lich er</w>
m a</w>
O ne</w>
pro du
ziem lich</w>
d ge</w>
w at
nat ürlich</w>
f ut
an den</w>
ä hr
wichti g</w>
tion al</w>
f as
c ity</w>
Com pu
f il
op e</w>
iel e</w>
tisch en</w>
su ch</w>
is h
ti eren</w>
s ec
cre ate</w>
a k</w>
B r
K re
at h</w>
ti k</w>
ing t</w>
We g</w>
me ans</w>
f r
B ild</w>
w ach
to ok</w>
to p</w>
Des ig
h and
ag t</w>
Y or
D ollar</w>
ros s</w>
hig h</w>
ma ybe</w>
ne e
h under
ei gent
ein ander</w>
G eld</w>
st ri
pl ay</w>
N or
G em
ma king</w>
W el
B l
S o
sen se</w>
K ör
Pro ble
brau chen</w>
Pro je
every thing</w>
e y
z ing</w>
glau b
A ll</w>
ti sch</w>
c li
c is
a b</w>
W er
ph ysi
g ab
p le</w>
it al</w>
M al</w>
wel che</w>
lan g</w>
1 5</w>
war d</w>
st ehen</w>
bess er</w>
re m</w>
T r
di g</w>
d ro
num ber</w>
h ist
dar auf</w>
wen iger</w>
d d
pro bab
th s</w>
be come</w>
Th ese</w>
kl einen</w>
a v
B o
fut ure</w>
Mö g
pp e</w>
w eit</w>
par tic
f ig
ch o
sm all</w>
ta in</w>
sa ge</w>
D aten</w>
g ed</w>
s in
le ft</w>
K ar
im p
b is
w o
stu d
get ting</w>
energ y</w>
b ro
en en</w>
bes t
en ough</w>
con tro
n er
bes t</w>
vi du
en ds</w>
G ro
fo od</w>
Gehir n</w>
Te chnologie</w>
qui te</w>
h ome</w>
b lo
ar e
ti ert</w>
ima g
M y</w>
read y</w>
S A</w>
O h</w>
secon d</w>
hal f</w>
er rei
zusam men</w>
em ent</w>
ul t</w>
sa ys</w>
o l</w>
ig keit</w>
Chin a</w>
H a
ic al</w>
h in</w>
En de</w>
es sen</w>
h än
ck s</w>
bedeu tet</w>
Sa che</w>
zusam men
Wass er</w>
kun ft</w>
for m
ut es</w>
p ra
buil ding</w>
t yp
gr ei
sch lie
f äl
W o
possi ble</w>
ä ter</w>
uns eren</w>
res pon
h and</w>
jem and</w>
G o
vi er</w>
H ere</w>
u le</w>
senschaf t
ut ter</w>
i k</w>
A ut
gr ou
ch ni
ent ly</w>
m il
zur ück
f ul
v el</w>
dach te</w>
tri es</w>
an g</w>
War um</w>
mög lich</w>
ic i
b s</w>
wh e
y o
wä r
u p
ver wen
probab ly</w>
E u
en ten</w>
pro gra
ma ch
ag es</w>
tal king</w>
ch ar
se t</w>
go vern
or e</w>
abi lity</w>
w ed</w>
führ t</w>
s ing
interes ting</w>
w are</w>
en e</w>
s ei
pu bli
happen ed</w>
ein z
P lan
re ali
pre t
I m</w>
oll ars</w>
L ei
ch it
bes tim
D ann</w>
O K</w>
in di
F l
o grap
ges tell
ih m</w>
ch er
gro ßen</w>
stu ff</w>
fahr en</w>
e ben</w>
et y</w>
S eite</w>
pro ble
soci al</w>
h en</w>
M at
D ank</w>
pi ec
c are</w>
T ei
shi p</w>
th ers</w>
k in
S tr
li z
Ih r</w>
vi ron
en te</w>
I s
kl är
kl eine</w>
eigent lich</w>
bu ild</w>
with out</w>
c ell
Wh y</w>
G ru
t es
en si
D e
hör en</w>
be au
ul ation</w>
u te</w>
t om
pl ac
Sta d
führ en</w>
S he</w>
li ves</w>
m us</w>
der s</w>
w r
p op
s ure</w>
d ollars</w>
Wei se</w>
g ri
Le t</w>
sch le
ma kes</w>
F il
b al
f ron
op er
u g</w>
r at
ous ly</w>
chn ologi
Yor k</w>
am er
ou se</w>
R aum</w>
Afri ca</w>
sci ence</w>
mo ve</w>
ler nen</w>
et z
en viron
gan zen</w>
D enn</w>
ver se</w>
N o</w>
füh l</w>
L u
Ent wick
S el
ß er
sti tu
pret ty</w>
m oment</w>
sch auen</w>
pr is
amp ;</w>
& amp;</w>
w as
t old</w>
de ci
w under
f lo
c ase</w>
an z
S tra
vi r
ac ross</w>
F ir
simp le</w>
ges agt</w>
at ely</w>
any thing</w>
O b
we e
tr an
o ft</w>
o ch</w>
Fra u</w>
z lich</w>
V i
D en
ör t</w>
m ind</w>
Zu kunft</w>
coun tries</w>
wahr schein
os p
sa m</w>
inter ess
ch s</w>
M ann</w>
w ri
el s</w>
beg inn
gen om
un der</w>
Men ge</w>
har d</w>
h y
sp r
happ en</w>
k einen</w>
da ys</w>
wor ks</w>
e duc
se en</w>
ic s</w>
ex pl
z in
je den</w>
fü n
ck t</w>
ver sch
versu chen</w>
L ie
4 0</w>
go es</w>
comp le
E ar
so zi
ch mal</w>
gen d</w>
E le
ti ge</w>
in du
k os
In forma
lich es</w>
for t
c ar</w>
ab sol
el se</w>
K op
f al
ap s</w>
D ar
li ving</w>
sci enti
öff ent
v o
c a
Gem ein
A mer
p at
R o
Gr und</w>
t as
B et
the ma
experi ence</w>
En gl
z ent
u ten</w>
c er</w>
S in
m mt</w>
j o
Amer ic
Per son</w>
a ma
ver k
un glaub
in dem</w>
w es
ni em
happ ens</w>
sa w</w>
o un
mat eri
hät te</w>
lear n</w>
d au
compu ter</w>
z ieren</w>
ex is
op en</w>
l s</w>
eigen en</w>
M än
sy stem
th ough</w>
b ad</w>
sy ch
S on
stell ung</w>
viel en</w>
s es</w>
s einer</w>
den ti
glau ben</w>
sch rei
m ul
l ater</w>
em p
Milli ar
ö l
vi de
an twor
K l
K ind</w>
spec i
t au
Sp ra
b ur
proble ms</w>
S te
tic s</w>
C hr
sp äter</w>
whi le</w>
m ents</w>
J etzt</w>
D N
pic ture</w>
ol s</w>
po wer
indi vidu
res ear
lo s</w>
ti g
set zen</w>
sch wi
Leben s
f es
Sy stem</w>
stell t</w>
L in
sh ar
as ked</w>
F or</w>
A s</w>
wel t
sa h</w>
ri cht</w>
c ed</w>
bei m</w>
m al
W i
ier te</w>
An twor
pr o</w>
f un
A k
per son
le gen</w>
Pro du
Dan ke</w>
Or t</w>
K un
lan gu
her aus</w>
gestell t</w>
de p
st eht</w>
s eit</w>
kon nten</w>
ha ving</w>
fami ly</w>
el e
nis se</w>
e ten</w>
dis co
P f
te ach
pro cess</w>
Ear th</w>
glob al</w>
funktion iert</w>
V ielen</w>
J a</w>
il l</w>
b st
reas on</w>
D a</w>
ide as</w>
N a
Proble me</w>
wahrschein lich</w>
ra di
heal th</w>
gem ein
W ahr
H and
glei ch</w>
bus iness</w>
Sch ul
as se</w>
cl u
e an</w>
lie gen</w>
f all</w>
Ges und
c ke</w>
a ft</w>
Er de</w>
tur n</w>
thou s
in side</w>
L and
sing le</w>
lan ge</w>
in e
wen ig</w>
ra ft</w>
wor den</w>
in tel
er inn
U .
änder t</w>
bl ei
E l
ur al</w>
hei ßt</w>
si cher</w>
e d
p ati
f ar</w>
z o
n utzen</w>
d ungen</w>
bas ically</w>
re mem
sa ying</w>
Ges ell
l än
Ar bei
lie gt</w>
genom men</w>
neu en</w>
schn ell</w>
op p
c u
su m
y et</w>
ou ght</w>
hel fen</w>
Stad t</w>
yo ung</w>
w and
en ces</w>
M oment</w>
all en
pro ject</w>
at t
th o
sch ö
zi eh
su c
gu te</w>
u al</w>
ein zi
ma te</w>
in ed</w>
at or</w>
al le
Gro ß
our s</w>
in ing</w>
pr ä
be tra
ges t</w>
si x</w>
ex tre
R ob
ti l</w>
ir d</w>
m m</w>
l ö
exper im
tur es</w>
je des</w>
em o
b it
Or gan
z ah
on ce</w>
b illion</w>
ä m
V ide
plan et</w>
T i
si on
ge gen
g st</w>
de fin
ap e</w>
al ität</w>
t an
schaf ten</w>
h ö
en z</w>
erzäh len</w>
a x
L eu
DN A</w>
con tin
wi t
äh r</w>
P u
z eh
unser em</w>
ti s
gef ähr</w>
for der
0 ,000</w>
wr ong</w>
bot h</w>
gu y</w>
am m
vie w</w>
publi c</w>
ge ts</w>
N eu
su chen</w>
loo ked</w>
ver l
lan g
D u</w>
loo ks</w>
brau cht</w>
al most</w>
di rec
F all</w>
ma g
P e
fün f</w>
de mo
all er</w>
1 2</w>
gan g</w>
g ir
as h
z ep
ph ot
or der</w>
og ni
W oh
Ide en</w>
ch ild</w>
vi ce</w>
ten s</w>
näch sten</w>
w onder
s eh
incre di
gen ug</w>
des sen</w>
z eit</w>
P ati
sp ielen</w>
hist ory</w>
f li
Compu ter</w>
kom p
er st
a ir</w>
M i
whe ther</w>
f alls</w>
tra g</w>
o ften</w>
dd le</w>
d ent</w>
ke ep</w>
beau ti
F lu
with in</w>
ur y</w>
k ten</w>
bes onder
L ehr
K or
ti k
mo v
beg ann</w>
C on
zi ehen</w>
tr ue</w>
al ready</w>
Wis sen</w>
6 0</w>
gl ück
fra gen</w>
hear d</w>
br ing</w>
verschie den
f te</w>
buil t</w>
mus ic</w>
gh ts</w>
Ex per
sch l
f ar
ans wer</w>
re ad</w>
do c
For sch
g ar</w>
M it</w>
s einen</w>
is su
in st
erg ie</w>
U SA</w>
no thing</w>
M utter</w>
Z us
st s</w>
mat ter</w>
cle ar</w>
t ere</w>
nat ure</w>
fi c</w>
G ra
wor ds</w>
u ation</w>
s li
oh n</w>
er weise</w>
sch e</w>
hei ten</w>
ec ted</w>
commun ity</w>
cell s</w>
Kör per</w>
ander s</w>
ag a
H o
f er</w>
at ur
un gefähr</w>
richti g</w>
hei ts
h ope</w>
geh ört</w>
de ut
ber s</w>
l is
e ase</w>
ell er</w>
o ver
inn er
piec e</w>
my self</w>
can cer</w>
A f
0 s</w>
ste ad</w>
ex c
bis schen</w>
F äh
k re
t est</w>
an im
vide o</w>
l ed</w>
l ing</w>
je de</w>
de m
Leu ten</w>
tra gen</w>
ti ce</w>
se l</w>
b ly</w>
ges chi
d lich</w>
remem ber</w>
l te</w>
glei chen</w>
bra cht</w>
K rie
t ot
M äd
er klär
Informa tionen</w>
t schaft</w>
b ig
b an
ch ter</w>
Sch ule</w>
äh n
re g
he ad</w>
h ä
we g</w>
beauti ful</w>
langu age</w>
in nov
be kan
tei len</w>
j ects</w>
imag ine</w>
ch em
an g
H ar
sp ra
ama zing</w>
some one</w>
re den</w>
p ul
fan gen</w>
h or
o ben</w>
h off
cou ple</w>
contro l</w>
t or
sensch aft</w>
entwick elt</w>
h und
ti ci
ih rem</w>
Un ited</w>
Eu rop
s atz</w>
olog y</w>
m et
evol ution</w>
Sch l
S pe
om e
m os
D em
n ei
mo ther</w>
lich keiten</w>
grou p</w>
wor d</w>
mon ths</w>
f ic
al y
Plan eten</w>
we g
govern ment</w>
Er fahr
C ar
ver ändern</w>
ut zt</w>
spec ies</w>
s eri
wie der
ti v</w>
ar en</w>
Proje kt</w>
F ar
se i</w>
h aup
ein s</w>
ta king</w>
ir e</w>
ap pro
the m
plac es</w>
f and</w>
Milliar den</w>
S tim
zei ch
schaf t
an zu
ni ght</w>
c ess
stat t</w>
le vel</w>
Indi a</w>
te ten</w>
organ is
l on
ch allen
ati v
C har
s ing</w>
arbei tet</w>
a il
En ergie</w>
fin det</w>
cht ung</w>
system s</w>
our selves</w>
se qu
K rank
sa gten</w>
t ors</w>
ent de
dar um</w>
au ßer
L ös
D ur
Afri ka</w>
ot t</w>
li cht</w>
stor ies</w>
s einem</w>
is cher</w>
B au
stand ing</w>
er kennen</w>
N o
S k
J u
über all</w>
glei ch
ou th</w>
uni verse</w>
every body</w>
ch ed</w>
tran sp
fl u
L a
F ran
le ge</w>
Desig n</w>
ti gt</w>
c tion</w>
ün st
w äh
W es
beh avi
tra di
re gi
2 5</w>
19 9
F o
A t
ter n
educ ation</w>
ch ing</w>
organ iz
gro und</w>
ander es</w>
j ob</w>
Fra gen</w>
un til</w>
nah men</w>
ac tly</w>
Mäd chen</w>
Geb äu
is n</w>
ap er</w>
8 0</w>
u ally</w>
schn it
cul ture</w>
an ge
p ot
gew öh
Mo d
nen nen</w>
f und
M u
For m</w>
was n</w>
am il
lar ge</w>
ch en
P unkt</w>
di ch</w>
ver br
ob ach
al lo
Min uten</w>
H il
ru n</w>
ges am
fron t</w>
er ten</w>
Nat ur</w>
B ür
let ely</w>
Gen er
schi ed</w>
hear t</w>
as i
resear ch</w>
ff t</w>
N ein</w>
ma chte</w>
it self</w>
is ts</w>
deci ded</w>
Zus am
B ri
Antwor t</w>
v e
Ar ten</w>
h ouse</w>
Dies es</w>
eu ch</w>
Po li
M eine</w>
ord in
ta kes</w>
tei l</w>
kin ds</w>
comp letely</w>
ra te</w>
in es</w>
i tion</w>
ex actly</w>
S it
P ri
Jahr hunder
z ung</w>
v an
or d</w>
lear ned</w>
fo c
ap pe
G re
wom an</w>
mus ste</w>
es sen
ch e
c le</w>
b are</w>
B eh
Unter nehmen</w>
Fü r</w>
them selves</w>
st ate</w>
min utes</w>
Rob ot
sh are</w>
pp en</w>
mo del</w>
kl ar</w>
berei ts</w>
U r
sto p</w>
g ame</w>
E s
ph one</w>
c ir
besonder s</w>
j en
ch tet</w>
k amen</w>
comp any</w>
R es
la gen</w>
am es</w>
S ti
K ul
bec ame</w>
TE D
ta tion</w>
n ational</w>
ä re</w>
Ameri can</w>
is e</w>
Americ a</w>
m ol
happen ing</w>
c t</w>
c at
amil ie</w>
än g
z iert</w>
tur ns</w>
m ust</w>
he ar</w>
col lec
be vor</w>
stud ents</w>
j e</w>
Li cht</w>
Geschi chten</w>
soci ety</w>
B ro
n ame</w>
gen au
Kop f</w>
le g
ic k</w>
St ates</w>
anim als</w>
some body</w>
nam ens</w>
in st</w>
it ing</w>
Gru ppe</w>
stu dy</w>
le ben
ver ed</w>
happ y</w>
M ein</w>
C ol
errei chen</w>
dar in</w>
verschieden e</w>
sch au
ben utzen</w>
Zei t
Bu ch</w>
Ent schei
B ab
un ge</w>
s er</w>
h ours</w>
Ge gen
Ge dan
Au f</w>
struc ture</w>
sin ce</w>
pr in
in spi
f rei
le b
fri ends</w>
Th em
Bil der</w>
F amilie</w>
un ds</w>
l äs
S ol
G od</w>
p ur
cep t</w>
our ce</w>
er ing</w>
pl es</w>
k new</w>
gen de</w>
M or
t aus
ger ne</w>
ft ware</w>
op port
in s
Mus ik</w>
hu ge</w>
Go og
Gesell schaft</w>
ques tions</w>
tr ä
al es</w>
F ol
st üt
schlie ß
og ra
environ ment</w>
ri chten</w>
l and
hät ten</w>
Ver bin
Organ is
ro w</w>
ent ed</w>
b ir
an i
aga inst</w>
ta in
an gen</w>
Wis senschaft</w>
H and</w>
H I
ra ther</w>
ein igen</w>
W eil</w>
e ben
S h
stu di
st ei
is m</w>
ear ly</w>
Th e
rel ig
r .</w>
p en
ol le</w>
intel li
f ur
bestim m
a ir
Vi elleicht</w>
cre ated</w>
c r
n u
Au gen</w>
p sych
m ic
g ar
einz el
d ah
Män ner</w>
s ed</w>
k tur</w>
O der</w>
wor ked</w>
se em
Spra che</w>
C o
Ber ei
än der</w>
M asch
vi ol
entwick eln</w>
ab or
Th en</w>
t ä
ou ldn</w>
gr ün
S i
ück en</w>
ri es
re cht</w>
Leben s</w>
sp iel
si te</w>
ac c
Zusam men
ver b
me as
im m
b at
2 00</w>
öl k
v ari
to m</w>
so und</w>
li ter
den ce</w>
Indi en</w>
sho ws</w>
am oun
T ran
Er geb
gef unden</w>
cent ury</w>
Gr und
Goog le</w>
war ds</w>
l le</w>
h aps</w>
eng ine
cou ldn</w>
vol ution</w>
some times</w>
au di
al ong</w>
cl os
ö t
te xt</w>
ig keiten</w>
i denti
w on</w>
k o
ier ung</w>
gu ys</w>
K ur
s ön
je dem</w>
gen an
des t</w>
rit t</w>
p ast</w>
k ä
a gi
every one</w>
dis ease</w>
li eren</w>
gen s</w>
geb aut</w>
ar ly</w>
ac tion</w>
K li
o thers</w>
gen e
bas ed</w>
Pr ot
partic ular</w>
ier ten</w>
St unden</w>
Sp iel
tr ei
ot en</w>
in vol
fig ure</w>
Ge fühl</w>
um ent</w>
be wegen</w>
be we
us s</w>
H ei
0 .000</w>
Mög lichkeit</w>
diff ic
mark et</w>
h r</w>
S .</w>
H in
rei s</w>
nat ural</w>
i ons</w>
d y
Mat eri
sol l</w>
l en
for t</w>
k tion</w>
ali en</w>
Wel t
Ma cht</w>
ä che</w>
un ch</w>
tre ffen</w>
le ast</w>
in ten
fan tas
einf a
1 1</w>
u es</w>
re t
th y</w>
th ird</w>
irgend wie</w>
e qu
tur ned</w>
j u
HI V</w>
D och</w>
do m</w>
k ey</w>
ga ve</w>
be wus
ne ws</w>
mo ving</w>
Pro gra
i te</w>
f ree</w>
H e
verschie denen</w>
olog ie</w>
l ots</w>
Ver änder
o il</w>
gewöh n
äm lich</w>
g ern</w>
en zen</w>
mensch lichen</w>
ist an</w>
bes ten</w>
vor stellen</w>
An gst</w>
unter schie
ish ed</w>
er halten</w>
Regi erung</w>
sta un
j our
am s</w>
I r
ple x
er gi
elec tri
S ek
lear ning</w>
d om
an z</w>
V ater</w>
mit t
man chmal</w>
et t
br ingt</w>
thous ands</w>
sch wer</w>
ment al</w>
bei den</w>
be mer
b ein
se ven</w>
in stead</w>
v ö
er war
Y e
U m</w>
ul es</w>
se chs</w>
amer a</w>
al ax
fan g</w>
Pu bli
z es</w>
our self</w>
er r
el ten</w>
a ds</w>
M is
D is
gel n</w>
differ ence</w>
at ten
ar chit
y ed</w>
wis senschaft
li k
en n
ci al</w>
b ed</w>
S ü
Kin dern</w>
out side</w>
O n
woll ten</w>
m es
ein ig
sur pris
di men
5 00</w>
z te</w>
verwen den</w>
mach ine</w>
get an</w>
einzi ge</w>
chan ged</w>
ful l</w>
c op
c al
t ut</w>
ni mmt</w>
füh len</w>
are a</w>
St äd
zu stellen</w>
wh at
am eri
am ent
Stu di
s qu
interes si
di re
der en</w>
im pro
et ing</w>
c y
c ost</w>
as st</w>
V or</w>
Pati enten</w>
y ourself</w>
ta ken</w>
Sa chen</w>
G ott</w>
ver ändert</w>
sc ale</w>
la g</w>
enti re</w>
S ich
G lei
zeu g</w>
si cht
ne ur
h il
f ish</w>
c ing</w>
H ause</w>
ver r
p an
mi ddle</w>
t on
f le
F rei
power ful</w>
p unkt</w>
f est
eh er</w>
rie ben</w>
ne y</w>
fr ü
N i
n ämlich</w>
haup t</w>
en or
Flu g
lus s</w>
R u
s il
pop ulation</w>
ograp h
ge geben</w>
F ahr
si cher
enti al</w>
cl ose</w>
per f
gel e
di r</w>
c ell</w>
as es</w>
Be i</w>
un ity</w>
fa ther</w>
ent fer
G i
A t</w>
in k</w>
ho ch</w>
U. S.</w>
ru p
par ts</w>
rel ation
fe el
ma j
gr und</w>
Te chni
Be zieh
me t</w>
gen heit</w>
ge bracht</w>
c oll
nor mal</w>
läs st</w>
interess an
inner halb</w>
Sich er
N icht</w>
z äh
si cht</w>
om en</w>
li es</w>
illi ons</w>
ac tiv
N etz
1 8</w>
te chnologi
par t
ex tra
comp an
ill s</w>
Vor trag</w>
O r</w>
Kun st</w>
äu me</w>
wal k</w>
dur ing</w>
Robot er</w>
B ü
Auf gab
sp ro
nee ds</w>
gr und
be obach
te am</w>
d ings</w>
at ure</w>
R a
Au to</w>
wonder ful</w>
pra c
er lau
ci ties</w>
an ti
si ons</w>
con t
Her aus
stän dig</w>
Exper im
ris e</w>
ing er</w>
co ol</w>
W ort</w>
us h</w>
um in
st off
beh ind</w>
ab en</w>
K ol
H aus</w>
or ig
on line</w>
T al
vol l</w>
unglaub lich</w>
t lich</w>
t a</w>
st ec
schö n</w>
schrei ben</w>
ou gh
inv es
gi ven</w>
bi lity</w>
versu cht</w>
t able</w>
ro bo
lö sen</w>
lea ve</w>
eas y</w>
Gebäu de</w>
F in
1 8
schein t</w>
ey es</w>
Wis senschaft
D avi
l ose</w>
cer tain</w>
V ir
Publi k
über haupt</w>
si ze</w>
se eing</w>
res t</w>
po in
f elt</w>
ent schei
a ver
Dies er</w>
z un
tr au
se x
schließ lich</w>
pri v
ob vi
ent lich</w>
L age</w>
ter ms</w>
Wir k
um p
ma thema
k r
ing ly</w>
fri end</w>
diffic ult</w>
c s</w>
bra chte</w>
au ßen</w>
z war</w>
w le
t ar
l äu
her um</w>
ck ed</w>
as sen
ab hän
T at
J ap
schwi eri
pro vi
n ation
erz eu
ab or</w>
Pr in
B ar
spe zi
ro te</w>
rit ten</w>
mer k
ima ge</w>
f ly</w>
bo o
b au
h ands</w>
r en
fin ally</w>
beginn ing</w>
beg innen</w>
ameri kan
ag n
Davi d</w>
us es</w>
Ye ah</w>
compan ies</w>
Univers um</w>
L änder</w>
ber fl
Gl ück</w>
z ahl</w>
con ver
Fil m</w>
k ul
S tru
w in</w>
re pres
per haps</w>
lli g</w>
gro ß</w>
beg an</w>
at s</w>
St ück</w>
Ge f
ran ge</w>
k rie
d ly</w>
ob s</w>
amoun t</w>
W al
Entwick lung</w>
El tern</w>
r en</w>
indu str
sy n
m uni
gro w</w>
as h</w>
I s</w>
ä ten</w>
commun ic
bar en</w>
Ob je
Gr ün
D o</w>
wi ll
e ful</w>
de cis
comm on</w>
K os
K ap
um s</w>
sa che</w>
qui ck
par ents</w>
näch ste</w>
ei ght</w>
b s
an e</w>
T ra
Heraus forder
reali zed</w>
mensch liche</w>
lo cal</w>
h on
econom ic</w>
e vi
St ellen</w>
M ik
Wor ld</w>
T el
B ev
per i
kno wle
ck ing</w>
B as
y er</w>
k ehr
ge führt</w>
den ten</w>
K at
on d</w>
o x
er staun
alle m</w>
s cre
for ce</w>
fi eld</w>
de ath</w>
be d
Gr ö
in clu
g n
medi a</w>
me chan
en z
en s
sp richt</w>
nee ded</w>
gen den</w>
R au
ü cke</w>
t at</w>
ie t</w>
g lich</w>
de al</w>
c ally</w>
am p</w>
Pe ople</w>
Er fol
pre dic
fan den</w>
L assen</w>
ti n</w>
or ie</w>
interes ted</w>
ec k</w>
con di
can not</w>
bal d</w>
J ohn</w>
Din gen</w>
ra l</w>
r un
oc ean</w>
de te</w>
b all</w>
Erfahr ung</w>
w elt</w>
sp end</w>
n y</w>
mög lichen</w>
li en</w>
l ungs
i ly</w>
ent er</w>
Sp iel</w>
st ens</w>
el te</w>
demo cra
tu al</w>
mö gen</w>
nah me</w>
aus zu
H aup
simp ly</w>
kno wn</w>
behavi or</w>
K an
what ever</w>
t op
re p
on nen</w>
nah m</w>
Bil d
rec ogni
le bt</w>
gro w
f eh
eh men</w>
P ap
me an
bl ack</w>
stell te</w>
k ill
h t</w>
os op
m eines</w>
l esen</w>
Hil fe</w>
G el
wei tere</w>
res s</w>
lon ger</w>
glei che</w>
ag er</w>
Z ah
sam m
mus sten</w>
kä mp
sch o
qu e</w>
pro f
hä lt</w>
des cri
Ar chit
tei l
sur vi
p aper</w>
our ces</w>
n ers</w>
groß arti
g in
O z
wee k</w>
Sin n</w>
Publik um</w>
äh ri
un ten</w>
letz te</w>
for ward</w>
G ei
oo k</w>
beh and
quick ly</w>
p ec
g s
con f
Ti ere</w>
Mög lichkeiten</w>
I st</w>
val ue</w>
tri ed</w>
ne u</w>
ster ben</w>
gi c</w>
eigen e</w>
auf zu
Wer k
te chni
fund ament
et z</w>
bor n</w>
ut ting</w>
st age</w>
ok ay</w>
n ot
g one</w>
h igh
ges etzt</w>
b es</w>
F eh
An fang</w>
grow th</w>
a gen</w>
Ele k
is mus</w>
hr en</w>
K r
Gr unde</w>
k ers</w>
E i
sch üt
ei ther</w>
W in
S ter
In nov
su g
is ches</w>
bu y</w>
be l</w>
sp ent</w>
boo ks</w>
blei ben</w>
z z
ver bin
k aufen</w>
F ot
rit te</w>
b loo
au th
Lös ung</w>
ser v
lie ben</w>
J ust</w>
wir t
de f
bo ard</w>
ologi cal</w>
in a</w>
Z iel</w>
F ami
D a
t sch
s mar
los sen</w>
l ost</w>
fol gen</w>
dru ck</w>
al er</w>
kon tro
il osop
ci vi
a th
tic ally</w>
ma g</w>
l aufen</w>
S ome</w>
Netz wer
än de</w>
sol che</w>
sch li
per sön
pa in
is ter</w>
is ten</w>
gre en</w>
Z wei
wus ste</w>
mo der
dam als</w>
c os
Them a</w>
7 0</w>
str on
sh ort</w>
W it
D at
opport unity</w>
lan gen</w>
knowle dge</w>
il s</w>
e th
comple x</w>
T o</w>
z er</w>
rie b</w>
Ä r
st ep</w>
po or</w>
m ut
hum ans</w>
ul ts</w>
poli tical</w>
ob wohl</w>
materi al</w>
Ver halten</w>
s l
in stitu
econom y</w>
b ac
Z um</w>
Unter schied</w>
Fre unde</w>
wer s</w>
uni ties</w>
se ver
hel p
Kul tur</w>
tr a</w>
sit ting</w>
person al</w>
p ass
je doch</w>
am a</w>
ac e
M ein
Af gh
is ion</w>
fe et</w>
fal sch</w>
c o</w>
an tly</w>
G ol
hum an
a ffen</w>
T age</w>
Sta aten</w>
Be we
9 0</w>
1 0
om s</w>
lo g
chan ges</w>
soll en</w>
n al</w>
gi ving</w>
Den ken</w>
tei lt</w>
re du
ani mal</w>
P os
niem and</w>
a den</w>
Lehr er</w>
Dur ch
wee ks</w>
tell ing</w>
sur face</w>
größ te</w>
gel er
dire kt</w>
Wo che</w>
L on
B el
kur z</w>
f el
einf lus
Te chnologi
En ergi
sch ön
p ay</w>
Sy stem
ou d</w>
m ehr
geb ung</w>
di gen</w>
ti e
m ung</w>
fra gte</w>
wär en</w>
g keit</w>
essen ti
ec tion</w>
Bewe gung</w>
öt zlich</w>
w ann</w>
w ahr</w>
vö llig</w>
fort un
de t
best eht</w>
Gedan ken</w>
us ion</w>
o h</w>
geler nt</w>
e um</w>
con si
bot tom</w>
b ung</w>
b ack
Vide o</w>
H off
Gesund heits
über r
wei sen</w>
sp ek
nor m
19 8
re ality</w>
ak ter
tr ot
t nis</w>
s le
cur r
R ight</w>
F ern
A I
k t
d ere</w>
are as</w>
wri te</w>
mol ec
incredi ble</w>
in en</w>
bewus st</w>
C ity</w>
zu g</w>
fil m</w>
er fol
ben ö
B ru
unterschie d
tur al</w>
gro wing</w>
e at</w>
betra chten</w>
Z ellen</w>
S au
N ot</w>
wer t</w>
sch t</w>
ra tion</w>
mor ning</w>
develop ed</w>
N ahr
M al
F u
tion s
progra m</w>
h ier
a z
Wo chen</w>
sel ben</w>
m ot
k el</w>
char ac
c in
atten tion</w>
Wir tschaft</w>
Aut os</w>
w ouldn</w>
o d
k ti
Es sen</w>
vi ces</w>
interess ant</w>
h om
gi ves</w>
genau so</w>
c aus
Be d
zeu ge</w>
tre ten</w>
le y</w>
glück lich</w>
car s</w>
b ut
Mon ate</w>
H el
Fäh igkeit</w>
1 6</w>
f est</w>
A n</w>
v es
su per
su d
spe ak</w>
lie be</w>
komp let
br ought</w>
R ück
Lie be</w>
mit tel</w>
i um</w>
us i
i ous</w>
K ön
ch st
R ich
K u
zu vor</w>
ne g
challen ge</w>
ander er</w>
M c
K ran
wach sen
tur en</w>
gr and
fol lo
Y es</w>
A m</w>
ordin ary</w>
h old</w>
fi ed</w>
ff e</w>
R el
Fü hr
wo od</w>
reali ze</w>
op en
m ine</w>
m el
fa il
Men sch</w>
M et
L o
Kre bs</w>
t ou
j ähri
i zi
e e</w>
Proz ess</w>
M ol
zent ri
pe di
bo x</w>
Spe zi
K ünst
Dem ok
star ting</w>
s ere</w>
h an
einf ach
K ö
ver s</w>
under standing</w>
k am
indu stri
en ding</w>
con sci
N amen</w>
L ändern</w>
1 4</w>
wach sen</w>
vis ion</w>
unser es</w>
ima ges</w>
ges sen</w>
feel ing</w>
all er
Sch i
wel ches</w>
t ol
posi tive</w>
num bers</w>
hin ter</w>
bl ue</w>
aver age</w>
T ri
T ex
B .</w>
w rote</w>
qu ality</w>
for ms</w>
et zen</w>
ber eit</w>
O ur</w>
H y
H u
Be deut
wer fen</w>
mil es</w>
kan er</w>
V iele</w>
K oh
zwei te</w>
z ü
t ö
p oll
m assi
lich erweise</w>
f un</w>
es si
er sch
en th
T ages</w>
B li
p t</w>
ec tive</w>
Engl ish</w>
ß en
ar g
uni vers
gen ie
cli mate</w>
O n</w>
Kon tro
G u
vis u
v il
str at
re ds</w>
in f
bit te</w>
audi ence</w>
technologi es</w>
ma p</w>
f ing</w>
chan ging</w>
c ut</w>
Verbin dung</w>
Mod ell</w>
Me tho
sam keit</w>
re ck
physi cal</w>
pati ents</w>
l a</w>
ensi cht
cht s
berfl äche</w>
S or
wat ch</w>
ex am
R is
Krie g</w>
we der</w>
v in
ut ely</w>
pla ying</w>
n an
k ü
ful ly</w>
de ta
al one</w>
Ihr en</w>
Bev ölk
on y</w>
nei gh
In stitu
zo gen</w>
ur en</w>
m ing</w>
ie ten</w>
gr ess</w>
erinn ern</w>
em ents</w>
aus ge
at ors</w>
al t
Un sere</w>
K amp
C an</w>
äch st</w>
the ory</w>
respon si
jem als</w>
individu al</w>
ic es</w>
heraus zu
dr außen</w>
de ep</w>
v ill
to ols</w>
Afgh an
ück t</w>
ä us
si eben</w>
schaf ts
k ar
g ste</w>
fin an
erzäh lt</w>
er schaffen</w>
Technologi en</w>
S ehen</w>
über zeu
st es</w>
re f
produ ce</w>
n on</w>
in i
ho ch
ge wis
funktion ieren</w>
et te</w>
disco vered</w>
cent er</w>
ber t</w>
R evolution</w>
M ich
seem s</w>
liter ally</w>
ges t
ck et</w>
bi olog
b an</w>
Z ahl</w>
W il
ät ze</w>
c en</w>
W ach
Rei he</w>
Ma thema
tr on
ni ce</w>
nat ür
mit einander</w>
kon zentri
develop ing</w>
Wissenschaft ler</w>
Techni k</w>
scienti sts</w>
mo dern</w>
issu e</w>
h osp
h ast</w>
beginn t</w>
be einflus
au tom
Sel bst
mit tel
k ra
b on</w>
ac cess</w>
O p
Kran ken
K en
zei tig</w>
run ning</w>
l len</w>
ge fühl</w>
cre ating</w>
an aly
th re
passi eren</w>
k or
ali for
W er</w>
Sch ritt</w>
Chr is</w>
A c
3 00</w>
st ati
si mil
ni e
ma che</w>
inn er</w>
gan gen</w>
ex pres
Je der</w>
ör en</w>
ver bess
seh e</w>
ge worden</w>
E ben
tin y</w>
r um</w>
pl an</w>
k n
a cht</w>
H eute</w>
Ge wal
os au
cer tain
at ur</w>
ar ds</w>
a king</w>
Lu ft</w>
z in</w>
ti vi
lan zen</w>
gir l</w>
gab en</w>
f liegen</w>
wirt schaft
su ff
res ult</w>
ge ment</w>
agi eren</w>
Tat sache</w>
T it
D r.</w>
es se</w>
desig ned</w>
Z i
J o
H erz
ü bri
st ein</w>
l ungen</w>
foc us</w>
erklär en</w>
en der</w>
dig keit</w>
da cht</w>
ch ung</w>
an fangen</w>
M ei
Lon don</w>
Kör per
C O
w ass
ung er</w>
s ha
h op
gew esen</w>
dar aus</w>
c lo
any one</w>
an ts</w>
Jahrhunder t</w>
E very
Al les</w>
ver ur
su sta
pl at
ni en</w>
k id</w>
b and</w>
ar tig</w>
Stu denten</w>
Bo den</w>
r än
lik ely</w>
hund reds</w>
gr os
er h
Nat ürlich</w>
zei ge</w>
w u
m illions</w>
erfol grei
ent ation</w>
ei g
e k</w>
P au
unter stüt
m men</w>
ig nor
her vor
ad van
Te am</w>
B en
pati ent</w>
o p</w>
n st</w>
innov ation</w>
größ ten</w>
ges pro
g ingen</w>
del i
al low</w>
schwieri g</w>
füh le</w>
experim ent</w>
di ed</w>
ben ef
be kommt</w>
Pr ä
D am
B an
t i</w>
mo del
b ul
b ist</w>
Ri chtung</w>
tri fft</w>
sol ution</w>
k raft</w>
f y</w>
el ek
N ach</w>
In du
B ot
ur ity</w>
st ung</w>
se em</w>
mul ti
av ail
al te</w>
Wahr heit</w>
W ä
sch ul
ri c</w>
nach dem</w>
n a
mov ement</w>
gener ation</w>
ck er</w>
Stim me</w>
Mar s</w>
Archit ek
y es</w>
us h
sa ve</w>
n ern</w>
li ties</w>
gef ähr
f ör
bloo d</w>
be zah
Haup t
Gemein schaft</w>
whi te</w>
th es
s etzt</w>
ri ed</w>
l ess
k rei
industr y</w>
des halb</w>
besch äf
bekan nt</w>
B ra
äl fte</w>
ver wand
ris k</w>
os ed</w>
bli ck</w>
ar m</w>
An zahl</w>
z ellen</w>
verwen det</w>
se a</w>
s ource</w>
s au
mic ro
b om
AI D
st elle</w>
la w</w>
Um gebung</w>
S outh</w>
Regi er
Na cht</w>
Afghan istan</w>
t end</w>
sh ape</w>
mö chten</w>
li g</w>
Wass er
D et
Ar m
nach zu
n it
kno ws</w>
den kt</w>
ad ing</w>
T atsächlich</w>
Is l
th ank</w>
sch war
produc t</w>
eu er</w>
c ro
be wer
ab o
Ih rem</w>
ß er</w>
wis h</w>
un e</w>
ori th
mo ved</w>
kl eines</w>
comp assi
T u
D or
Al le</w>
star k</w>
beg in</w>
Sit uation</w>
Aufgab e</w>
2 4</w>
tes ten</w>
supp ort</w>
pro fes
g orith
d rei
Per son
0 ern</w>
st eh
rec ently</w>
ge zeigt</w>
as king</w>
ag ed</w>
Tei le</w>
S ome
Al l
vo ice</w>
pl ötzlich</w>
medi c
incredi bly</w>
dan ach</w>
absol utely</w>
Tei l
F i
verb unden</w>
ul arly</w>
so on</w>
sch rieb</w>
p ol
mi lit
los s</w>
li ed</w>
gu ten</w>
genan nt</w>
develop ment</w>
Is ra
zeh n</w>
ti ker</w>
tal ked</w>
sho wed</w>
op tim
ogra f
W ie
K raft</w>
K o
ter ri
ta g</w>
bil den</w>
ach ie
Ihr er</w>
we ch
sti e
per fe
net work</w>
fas zin
en ter
Medi kam
Gesund heit</w>
AID S</w>
ti ef
tei le</w>
sol ve</w>
schle cht</w>
or ies</w>
hol en</w>
gi g</w>
er for
cou ra
br u
aus sehen</w>
Ver einig
Mu ster</w>
F rie
Ein ige</w>
D ru
1 ,
typ e</w>
ti z
sion al</w>
imp act</w>
fer ence</w>
f ru
dar k</w>
ch ern</w>
y ond</w>
tri bu
relation ship</w>
ken n
h our</w>
gr ü
fl uss</w>
fe ar</w>
Chin ese</w>
sy m
or ity</w>
fa vor
ey e</w>
d ou
Pl atz</w>
N um
wor th</w>
sa tion</w>
pres ent</w>
ma in</w>
kontro lli
intelli gen
gir ls</w>
dri ve</w>
connec ted</w>
b a
avail able</w>
Sel bst</w>
R us
Ei gen
ver öffent
posi tion</w>
es ts</w>
cl ass</w>
ben utzt</w>
Vor stellung</w>
Su per
Kon zep
Gesch äf
wri ting</w>
nach denken</w>
Veränder ung</w>
T y
S om
P al
Kli ma
I ra
F ace
Erfol g</w>
vis i
sit uation</w>
res ources</w>
pic tures</w>
maj or</w>
ha ven</w>
Re ak
M ex
Bedeut ung</w>
ther ap
r a</w>
nec ess
in te
i an</w>
ess es</w>
er f
and a</w>
F e
Bil dung</w>
so ftware</w>
pl ant</w>
on to</w>
l ate</w>
kom plex
issu es</w>
gen e</w>
el ess</w>
an ge</w>
ac y</w>
Städ te</w>
Prin zi
Ge or
Fre und</w>
y a</w>
suc cess
d aten</w>
son st</w>
li ved</w>
eg al</w>
de mon
big ger</w>
b site</w>
R olle</w>
Europ e</w>
m om
invol ved</w>
gespro chen</w>
entfer nt</w>
M il
Bes ch
Ameri ka</w>
lei cht</w>
el li
dy nam
de gre
chan ce</w>
ati v</w>
a ß</w>
Sch ü
P a
Grö ße</w>
u tion
reas ons</w>
con struc
ati ven</w>
Ph ysi
CO 2</w>
Arbei ts
z y</w>
wei s
ung s</w>
robo t</w>
niem als</w>
dig ital</w>
Mein ung</w>
19 7
tre at
off ensicht
ma chten</w>
lin es</w>
ing ton</w>
i ally</w>
ev ent
F el
pec ially</w>
nor mal
ger e
es pecially</w>
er ie</w>
bi o
be comes</w>
L abor</w>
H älfte</w>
G ar
v ent
th in</w>
stre et</w>
st off</w>
sel n</w>
sel be</w>
incre as
col or</w>
H ey</w>
sozi ale</w>
me et</w>
ho od</w>
gesch rieben</w>
er k
bei de</w>
be yond</w>
Herausforder ung</w>
ter m</w>
rat ie</w>
kl einer</w>
jem anden</w>
ig es</w>
hoff e</w>
ges tal
Fir ma</w>
Be wus
1 3</w>
ut age</w>
r ap
pe ti
ik o</w>
e qui
de vice</w>
bes te</w>
Z ent
W ör
Face book</w>
E ff
la b</w>
d on
Des halb</w>
A d
w esen</w>
r ules</w>
pro mis
neu es</w>
g sten</w>
car bon</w>
au ft</w>
Z eu
St and
S to
Rei se</w>
Kin der
K il
I m
B y</w>
zer st
w all</w>
st opp
mis sion</w>
k ri
hund red</w>
expl ain</w>
compu ters</w>
Wach st
W est</w>
Masch ine</w>
K ü
x i
ver di
n ar
m es</w>
ge kommen</w>
einfa che</w>
eff ect</w>
T V</w>
Stu die</w>
H ir
ro r</w>
p utting</w>
medi cal</w>
in tro
co de</w>
bes u
all ein</w>
verl oren</w>
str ong</w>
so fort</w>
Gener ation</w>
z w
tiv ität</w>
happ iness</w>
bre chen</w>
bab y</w>
F ak
voll er</w>
utz utage</w>
o w
ni fic
is te</w>
grou ps</w>
do or</w>
de ed</w>
ac tive</w>
Wä hrend</w>
R est</w>
B al
y n
tell s</w>
perf ect</w>
mon th</w>
li mit
errei cht</w>
en ded</w>
de c
St re
Sch auen</w>
L ook</w>
A h
ur es</w>
unk te</w>
orig in
mo un
it äten</w>
gr u
fre e
eff ici
ck te</w>
c e
an n
Gewal t</w>
sto od</w>
sch w
grund le
geschi eht</w>
de ten</w>
ar beit</w>
M ot
F unk
te ach</w>
simil ar</w>
h äu
h it</w>
gu ess</w>
fin de</w>
f allen</w>
es o</w>
Fo to</w>
susta in
sol ar</w>
scho ols</w>
m ä
interessi ert</w>
g as</w>
We b</w>
n üt
mes sage</w>
jen igen</w>
ess or</w>
bre ak</w>
V ol
Mit te</w>
Fäh igkeiten</w>
sp ar
lin ks</w>
geb oren</w>
f än
f ern</w>
evi dence</w>
be kam</w>
Stru ktur</w>
S en
Forsch ung</w>
se ar
sa hen</w>
s end</w>
min ute</w>
lo k
for d</w>
ein zu
V on</w>
T od</w>
Stra ße</w>
Rel ig
In formation</w>
G lau
är en</w>
wen den</w>
vor her
op s</w>
n ine</w>
m ass</w>
li ert</w>
inspi ri
gegen über</w>
gef angen</w>
ensi ve</w>
Sicher heit</w>
H ö
Bewus st
ün f
ti ven</w>
pro jects</w>
l age</w>
h aus</w>
ge arbeitet</w>
O f</w>
Entschei dungen</w>
Berei ch</w>
z dem</w>
spra ch</w>
ot yp
materi als</w>
en nen</w>
c ris
P at
H ig
pu bl
nen nt</w>
m äch
f ro
de pres
de ad</w>
conf lic
Son nen
wal king</w>
to wards</w>
speci al</w>
so unds</w>
it ze</w>
fü r
form ed</w>
d nis</w>
con su
cho ice</w>
bes ser
Geb ur
pot ential</w>
n ein</w>
komplet t</w>
em ber</w>
dis t
bewe gt</w>
T im
Rich ard</w>
Krank heit</w>
um p</w>
s at
rie f</w>
g ames</w>
den ly</w>
dach ten</w>
bi le</w>
U S</w>
Jahr zeh
üh en</w>
welt weit</w>
tru th</w>
schlie ßen</w>
ro ad</w>
m me</w>
kom me</w>
de ep
D ro
Beh and
sever al</w>
sec urity</w>
schn eller</w>
off ice</w>
ish ing</w>
g ot
ek ü
bas ic</w>
Fir st</w>
w ind</w>
res i
ab ly</w>
Me er
H inter
Entwick lungs
D ing</w>
y ers</w>
wichti ge</w>
viol ence</w>
stat t
ra is
mo d
läu ft</w>
herauszu finden</w>
ei st
ei m
ef ul
dig it
appro ach</w>
any body</w>
Vereinig ten</w>
scienti fic</w>
re volution</w>
pl as
mm et
be finden</w>
absol ut</w>
Zah len</w>
Mik ro
Ma ybe</w>
Jap an</w>
F äl
z en
tr auen</w>
man i
k u
ga in</w>
exam ples</w>
Son ne</w>
D on</w>
teach ers</w>
gen des</w>
er kan
activ ity</w>
W here</w>
A si
t liche</w>
s ent</w>
pro cess
p assen</w>
k il
h eu
größ er</w>
gra du
at est</w>
W ert</w>
N ur</w>
Kos ten</w>
Ges icht</w>
to wn</w>
sch ät
sch aut</w>
fra ge</w>
e kt</w>
di agn
auf ge
W o</w>
Schul en</w>
Auf merk
partic ularly</w>
hi c</w>
dah er</w>
atur es</w>
ali zed</w>
T ur
N ational</w>
M y
K i
1 .</w>
z ten</w>
tem per
gesam te</w>
extre m
be gan
O berfläche</w>
Ergeb nis</w>
ver sion</w>
sen s
s it</w>
r ich</w>
p ect</w>
obvi ously</w>
e er</w>
dom in
bac ter
archit ec
T re
I T</w>
Hoff nung</w>
Demok ratie</w>
C an
B os
z el
vir tu
star ts</w>
pro per
ob ject</w>
l ern</w>
Par t
verur sa
ten ing</w>
prä sen
o es</w>
le ad</w>
besch rei
ab ri
Univers ity</w>
P or
sug ges
pr os
inter est</w>
i ze</w>
hi elt</w>
expl or
en cy</w>
democra cy</w>
compassi on</w>
bes it
began nen</w>
ag ing</w>
a p</w>
Kar te</w>
K er
wan ts</w>
ver ty</w>
te u
pat tern</w>
olo gen</w>
k ei
bil dung</w>
an statt</w>
Bezieh ung</w>
tig keit</w>
spe ed</w>
se par
lie ßen</w>
komp liz
j unge</w>
i al</w>
h oh
fir e</w>
es c
d in
S an</w>
Re geln</w>
tici p
t ungen</w>
suc cess</w>
sti mmt</w>
s lo
ph äre</w>
f ä
f am
d or
Sch u
Nor th</w>
Feh ler</w>
Aus wirk
ähn lich</w>
wi der
u de</w>
ti sti
su cht</w>
st är
ph en
führ te</w>
c ause</w>
bo y</w>
R ess
Europ a</w>
wer en</w>
ver si
län ger</w>
Mit gefühl</w>
Innov ation</w>
Dat en
sho wing</w>
plan ts</w>
lar gest</w>
jour ney</w>
ck y</w>
certain ly</w>
Kun st
E very</w>
te x
re ach</w>
prin ci
lie ß</w>
gen en</w>
g yp
fol low</w>
f em
am i</w>
ad a</w>
Mar kt</w>
Kontro lle</w>
Al ter</w>
vel s</w>
tot al</w>
st ay</w>
ger y</w>
al ist</w>
ad d
Woh l
B akter
z ation</w>
se x</w>
s ong</w>
p ac
mor al</w>
meas ure</w>
her um
es sion</w>
er mög
do w
big gest</w>
Re alität</w>
P reis</w>
Ch em
zu erst</w>
zeich net</w>
wi cht</w>
smar t</w>
scre en</w>
oc c
k op
ge dacht</w>
er in</w>
e di
an sehen</w>
M eter</w>
1 7</w>
zer o</w>
wichti ger</w>
sozi alen</w>
regi on</w>
pic k</w>
ob jects</w>
lis ten</w>
h ous
fo ot</w>
ei tet</w>
devel op</w>
chti g</w>
c amera</w>
ac coun
V iel
For tsch
D el
Au str
tiv ely</w>
tisch er</w>
muni k
m ous</w>
hist or
h ang</w>
f ine</w>
dra ma
comp lic
Tel ef
T em
H imm
E is
D re
D ok
Aufmerk samkeit</w>
stud ent</w>
shi ps</w>
h inter
grei fen</w>
gemein sam</w>
da m</w>
ation s
ad d</w>
W ol
W ash
Au gen
trei ben</w>
is ch
S eiten</w>
Er d
B üh
Af ter</w>
4 00</w>
u tions</w>
tot ally</w>
sit zen</w>
po verty</w>
oh n
ne te</w>
leg al</w>
gleich zeitig</w>
fur ther</w>
cre ative</w>
bestimm ten</w>
Wir t
Unter neh
sch reck
om en
nu clear</w>
groß er</w>
every where</w>
19 6
y s
su n</w>
sec re
mem ory</w>
medi zin
mean ing</w>
hi g</w>
for men</w>
ci es</w>
bess ere</w>
P ot
Ho ch
Bli ck</w>
teach er</w>
peri od</w>
le u
individu als</w>
in ation</w>
eful ly</w>
blei bt</w>
S ei
Pro f
H um
Glei ch
E volution</w>
u red</w>
in c
gener al</w>
g lichen</w>
er wäh
emp lo
beobach ten</w>
am ong</w>
ü hr
stati sti
respon se</w>
passi erte</w>
ihr es</w>
exc iting</w>
de ck
arbei tete</w>
4 5</w>
ver fü
k ür
j obs</w>
gh ter</w>
g ent</w>
an del</w>
W ür
N A
Materi al</w>
Afri can</w>
tre es</w>
sa fe</w>
rec ei
phot ograp
p ose</w>
ah n</w>
T at</w>
Sch ön
y le</w>
w on
versu chte</w>
ro bot
res ults</w>
r or
per spec
model s</w>
in flu
cal cul
E ast</w>
Bevölk erung</w>
hal t</w>
h l</w>
ge gangen</w>
der t</w>
coll abor
Wash ington</w>
S ig
K no
progra mm
priv ate</w>
poin ts</w>
gri ff</w>
gre w</w>
grap h
gew al
bra ins</w>
wat ching</w>
umin dest</w>
si onen</w>
rei chen</w>
re ci
r ot
produc ts</w>
no body</w>
nam ed</w>
lea ders</w>
he ad
com par
a w
Künst ler</w>
Experim ent</w>
Ein es</w>
rup tion</w>
richti ge</w>
rec or
re qu
ol der</w>
no tice</w>
min is
massi ve</w>
hig her</w>
fre i</w>
favor ite</w>
dan ger
bede ut
b ank</w>
ab les</w>
Wit h</w>
Pau l</w>
G alax
E ven</w>
Beisp iele</w>
vor her</w>
sk in</w>
richti gen</w>
lang sam</w>
kämp fen</w>
is ten
hör t</w>
g alax
co ver</w>
Um welt</w>
Ir an</w>
Her z</w>
schie den</w>
os en</w>
n a</w>
kl ein
k us
im medi
h im
for man
em and</w>
einzel ne</w>
cra zy</w>
an schauen</w>
The orie</w>
So ftware</w>
Gru ppen</w>
vol le</w>
schl ä
li ar</w>
groß es</w>
g eri
extrem ely</w>
dis c
T wit
Sch w
Mol ekü
I mp
äu men</w>
vill age</w>
verbess ern</w>
sk y</w>
ro le</w>
gew innen</w>
dar f</w>
Mon aten</w>
Kön nen</w>
G lob
Bü cher</w>
taus ende</w>
s ou
pp ed</w>
om eter</w>
nachzu denken</w>
ma in
g än
ear li
di ge</w>
Wh o</w>
M os
Bil l</w>
Au ch</w>
z ul
y stem</w>
thous and</w>
ph ilosop
mov ie</w>
exp ect</w>
cris is</w>
c lear
Zu gang</w>
Or te</w>
Medi en</w>
zi g</w>
ti tu
spre ad</w>
s un
p age</w>
l d
inclu ding</w>
er ed</w>
dr ücken</w>
al ing</w>
Ta gen</w>
O per
N er
verst anden</w>
sig nific
sch ir
extra ordinary</w>
cl es</w>
cl ass
ar gu
P an
Compu ter
ul p
ti mate</w>
sud denly</w>
produ zieren</w>
offensicht lich</w>
lo c
k rank
eff ek
bri dge</w>
Sp aß</w>
M ost</w>
Gr enzen</w>
s car
ni a</w>
m ale</w>
ing ing</w>
fa ster</w>
eh ow</w>
buil dings</w>
bestim mt</w>
W ahl</w>
wa it</w>
tau ght</w>
sp o
sho t</w>
s we
s ell</w>
pr ü
min ds</w>
f ight</w>
essenti ally</w>
erlau bt</w>
ep s</w>
di e
cl in
c en
Ver gan
R os
ver lieren</w>
ver lassen</w>
our cen</w>
jo y</w>
as en</w>
P sych
P il
Mensch heit</w>
Krank heiten</w>
Geb iet</w>
C hi
vis ual</w>
versu che</w>
stu dies</w>
plan e</w>
l ist</w>
fundament al</w>
fortun ately</w>
cul tural</w>
ari a</w>
ag ra
W ah
U hr</w>
J ob</w>
Di en
tra ining</w>
piec es</w>
osp here</w>
oll en</w>
ol z</w>
de ter
comm unities</w>
Kon fli
Ein fluss</w>
A re</w>
0 er</w>
ther e
sor ts</w>
sch lagen</w>
event ually</w>
contin ue</w>
b unch</w>
ar ed</w>
N ig
A p
ü b
zeich nen</w>
wi fe</w>
ta ge</w>
t ory</w>
t an</w>
stru ktur</w>
spi elt</w>
some where</w>
le ag
gh tly</w>
bo dies</w>
b au</w>
Nig eri
Ne ur
wi de</w>
sc ri
n äh
l lt</w>
go al</w>
fäl lt</w>
e ur
W ar</w>
In tel
2 000</w>
wus sten</w>
tr ust</w>
sp ir
ox y
im possible</w>
fin ding</w>
fas cin
dru g</w>
d eine</w>
an ks</w>
an dem</w>
an a</w>
allo wed</w>
al th</w>
St elle</w>
S ci
Mus ik
wor se</w>
vers or
tri eben</w>
re mark
ken nt</w>
k ol
dre am</w>
connec t</w>
an al
abo ve</w>
ab el</w>
Spezi es</w>
D ah
tra c
supp osed</w>
for est</w>
c ases</w>
ab zu
O ff
Geschäf ts
G an
Eben e</w>
A s
A pp
1 .
ver änder
seri es</w>
organiz ation</w>
n on
lar ger</w>
kan nst</w>
k ünst
irgend wo</w>
füh lt</w>
erh öh
electri city</w>
dan ce</w>
au ßer</w>
Or d
M ag
B est
3 D</w>
ul l</w>
transp or
tradi tional</w>
te x</w>
hosp ital</w>
f os
ex pla
cho ose</w>
c am
at t</w>
Poli tik</w>
H aus
Arm ut</w>
Ameri kaner</w>
wäh len</w>
te chn
sle ep</w>
sho wn</w>
ing u
for sch
f all
exp ensive</w>
et t</w>
aus sieht</w>
amerikan ischen</w>
Or ten</w>
Nach richten</w>
und ed</w>
sp an
pe ace</w>
o id</w>
inter national</w>
em is
dan ke</w>
con vin
bl ind</w>
b ing</w>
auf re
ari ly</w>
allo ws</w>
S er
S al
P i
Er fin
äf te</w>
wei ght</w>
um ents</w>
in come</w>
fo ot
fac es</w>
ell ing</w>
condi tions</w>
a el</w>
Twit ter</w>
S im
D u
Ö l</w>
verst än
sp ac
k ill</w>
f eld</w>
complic ated</w>
ativ ity</w>
Vergan genheit</w>
Ger ät</w>
Gehir n
wir tschaft</w>
us ually</w>
tik el</w>
thr ough
success ful</w>
stell ten</w>
schnit t</w>
perspec tive</w>
inter nation
com peti
ali ve</w>
Wor te</w>
Th ose</w>
S econ
ä te</w>
visi ble</w>
tre e</w>
ter ns</w>
t lichen</w>
oo t</w>
n ö
kill ed</w>
fami lies</w>
e ma
e ch</w>
dre ht</w>
dies el
ch a
Kap it
vir us</w>
ver gessen</w>
tru ly</w>
robot s</w>
rel ev
r ein
r ant</w>
in deed</w>
ha b</w>
fri e
erzeu gen</w>
abhän gig</w>
S ohn</w>
Nach richt</w>
M ü
verbin den</w>
ter t</w>
t aten</w>
ret ten</w>
pos ed</w>
me ant</w>
er le
er a</w>
com bin
bl in
T ier
Se e</w>
Sch wi
Produ kt</w>
Gef äng
wor fen</w>
wis e</w>
to ol</w>
som ehow</w>
schi cken</w>
nen ne</w>
mach ines</w>
ini ti
hil ft</w>
g ol
con text</w>
cht ungen</w>
Tim es</w>
L es
Kom munik
Isra el</w>
Büh ne</w>
Bewusst sein</w>
z umindest</w>
win digkeit</w>
win den</w>
trä gt</w>
tradi tion
seri ous</w>
ran k</w>
k ep
gesch ehen</w>
engine ering</w>
contin u
Regier ungen</w>
Ra di
Progra mm</w>
Person en</w>
In genie
Geh eim
G ut</w>
Fir men</w>
Fami lien</w>
wen dung</w>
w ritten</w>
phot ograph
in tu
ho t</w>
hin aus</w>
he utzutage</w>
d ow</w>
col lege</w>
Univers ität</w>
S c
A l</w>
wa ste</w>
trot zdem</w>
tal ks</w>
star s</w>
medic ine</w>
kl ein</w>
kep t</w>
glob alen</w>
entschei den</w>
eff ective</w>
cri tical</w>
autom ati
Ver antwor
Sek unden</w>
Mus eum</w>
Ma ß
L os</w>
Er inn
si ve</w>
samm eln</w>
ref lec
produc tion</w>
phen omen
man che</w>
e ad</w>
di vers
d i</w>
d as
c la
Wirk lichkeit</w>
Wh ich</w>
Tal k</w>
T yp
N utz
M IT</w>
C or
ü r</w>
ser vice</w>
ra gt</w>
o i
nie dri
mä ß
heal thy</w>
exc ited</w>
con st
actu al</w>
W ik
T ier</w>
T er
P ak
Medi zin</w>
Lei den
Ein zel
Bet ra
we ver</w>
treat ment</w>
tr ou
tol l</w>
st eu
so wohl</w>
recogni ze</w>
j ungen</w>
gesam ten</w>
g g
fun c
f ris
entde cken</w>
al ter</w>
a gen
Ty p</w>
Nach bar
Metho de</w>
Fot os</w>
t un
st anden</w>
sk ills</w>
sh ap
sel bst
read ing</w>
ne w
in si
einzel nen</w>
col leag
bi ology</w>
ach ten</w>
Wahr schein
Schü ler</w>
Sch ri
Konzep t</w>
B lo
tra f</w>
ti ger</w>
man u
m essen</w>
li m
forman ce</w>
entde ckt</w>
doc tor</w>
dep end
decis ion</w>
ar ing</w>
Mon at</w>
Har v
Gen au</w>
Desig ner</w>
Char les</w>
3 5</w>
provi de</w>
or e
milit ary</w>
inv est
dru gs</w>
an c
Ver stän
Lin ie</w>
G ri
G ele
ye ah</w>
wä l
ut z</w>
up on</w>
stie g</w>
stei gen</w>
sol chen</w>
sm aller</w>
pr en
in j
bestimm te</w>
at ten</w>
Um welt
System e</w>
Geor ge</w>
Gen e</w>
Ergeb nisse</w>
Dah er</w>
Americ ans</w>
1 50</w>
vi c
th rop
st ers</w>
speci fic</w>
pra k
pedi a</w>
in str
hal te</w>
et ze</w>
ec ting</w>
dow n
bein gs</w>
any where</w>
al tern
Prinzi p</w>
Engl and</w>
ple ase</w>
pat terns</w>
gen der</w>
gef ragt</w>
ep ing</w>
dru ck
cont ent</w>
ati ves</w>
Sin ne</w>
S icht</w>
Prä si
Mich ael</w>
Mar k
ür f
st an
sol utions</w>
ha ft</w>
großarti ge</w>
f low</w>
et h</w>
erklär t</w>
conver sation</w>
Studi en</w>
S ep
A no
tou ch</w>
str eng
spr ün
r o</w>
lei sten</w>
kü mm
him self</w>
fa ir
f el</w>
end lich</w>
do g</w>
chti gkeit</w>
c au
Schl üs
Pf lanzen</w>
N ot
Ent deck
ries ige</w>
rec ord</w>
hör te</w>
h ole</w>
gen es</w>
gel ö
con s
b ieten</w>
architec ture</w>
ad ap
To day</w>
P ra
Li ke</w>
I mag
H or
ä ft</w>
secon ds</w>
rei ch</w>
human ity</w>
hal ten
ha f
f res
ermög licht</w>
Auswirk ungen</w>
v al</w>
st am
prot ect</w>
pa th
k auf
ir ur
ide m
einfa chen</w>
d opp
Stra ßen</w>
Ä n
zi eht</w>
unter suchen</w>
tri e
tre at</w>
sp or
s ü
pri ce</w>
normal erweise</w>
ne ben</w>
n ur
mat h</w>
k el
her stellen</w>
f ill
auf grund</w>
Ress ourcen</w>
Mathema tik</w>
Dor f</w>
Ano ther</w>
y l
war ten</w>
ti er
st om
pa in</w>
mitt eln</w>
lo wer</w>
le gt</w>
incre ase</w>
b lich</w>
arbei te</w>
Z u</w>
T err
Sch ool</w>
Sch mer
Pap ier</w>
Koh len
Himm el</w>
H om
1 5
öffent lichen</w>
v ely</w>
v eh
stor e</w>
scha fft</w>
fami liar</w>
Sep tem
Mus li
Kö ni
An y
ü ben</w>
öff nen</w>
zei gte</w>
v it
ri ch
n alis
ll ed</w>
ing ungen</w>
hand elt</w>
f alt</w>
decis ions</w>
con cept</w>
ci tiz
c ru
c ele
Ord nung</w>
For men</w>
Er wachsen
Energi e
A tom
A mei
ü gen</w>
ä r</w>
tra in</w>
t oren</w>
so c
sen si
p asst</w>
ous ness</w>
neigh bor
m als</w>
gra de</w>
eas es</w>
da durch</w>
betra chtet</w>
beau ty</w>
al d</w>
af ri
ac tions</w>
T ie
Pl as
Num mer</w>
Li fe</w>
Ch ance</w>
un möglich</w>
ta ins</w>
su e</w>
strat eg
physi cs</w>
k m</w>
k aum</w>
ier end</w>
ie ties</w>
ici al</w>
gre ater</w>
ex ist</w>
ar tic
Zi vil
Wachst um</w>
Kol legen</w>
J an
Bl ut
wer t
wa iting</w>
pres s</w>
ple as
p fen</w>
neur ons</w>
mor al
m ed</w>
kom men
hunder t</w>
ent schieden</w>
divers ity</w>
Wie der
Th om
Septem ber</w>
Kon fer
übri gens</w>
squ are</w>
sei ts</w>
lis tening</w>
h äl
fam ous</w>
dis chen</w>
a ware</w>
J ames</w>
Gei st</w>
A le
200 8</w>
won der</w>
wir ken</w>
t ät</w>
rei g
poli cy</w>
oper ation</w>
mo bile</w>
l ten</w>
k ör
k ap
intelligen ce</w>
ge tro
f assen</w>
die jenigen</w>
bre a
bacter ia</w>
Oz ean</w>
Mor gen</w>
Gehir ns</w>
ä he</w>
vi er
re chts</w>
le gs</w>
interessan te</w>
fantas tic</w>
exp lo
br an
be findet</w>
be ein
ar ri
any more</w>
Zeu g</w>
Z wei</w>
Sy m
Str at
So zi
O x
J our
Intel li
. B.</w>
s us
ri ghts</w>
rel ated</w>
prac tice</w>
p e</w>
ne ar</w>
lo ved</w>
ex tra</w>
emo tional</w>
ell s</w>
ei li
dre hen</w>
b te</w>
af ter
Y our</w>
Sch war
Bab y</w>
tisch es</w>
ta te</w>
s al
näh er</w>
m ein
got ten</w>
free dom</w>
er nen</w>
earli er</w>
d lichen</w>
cos ts</w>
con cer
chn ungen</w>
be coming</w>
Ver such</w>
T as
O ri
w ün
veh ic
v ul
ur ban</w>
und ation</w>
there fore</w>
schön e</w>
s low</w>
on dere</w>
m asch
in es
ich ts</w>
i de</w>
heraus finden</w>
geb il
fer tig</w>
dri ving</w>
connec tion</w>
conflic t</w>
con ven
ber üh
P ol
H ände</w>
Bür ger
1 7
zwei ten</w>
we ap
through out</w>
ri er</w>
ph ones</w>
l y
con c
clear ly</w>
ber e
b illi
amer as</w>
ac ity</w>
Woh n
Th er
Organis ation</w>
Behand lung</w>
sub ject</w>
stoff e</w>
pul l</w>
pr int</w>
poli ce</w>
mi le</w>
h ur
ex cept</w>
et es</w>
erzäh lte</w>
erst off</w>
ent re
curr ent</w>
außer halb</w>
ar t
Wirt schafts
Mensch en
Lös ungen</w>
Land es</w>
L ö
L it
B it
we b</w>
th ern</w>
st ar</w>
so dass</w>
sh e
s wi
plas tic</w>
per formance</w>
m eter</w>
le vels</w>
ges ell
geh alten</w>
extre m</w>
dra w</w>
beh aup
ac ci
We ge</w>
T aus
Grün de</w>
we bsite</w>
th ro
tei lung</w>
teach ing</w>
remark able</w>
fun ny</w>
f äh
a de
V o
Mit tel</w>
Meer es
Inter esse</w>
Imag ine</w>
Ein stein</w>
Architek tur</w>
A ma
stän de</w>
s eite</w>
rit an
r an</w>
pp ing</w>
pf er</w>
l ehr
fl ying</w>
erfolgrei ch</w>
S at
Obje kt</w>
Indi vidu
Frei heit</w>
Far be</w>
Er kenn
u fen</w>
p il
ec kt</w>
b at</w>
at ory</w>
Wik i
Verstän dnis</w>
Thom as</w>
M ach
B on
überr asch
äu ß
wel cher</w>
tra ff
sch ri
r aus</w>
r and
mo tiv
m ers</w>
form ing</w>
er o
em erg
da te</w>
ca .</w>
arti st</w>
a ster</w>
P S</w>
N ame</w>
J unge</w>
wer k</w>
ti ves</w>
sch lag</w>
pro gress</w>
li ber
k at
frü her</w>
evol ution
ch s
car eer</w>
ca des</w>
b la
Y ou
Ver fü
Ste ve</w>
J ungen</w>
zu fäl
z immer</w>
val ues</w>
tri t
st range</w>
re duc
k it
is tic</w>
her zustellen</w>
ha m</w>
fun ction</w>
fi g</w>
em er
eff izi
direc tion</w>
dec ade</w>
d ritte</w>
Netzwer k</w>
Nahr ung</w>
E reig
Dam it</w>
Bezieh ungen</w>
Ar tikel</w>
wal ked</w>
un t</w>
si m
ne l</w>
n ation</w>
ma gic</w>
lei st
gre atest</w>
gesch lossen</w>
ess ed</w>
en des</w>
durch schnit
d ollar</w>
at m
Zeit punkt</w>
Nat ur
Mit tel
Harv ard</w>
H än
H au
H aben</w>
ter ror
r ely</w>
li gh
gesch affen</w>
f it</w>
danger ous</w>
b on
R om
Lie bl
K al
Fin anz
Be gin
B ur
Ar zt</w>
ät z
z ut
schüt zen</w>
re por
poli tics</w>
kul tur
iz ed</w>
inv ented</w>
hy th
hin zu
fu hr</w>
f lie
es ter</w>
environ mental</w>
en coura
en ced</w>
dro h
cre ativity</w>
Se x</w>
Proje kte</w>
Par k</w>
NA SA</w>
E ig
ät zlich</w>
wi d
sur gery</w>
spre che</w>
s ent
p al
govern ments</w>
flo or</w>
er leben</w>
en se</w>
einzi gen</w>
consi der</w>
cli m
S ha
Milli on</w>
Man chmal</w>
K ri
In str
Ges etz</w>
E is</w>
Chr ist
Be weg
Ö ff
tra vel</w>
sp on
ser vices</w>
s mo
re alis
n utz
ma ßen</w>
l ap
it i</w>
immedi ately</w>
for th</w>
ein ge
der ed</w>
al gorith
ac ting</w>
Veränder ungen</w>
Masch inen</w>
Er n
Begin n</w>
Arbei t
6 00</w>
wei s</w>
verk aufen</w>
sustain able</w>
s eines</w>
rei b
no tic
fra gt</w>
d unk
be gr
b a</w>
außer gewöhn
ak tu
ab stra
T wo</w>
Sta tisti
S pr
H al
Erfahr ungen</w>
D rit
9 9</w>
äl ter</w>
ur ch</w>
under stood</w>
the tic</w>
st ro
st eri
re ach
origin al</w>
ne un</w>
l ie</w>
h i</w>
grei f
getro ffen</w>
füh lte</w>
fu el</w>
ent weder</w>
en ess</w>
desig ner</w>
depend ent</w>
da d</w>
Rau m
Pl an</w>
Oz e
I denti
Ein er</w>
D on
Be zug</w>
sti ck</w>
mp tion</w>
me eting</w>
land sc
ing s
in fra
elek tr
doc tors</w>
dis appe
chn ung</w>
ch ter
bri lli
br ei
K rei
D ec
z ine</w>
will ing</w>
typ es</w>
tu ally</w>
t wi
sp ür
shar ed</w>
r at</w>
li en
ler nte</w>
k as</w>
hand eln</w>
for ces</w>
follo wing</w>
exp ected</w>
de u
W a
Kre ativ
K amera</w>
uni que</w>
tr um</w>
stand ard</w>
sli de</w>
par k</w>
mehr ere</w>
li ghts</w>
l ad
kei ts
geh e</w>
entre pren
eben so</w>
W esen</w>
Tei len</w>
Produ kte</w>
Po liz
L auf
Kar ri
J os
Gre at</w>
C am
Bakter ien</w>
20 10</w>
vari ous</w>
v ent</w>
stre am</w>
stell ungen</w>
er fahren</w>
ell es</w>
de cades</w>
as su
ar ch
ab l
Wor ten</w>
W and</w>
S ie
Re cht</w>
Kamp f</w>
E t
C alifor
Au ge</w>
wen ige</w>
ver hin
ver antwor
passi on</w>
men d
fä hig</w>
fin al</w>
disc us
citiz ens</w>
cht es</w>
ber g</w>
b ild</w>
ah ead</w>
Terr or
Sy n
F en
D ep
zus agen</w>
wh ose</w>
voll en</w>
us er</w>
ti erte</w>
sur ro
o ds</w>
m ann</w>
k turen</w>
inter pre
hö ch
h a</w>
erwar ten</w>
c old</w>
bes ondere</w>
Bed ürf
us eful</w>
sch te</w>
ph ys
jem andem</w>
e ds</w>
e ding</w>
das selbe</w>
Wes tern</w>
St unde</w>
Schön heit</w>
M är
M om
Leiden schaft</w>
L iste</w>
Ar m</w>
An gel
öff net</w>
tra ck</w>
tel ev
sequ ence</w>
s at</w>
rei ch
r und</w>
k y</w>
il t</w>
heu tigen</w>
help ed</w>
gesch aff
fäl le</w>
deci de</w>
bo ys</w>
arbei ter</w>
ak zep
W ow</w>
M r.</w>
Intelli gen
Gra d</w>
Ber u
überr as
v at
ra in</w>
qu ar
par ticip
on y
it at</w>
f igh
ev ent</w>
erinn ere</w>
di gt</w>
d ness</w>
cle an</w>
ali zation</w>
ag ri
Ver l
St rom</w>
Reak tion</w>
In fra
G al
D an</w>
C enter</w>
Au ßer
wor kers</w>
unterstüt zen</w>
st ad
sp l
soc ieties</w>
sch luss</w>
ra ise</w>
r aten</w>
obvi ous</w>
l ands</w>
institu tions</w>
inst ance</w>
i Ph
groß artig</w>
g an</w>
fre qu
fa ir</w>
enor mous</w>
ehr lich</w>
di en
d ein</w>
comple te</w>
comp ut
bu ch</w>
a id</w>
St an
Secon d</w>
Ro bert</w>
M ut
Kranken haus</w>
Jahrhunder ts</w>
19 5
w est
unglaub liche</w>
schn ei
pa ir</w>
n ut
konzentri eren</w>
he ben</w>
glob ale</w>
ge g
e gi
der ung</w>
bar keit</w>
at om
ag ree</w>
Z eiten</w>
Sch wes
B us
200 7</w>
ta il</w>
st ation</w>
scha ff
s is</w>
relig ion</w>
ot h</w>
neh me</w>
mag ne
m ess
ken s
gene tic</w>
gen utzt</w>
fol gt</w>
dro p</w>
dig ung</w>
des to</w>
ch ron
an k
Lu ft
K a
Bi g</w>
wei te</w>
vie ws</w>
ver halten</w>
ung spro
tri but
schö nen</w>
ra y</w>
o te</w>
le ts</w>
fr ühen</w>
eigen es</w>
com mit
an ten</w>
a il</w>
Wör ter</w>
Regi on</w>
Qu ad
Ges prä
Fran cis
Califor nia</w>
ähr t</w>
wass er</w>
verr ückt</w>
ter y</w>
t ask</w>
str ie</w>
sear ch</w>
re cht
pla yed</w>
pa ig
p ath</w>
neg ative</w>
la ws</w>
emo tion
eh e</w>
dis eases</w>
challen ges</w>
as soci
Materi alien</w>
In se
Fu ß
Entschei dung</w>
Eigen schaften</w>
Ama z
5 ,000</w>
Är zte</w>
tiv ity</w>
survi ve</w>
rec ent</w>
pl om
nach hal
kos tet</w>
it es</w>
finan cial</w>
f s
en ing</w>
d get</w>
cap acity</w>
bas is</w>
al though</w>
Ph än
P unkte</w>
Medikam ente</w>
M as
Li cht
I tal
Francis co</w>
E th
7 5</w>
zent r
unterschied liche</w>
tis h</w>
temper ature</w>
spe aking</w>
shar ing</w>
produc ed</w>
pres sure</w>
pre par
possi bly</w>
not wen
mit ten</w>
mark ets</w>
hin ein</w>
gu ter</w>
ec ken</w>
di vi
da ma
bis her</w>
b ü
b ble</w>
ad di
ac i
Kreativ ität</w>
Kom plex
J er
F a
Den k
w and</w>
ver bringen</w>
sum mer</w>
r au
olog ist</w>
nis sen</w>
met ap
kos ten
gew äh
eben falls</w>
direc tly</w>
com mer
ci ent</w>
be antwor
Zu stand</w>
Verantwor tung</w>
Neu ro
Je des</w>
Fre ude</w>
z .B.</w>
unter schei
tion ed</w>
telev ision</w>
t al</w>
stec ken</w>
sp iel</w>
sh or
par ty</w>
p et
m mer</w>
leben s
ken ne</w>
gl ass</w>
g lie
g ei
fü gen</w>
e cht</w>
dau ghter</w>
ch nen</w>
ch ines
bab ies</w>
an o</w>
a gement</w>
W erte</w>
Ver sion</w>
Un ser</w>
C oun
Antwor ten</w>
trans l
stra ight</w>
st ates</w>
s th
p ost</w>
j ene</w>
expl ore</w>
el e</w>
cl assi
cap it
bi a</w>
Stre et</w>
S ar
O k</w>
L au
Her zen</w>
Fre und
F er
wichti gsten</w>
tri al</w>
tr aum</w>
t ungs
st ed</w>
sp ru
s an
ru le</w>
progra ms</w>
p ass</w>
leb te</w>
geschaff t</w>
evol ved</w>
behand eln</w>
am in</w>
ah n
Werk zeuge</w>
Sp an
Nigeri a</w>
Inter net
D ra
zus etzen</w>
zus ehen</w>
wor st</w>
tra de</w>
tie f</w>
spi ri
schle chte</w>
pl us</w>
g utes</w>
diagn os
cri min
con duc
com fort
brau chte</w>
bel ow</w>
b y
b ritan
any way</w>
Z elle</w>
St amm
L etz
Kon ta
Far ben</w>
1 0,000</w>
ö sen</w>
zah len</w>
z em</w>
ver mei
uns ch</w>
te ch</w>
so bald</w>
sli ghtly</w>
s wit
publ ished</w>
pa id</w>
net works</w>
inspi red</w>
he at</w>
führ ung</w>
foc used</w>
fe ed</w>
experim ents</w>
dis che</w>
cro w
civi liz
br inging</w>
Wiki pedia</w>
Verfü gung</w>
Tu be</w>
Relig ion</w>
N ord
H is</w>
F rom</w>
E m
Au di
wi ld</w>
war t</w>
vor bei</w>
transp ar
schät zen</w>
ru fen</w>
mar k</w>
effici ent</w>
d ying</w>
cor por
cap ital</w>
ast rop
ar ten</w>
an gefangen</w>
Th ink</w>
N etz</w>
M S</w>
H äus
E mp
B at
Ah nung</w>
tem por
taus end</w>
r ing</w>
qu ick</w>
pur pose</w>
mo m</w>
größ ere</w>
fas hi
f ot
ein halb</w>
chem ical</w>
caus es</w>
bi ological</w>
alis ierung</w>
af en</w>
Wes ten</w>
Tem per
Sp itze</w>
Per spek
K lei
H aut</w>
E hr
ör ung</w>
zun ehmen</w>
us tice</w>
tre mend
sh el
ph en</w>
ori en</w>
off en
nah e</w>
ll ing</w>
ie te</w>
e chte</w>
comp on
bir th</w>
al a</w>
Zent rum</w>
T um
T or
Su che</w>
Nahr ungs
Fl ü
Er stens</w>
Bi ologie</w>
1 2
zei t
tur ning</w>
trä ge</w>
t les</w>
spre ch
scienti st</w>
s um</w>
m än
k einer</w>
gesch ah</w>
f s</w>
einz ig
d ent
d den</w>
cor rec
You Tube</w>
Indi an</w>
D im
y n</w>
ur sprün
terri ble</w>
so li
secre t</w>
re ma
r ie</w>
pop ular</w>
lie f</w>
größ eren</w>
geschi chte</w>
fän gt</w>
es ter
eff ects</w>
e ating</w>
dimen sional</w>
ber u
beg eist
ass ung</w>
W hi
Verbin dungen</w>
T isch</w>
Gele genheit</w>
C ha
wor k
val ent</w>
stre ets</w>
stra tion</w>
schir m</w>
r unter</w>
pe l</w>
mos tly</w>
k ünf
infra structure</w>
glau bt</w>
et c</w>
es ten</w>
entschei den
ed back</w>
cre ates</w>
beeinflus st</w>
b ought</w>
app ed</w>
an ischen</w>
W ur
Ver su
V ier
K ra
J obs</w>
Flug zeug</w>
Engl isch</w>
C .</w>
B äume</w>
Ö l
un k</w>
ti ere</w>
ter ed</w>
sig n</w>
relev ant</w>
ra tional</w>
ob il
kom muni
in ge</w>
go s</w>
ge be</w>
g ers</w>
des tro
con ference</w>
comple x
charac ter</w>
car ry</w>
ans wers</w>
ali a</w>
ah men</w>
ac ts</w>
Unter stüt
T ieren</w>
Man che</w>
Konfer enz</w>
Gl ück
Fern seh
Bür o</w>
ti an</w>
surpris ing</w>
re agieren</w>
p ush</w>
os sen</w>
organiz ations</w>
j ün
hel d</w>
exis tiert</w>
ett bewer
erf unden</w>
d ents</w>
cor e</w>
consci ousness</w>
clos er</w>
ch air</w>
bir ds</w>
beg onnen</w>
b ieren</w>
atm osphere</w>
Unter schie
Me er</w>
M any</w>
C y
C l
us ual</w>
t ac
signific ant</w>
ro oms</w>
ra ce</w>
kontrolli eren</w>
help ing</w>
erzeu gt</w>
er möglichen</w>
cis e</w>
bal ance</w>
au er</w>
att ac
afri kan
add ress</w>
Wi der
Su b
N ähe</w>
Groß britan
Bür ger</w>
At lan
A dam</w>
über leben</w>
än ge</w>
we be</w>
tra vel
sol di
sc an
poli tischen</w>
par a
mos phäre</w>
lo ad</w>
kon om
ir es</w>
hy dro
ent ing</w>
disco ver</w>
de b
b o</w>
b its</w>
an throp
V en
Tr aum</w>
Städ ten</w>
O sten</w>
N och</w>
Mi ddle</w>
Hig h</w>
Ge fühle</w>
F inger</w>
wor ry</w>
w est</w>
versu ms</w>
v ot
twi ce</w>
ro man
ra id</w>
ph o
off en</w>
har t</w>
g äng
f ying</w>
cho ices</w>
In stead</w>
H ü
Dar win</w>
D er
Ch ic
ö se</w>
wi eso</w>
um zu
trou ble</w>
sy mmet
photograp h</w>
oxy gen</w>
oll y
notic ed</w>
me th
is on</w>
impro ve</w>
g gl
ex ten
desig ners</w>
degre es</w>
complex ity</w>
co ff
ck er
cam paig
be es</w>
alis m</w>
Z w
To chter</w>
T ür</w>
B ank</w>
An satz</w>
A us</w>
1 ,000</w>
v an</w>
tr in
si mul
intelli gent</w>
ic o</w>
ge m</w>
f is
d ür
d um
co m</w>
car to
bro ken</w>
behand elt</w>
ak tiv</w>
Typ en</w>
M ul
Kin d
Infra struktur</w>
Gesch äft</w>
Fre unden</w>
Eu ro
um ente</w>
sp ending</w>
ogni tive</w>
le g</w>
kos ten</w>
intu i
h us
fi x
extre me</w>
eng age</w>
differ ences</w>
bra chten</w>
bed ingt</w>
an cient</w>
ag re
S and
L ar
L ap
Kl asse</w>
H öh
Col lege</w>
tr en
si chti
r aum</w>
poli tische</w>
os s</w>
me tho
m ig
gestal ten</w>
experi ences</w>
erwar tet</w>
ent lichen</w>
colleag ues</w>
call s</w>
c el
V ari
M ic
Kon tin
K .</w>
Jap an
H ot
Gesell schaften</w>
G PS</w>
supp ly</w>
r t</w>
p ack
oo ds</w>
o g</w>
mo tion</w>
high ly</w>
gi cal</w>
for get</w>
ex u
erlau ben</w>
comfort able</w>
cent ral</w>
bi et
arti ge</w>
W unsch</w>
Ste u
Sci ence</w>
Glau ben</w>
Gesch windigkeit</w>
C he
ver ing</w>
stud ying</w>
molec ules</w>
intro duc
iPh one</w>
hal tung</w>
fe els</w>
arti sts</w>
Re de</w>
P la
L ernen</w>
Komplex ität</w>
wu chs</w>
ur ing</w>
trit t</w>
stron om
st äd
s em
om et
mo te</w>
manu fac
ma ga
her r
h ot
gelö st</w>
g liche</w>
fi el
f ung</w>
eig n</w>
deut lich</w>
bemer kens
Unterschie de</w>
T radi
Sol ar
S an
In ves
Ö kos
spe ech</w>
ries igen</w>
re chten</w>
prof it</w>
produ ziert</w>
pop ul
on ate</w>
moun tain</w>
k al
einfach er</w>
c um
bu chst
b us</w>
af raid</w>
ac cep
Sch ei
S am
Ph ilosop
Isl am</w>
zi ge</w>
vul ner
s and</w>
redu ce</w>
r ying</w>
pi te</w>
p sy
no te</w>
lic ations</w>
ier ende</w>
er fü
e dge</w>
communic ate</w>
blo ck</w>
Viel falt</w>
Re gen
Nor den</w>
N ehmen</w>
Män nern</w>
Mi lit
D ort</w>
tribu tion</w>
tim ately</w>
st ress</w>
sig n
shi ft</w>
sen den</w>
schi en</w>
ro ck</w>
mo di
mis sing</w>
me ters</w>
hi li
ges tor
fl ü
fl u</w>
fas st</w>
ent schied</w>
ec os
eas ily</w>
dor thin</w>
de vices</w>
de cl
ber ühr
ap art</w>
an te</w>
ail s</w>
a dem
Z er
W at
Sek unde</w>
Kil ometer</w>
K ir
Ju li
Chic ago</w>
Bos ton</w>
ten dlich</w>
sex u
s amen</w>
moder nen</w>
la den</w>
imag ination</w>
gew ach
fle xi
entwick elten</w>
en ze</w>
ei ch
best ehen</w>
Ge w
y stem
weiter hin</w>
t ons</w>
t ent</w>
stad t</w>
schwi er
relation ships</w>
re ve
ge k
fi z
en ga
cor ner</w>
bo t</w>
att ack</w>
Vir us</w>
Rus si
Ris iko</w>
Res ul
Fami lien
De ut
Ab end</w>
wär ts</w>
wan del</w>
v a</w>
sit es</w>
responsi bility</w>
r ä
philosop h
p ush
letz tes</w>
la w
hear ing</w>
gan zes</w>
din osau
communic ation</w>
achie ve</w>
Uni versums</w>
Re gel</w>
R est
Obje kte</w>
H all
C E
ün sti
y el
x im
we a
vor zu
stopp ed</w>
shar es</w>
po unds</w>
opport unities</w>
necess ary</w>
ne ten</w>
h ause</w>
fra gten</w>
exis ten
ent stehen</w>
en heit</w>
en det</w>
bit ten</w>
auf genommen</w>
arg ument</w>
Zusammen hang</w>
P op
Karri ere</w>
Inter ak
H ol
Gefäng nis</w>
Fr üh
Dis kus
D P</w>
B om
z y
wi l
wi esen</w>
w en</w>
verk auft</w>
ven tion</w>
st ran
sp er
re vol
kon stru
k tionen</w>
j ec
industri al</w>
fi x</w>
exp on
erstaun lich</w>
erfor schen</w>
ent steht</w>
elec tron
dr in
con sum
chil d
char ge</w>
bar es</w>
S we
Pak istan</w>
Intelligen z</w>
Bot schaft</w>
B lu
An der
wissenschaft liche</w>
wei ten</w>
v oc
v ement</w>
ti gung</w>
sta g</w>
spac es</w>
so genan
seem ed</w>
sch u
re chte</w>
qu ote</w>
mög liche</w>
l am
kl ingt</w>
gen ome</w>
fem ale</w>
ear th</w>
e a</w>
der ship</w>
dau ert</w>
da gegen</w>
coll ap
amerikan ische</w>
W ind</w>
T est</w>
Physi k</w>
Neur onen</w>
N a</w>
J ohn
Inter ess
H on
Go od</w>
F luss</w>
Ein kommen</w>
E p
A ni
wh er
tremend ous</w>
ti ges</w>
t eln</w>
sel ts
sa ß</w>
possi bility</w>
pass ed</w>
mus eum</w>
la un
k eln</w>
heal th
gel assen</w>
e en</w>
den k
cu stom
con serv
bre ak
ass em
Ta ke</w>
T ru
M ehr
K ä
Je de</w>
F eu
Dep res
Bra zi
At mosphäre</w>
w ächst</w>
val u
tu m
tis sue</w>
struc tures</w>
set zung</w>
res tau
res er
r ou
pri mar
ir s</w>
hei m
differ ently</w>
defin ition</w>
ch eck</w>
beeinflus sen</w>
b aut</w>
an ges
alle y</w>
alis mus</w>
Ver halten
To des
Sol daten</w>
Fu ß</w>
Bit te</w>
A gain</w>
200 5</w>
2 1</w>
x es</w>
vol un
usi ve</w>
tra g
tal ter</w>
supp or
su per</w>
jo in</w>
inter act</w>
hän gt</w>
h as
gele gt</w>
frei en</w>
forder t</w>
exp ec
V ision</w>
Sp ielen</w>
Prof essor</w>
Pos ition</w>
Mat erie</w>
M üt
Jahr es</w>
Fen ster</w>
Bri tish</w>
woh in</w>
verfü g
ver folgen</w>
res ol
radi o</w>
r ück
r ough
op h
olly wood</w>
off er</w>
ne arly</w>
men te</w>
landsc ape</w>
i ken</w>
ent lang</w>
de a
d ar</w>
condi tion</w>
ari an</w>
ad op
O pfer</w>
Institu te</w>
H under
F le
F ein
Euro pe
tur ing</w>
ti si
st ands</w>
r ü
pris on</w>
n one</w>
far mers</w>
con cep
br and</w>
benö tigen</w>
ar d
ali ze</w>
S äu
Dru ck</w>
zi gen</w>
woh ner</w>
verursa cht</w>
st ück</w>
so wie</w>
sel ber</w>
sa ving</w>
s .</w>
perc ep
olo ge</w>
lit ät</w>
leb ten</w>
le ading</w>
j ahr
i onen</w>
ha ir</w>
g ilt</w>
fli es</w>
er stellen</w>
el ine</w>
beschäf tigt</w>
benö tigt</w>
ab t</w>
Ver gleich</w>
Re d
Ni emand</w>
Ne w
N ation
Milliar de</w>
M R
K eine</w>
Dur ch</w>
Ch irur
B is</w>
Ac tually</w>
üs se</w>
win dow</w>
tra ined</w>
sor gen</w>
ser ve</w>
sei en</w>
respon d</w>
rei cht</w>
plan ets</w>
lu cky</w>
l ying</w>
l auf
kno wing</w>
is o
identi ty</w>
hab t</w>
grap h</w>
fol ge</w>
en ch</w>
ell en
cre atures</w>
ativ ely</w>
ast ro
ass es</w>
Organis ationen</w>
Ner ven
F lei
F abri
Aus bildung</w>
ä chen</w>
qu es</w>
oc e
mom ents</w>
le k
kör per
inves tieren</w>
hi elten</w>
gi ant</w>
gew onnen</w>
eff ort</w>
e ure</w>
d äch
coff ee</w>
br ings</w>
benef its</w>
Zusammen arbeit</w>
W ü
Mod elle</w>
Großbritan nien</w>
A ch
überzeu gt</w>
veröffent licht</w>
ter en</w>
te en
st ing</w>
sch einen</w>
ro b
n om
mem bers</w>
los en</w>
l es
kl in
i lity</w>
fascin ating</w>
fair ly</w>
erinn ert</w>
el a</w>
d un
d it</w>
con fi
ch ers</w>
bo un
bl ed</w>
bet eili
be trifft</w>
b ird</w>
as er</w>
al og
ac cur
Zivil is
Wahr neh
Unterstüt zung</w>
Tran s
Spe k
Part ner</w>
P eter</w>
Kommunik ation</w>
Ha ve</w>
E D</w>
A R
1 9</w>
zei chen</w>
wieder um</w>
um gehen</w>
stec kt</w>
si ch
sequ ences</w>
responsi ble</w>
relig i
pu zz
profes sion
no tion</w>
neu ro
neigh b
ne e</w>
heraus gefunden</w>
e te</w>
co vered</w>
car d</w>
bru ch</w>
beh alten</w>
b one</w>
an no
W andel</w>
Unter su
Op en</w>
Klima wandel</w>
zu künf
wir st</w>
weis s</w>
v acc
un bedingt</w>
tä glich</w>
relig ious</w>
pot enti
op posi
olog ists</w>
mut lich</w>
min ister</w>
li gen</w>
ie gel</w>
frü h</w>
da ß</w>
d ungs
av y</w>
app ing</w>
ap p</w>
K aff
Ira q</w>
Hö he</w>
Fortsch ritt</w>
Fern sehen</w>
Er klär
200 9</w>
verdi enen</w>
v ity</w>
sit zt</w>
sicher lich</w>
sch m
s inn
res ist
rei se</w>
pu ts</w>
phenomen on</w>
it able</w>
i den
h ell</w>
for ever</w>
fail ure</w>
erst es</w>
durch geführt</w>
da vor</w>
buchst ä
bezah len</w>
beschrei ben</w>
berüh m
ar ies</w>
app reci
an tas
T ro
Ster ne</w>
Som mer</w>
Mex ico</w>
M ir</w>
K unden</w>
Ha iti</w>
Char ak
Bild ungs
Bed ingungen</w>
A h</w>
ä her
Öff ent
zo g</w>
us s
unterschied lichen</w>
um enti
p un
ob s
natür liche</w>
fre und
fin ished</w>
fig ured</w>
fi k</w>
er es</w>
el er
dimen sion
col ors</w>
bo at</w>
V ö
Sch au
S atur
N utzen</w>
M ah
K am
Indu strie</w>
Er zäh
20 .</w>
ähr ung</w>
weiter es</w>
war m</w>
tem p
t em</w>
st ern</w>
so zusagen</w>
necess arily</w>
mor gen</w>
mo ves</w>
lich sten</w>
li c</w>
lea dership</w>
krie g</w>
ko p</w>
ill u
il ed</w>
h ne</w>
fic ation</w>
fi ziert</w>
e ar</w>
dist ance</w>
diesel be</w>
den s
cy cle</w>
br auch</w>
an gen
aff ord</w>
V alley</w>
S ind</w>
G o</w>
6 5</w>
zeu g
wei r
v ey</w>
tici ans</w>
t olle</w>
stei gt</w>
sa f
r ein</w>
p ap
less on</w>
l äch
l abor</w>
kommuni zieren</w>
im mer
hel ps</w>
gebil det</w>
gab e</w>
fin anz
do ws</w>
descri be</w>
cor tex</w>
consci ous</w>
co ol
ck ten</w>
bl es</w>
au ton
app en</w>
ach es</w>
Sü d
St at
Sor gen</w>
Rest au
L och</w>
F euer</w>
D o
Ü ber</w>
z one</w>
y ra
wir kt</w>
wer te</w>
wahr en</w>
vi a</w>
trie b</w>
t um</w>
si ck</w>
res pect</w>
re turn</w>
pp er</w>
part ment</w>
mon it
lin ken</w>
lau tet</w>
l ab
kehr en</w>
k es
gel angen</w>
g in</w>
f light</w>
ev ents</w>
eng ine</w>
disco very</w>
cap able</w>
bl ing</w>
be ten</w>
außer dem</w>
app ly</w>
an ti</w>
S ehr</w>
Proble men</w>
Par is</w>
P le
On line</w>
K e
Indu stri
In st
Fäl len</w>
Ein f
wa gen</w>
versu s</w>
un sicht
tu red</w>
ther wise</w>
t ar</w>
suff ering</w>
s ac
rec y
pain ting</w>
opposi te</w>
ner v
maj ority</w>
gu n</w>
gewach sen</w>
fill ed</w>
ex er
degre e</w>
competi tion</w>
ben utz
altern ative</w>
St ro
Sp iele</w>
Schwi er
On ce</w>
Herausforder ungen</w>
Groß teil</w>
Ger äte</w>
F alls</w>
zei ten</w>
w ander
verbr eitet</w>
unter nehmen</w>
su it</w>
sig nal</w>
sch lu
r s</w>
pho to</w>
neu er</w>
is try</w>
hoh en</w>
gef allen</w>
ge zogen</w>
fil l</w>
el ements</w>
eas ier</w>
besit zen</w>
ag ers</w>
a i</w>
W illi
Stru kturen</w>
Stad t
St är
Pri vat
Man hat
Gemein de</w>
Frie den</w>
Din osau
Chr is
zurück zu
wichti gste</w>
weap ons</w>
voll ständig</w>
vis it</w>
tö ten</w>
traff ic</w>
sor ry</w>
rais ed</w>
predic t</w>
oper ating</w>
ler nt</w>
haup ts
geh ol
ec k
di ent</w>
c ross</w>
benef it</w>
bas iert</w>
b ase</w>
arbei teten</w>
Vide os</w>
V is
Sch n
Produ k
Fr ench</w>
weiter en</w>
ti s</w>
ste ma
sec tor</w>
sch alten</w>
re gel
p as
on ed</w>
näch stes</w>
nut ri
li ge</w>
lei der</w>
kümm ern</w>
in dic
import antly</w>
grün det</w>
fi k
entwick elte</w>
ent werfen</w>
electri c</w>
c amp
buchstä blich</w>
brilli ant</w>
Wal d</w>
Ver trauen</w>
Ver k
Th anks</w>
Mic ros
M asse</w>
Hir n
Aus druck</w>
Asi a</w>
Ar g
App le</w>
ä be</w>
ul ate</w>
sol d</w>
re pe
partic les</w>
ori enti
organis ms</w>
n alist</w>
lea ds</w>
l eh
jähri gen</w>
iz ation</w>
figh ting</w>
entrepren eur
bl ü
bes or
be at</w>
ar a</w>
Wi chti
Werk zeug</w>
St ar
Some times</w>
S ah
Perspek tive</w>
M ore</w>
M and
J ungs</w>
Angel es</w>
öffent liche</w>
äu sch
z ität</w>
voll kommen</w>
verstän dlich</w>
v ast</w>
ungs kraft</w>
typ ical</w>
ti gte</w>
star b</w>
sc ulp
ro ll</w>
open ed</w>
no ise</w>
mom ent
mat ters</w>
l ös
gr essi
g lo
forsch ung</w>
f la
ex tin
engine ers</w>
d ol
con cent
ck s
bus in
as p
ander em</w>
abi lities</w>
Ob ama</w>
N an
Kom pon
Is land</w>
Ges etze</w>
schau te</w>
sch er</w>
ro und</w>
rep ort</w>
p it
os ion</w>
mi x
m ouse</w>
m ir
inter agieren</w>
gl am
fac ts</w>
fac tory</w>
f ically</w>
ema il</w>
ein ander
des tens</w>
civi l</w>
bo l</w>
absol ute</w>
Zwei tens</w>
Z iele</w>
Wahrschein lichkeit</w>
R em
P hili
Mar tin</w>
Jan u
Bil dern</w>
B eine</w>
wirtschaft lichen</w>
w alls</w>
vir tual</w>
verwand eln</w>
tre ated</w>
ti ver</w>
separ ate</w>
ri es</w>
perf ec
nam es</w>
let ter</w>
influ ence</w>
gegen sei
fot ograf
et ten</w>
emo tions</w>
ein setzen</w>
ch em</w>
bro ther</w>
bess eren</w>
Z au
W ettbewer
Pati ent</w>
P res
Met ap
Gef ahr</w>
Europe an</w>
überras cht</w>
wunder bare</w>
wissenschaft lichen</w>
u g
ti vis
th row</w>
th ri
sti mm
si chten</w>
sh ouldn</w>
pro found</w>
ou l
oc cur
mo thers</w>
mar kt</w>
lei d</w>
lea ving</w>
l as</w>
l ack</w>
krie gen</w>
it h</w>
irgend wann</w>
inte gri
il ing</w>
gr y</w>
gi f
gewäh lt</w>
gen cy</w>
gel aden</w>
g ig
beg ins</w>
b ten</w>
b illions</w>
all eine</w>
acc eler
Ver y</w>
Sch nit
M el
L ast</w>
Erinn erung</w>
E ing
E cke</w>
Br enn
2 2</w>
2 ,
überzeu gen</w>
zufäl lig</w>
wa ve</w>
w .</w>
ver mutlich</w>
tra ct</w>
ri g</w>
ra in
qu ali
prot otyp
o v
net t</w>
m utter</w>
intel lec
gewis se</w>
geh ei
f ing
du e</w>
di eren</w>
des tru
deep ly</w>
an st
ad ults</w>
W affen</w>
Sch we
S ur
Ho wever</w>
Hand y</w>
2 .
yel low</w>
wis dom</w>
wa chen</w>
ri chtungen</w>
phot os</w>
ot a</w>
ome ters</w>
neighbor hood</w>
nat ur
lei den</w>
k üh
jähri ge</w>
invest ment</w>
in visible</w>
in k
hol ding</w>
hi dden</w>
get ö
gestor ben</w>
gen i
gel an
g al</w>
em bra
demo kra
dah in</w>
clos ed</w>
cir cu
child hood</w>
cat ch</w>
c ros
back ground</w>
Z un
S amm
Par a
Manhat tan</w>
M ess
M assen
F ach
Exper ten</w>
Ein satz</w>
Di agra
Co de</w>
2 ,000</w>
über tragen</w>
wichti gen</w>
tra in
t y
sy stema
surpris e</w>
stell er</w>
sta b</w>
ri chtung</w>
r us</w>
promis e</w>
pre vi
l ändern</w>
it ely</w>
hol t</w>
h un
fashi on</w>
fal sche</w>
f ab
equ al</w>
des pite</w>
che ap</w>
ber n</w>
belie f</w>
begeist ert</w>
Spra chen</w>
Sch imp
S eine</w>
P en
O ver</w>
O c
Liebl ings
Konta kt</w>
Grün den</w>
Gesch le
G han
D id</w>
2 7</w>
z ess</w>
w ly</w>
scri pt</w>
sch wer
prac tic
m id</w>
it ät
ir gen
interessi eren</w>
ge wicht</w>
ex hi
dre w</w>
coun t</w>
ck ets</w>
bemer kt</w>
bekan nten</w>
b ol
We bs
Verhalten s
T om</w>
Re publi
Phän omen</w>
Mei len</w>
K ing</w>
K ern
Institu tionen</w>
Forsch ungs
Forsch er</w>
Experim ente</w>
E gyp
Chem ik
Bas is</w>
B a
Außer dem</w>
Au ßen
Amei sen</w>
200 6</w>
wahr e</w>
verhin dern</w>
ver bracht</w>
un den
ul timately</w>
trot z</w>
spe ak
präsen tiert</w>
pro fi
plac ed</w>
or ed</w>
metap h
limit ed</w>
lie ber</w>
lau t</w>
hor ri
he ads</w>
haupts ächlich</w>
gef äl
g on
führ ten</w>
ern sth
erkan nte</w>
ep idem
ent al</w>
en joy</w>
dou ble</w>
di um</w>
di cht</w>
det was</w>
da fri
consu mption</w>
am ing</w>
al tet</w>
ab etes</w>
W omen</w>
Stim men</w>
Schimp an
P re
K alifor
J on
Ge gent
Fil me</w>
D H</w>
Bl ut</w>
Al gorith
zu bringen</w>
wa ke</w>
titu de</w>
therap y</w>
sud den</w>
suc ce
stu ck</w>
st olz</w>
sex ual</w>
set zte</w>
sam er</w>
or row</w>
li fe
l in</w>
kur ze</w>
i op
hy po
hus band</w>
hunder te</w>
her unter
geschi ckt</w>
gel esen</w>
fail ed</w>
eri cht</w>
enti rely</w>
dre ams</w>
di ox
der zeit</w>
co unter
civiliz ation</w>
biet et</w>
bi lities</w>
b all
Them en</w>
S atz</w>
Qu alität</w>
Progra mm
Land wirtschaft</w>
Identi tät</w>
Gegent eil</w>
Er leb
Eff ekt</w>
Drit tel</w>
Ch an
Bild schirm</w>
B erg
1 6
verr ück
us w.</w>
trans form</w>
system e</w>
sch mer
s w
new sp
nan nte</w>
mög licherweise</w>
le gi
kre bs</w>
inv en
hö her</w>
hin ein
her gestellt</w>
ent y</w>
cre ation</w>
concer ned</w>
cau ght</w>
brau chten</w>
bestim men</w>
am ed</w>
ah e</w>
ag ne</w>
Ver letz
U g
S eh
R ät
Inves ti
H und</w>
Ge wicht</w>
Every body</w>
Bru st
A ra
Öffent lichkeit</w>
y o</w>
we ar</w>
verantwor tlich</w>
tol er
spezi f
ri ver</w>
perfe kt</w>
m un
lich em</w>
kur zen</w>
k tor</w>
h os
gro wn</w>
getö tet</w>
för dern</w>
f iel</w>
engine er</w>
en ever</w>
dür fen</w>
cop y</w>
at ta
as on</w>
W under</w>
T ab
Poliz ei</w>
Micros oft</w>
Kar ten</w>
K rise</w>
H aufen</w>
Glob al</w>
F isch</w>
De fin
D en</w>
Bi enen</w>
Be obach
1 4
tu e</w>
tribu te</w>
thin ks</w>
studi ed</w>
strateg y</w>
st one</w>
ri d</w>
ri chtet</w>
prak tisch</w>
organ ic</w>
oce ans</w>
n chen</w>
is cher
i or</w>
ho he</w>
g ünsti
g ely</w>
for eign</w>
f our
er ungs
er ster</w>
er lebt</w>
en k</w>
e chten</w>
dr ückt</w>
des er
cor ding</w>
const antly</w>
bre ast</w>
blo ß</w>
bl u
ar ms</w>
ap par
an ima
U. K.</w>
T on
Kre bs
Kl assen
K lin
Hinter grund</w>
Her r</w>
Gr enze</w>
Gedan ke</w>
Aufgab en</w>
An aly
zi el
z ar
war ming</w>
t ent
t dem</w>
st rei
st ab
prot ein</w>
perfec tly</w>
o ber
norm alen</w>
mic ros
lin k</w>
letz tendlich</w>
inves tig
i chten</w>
geb ro
ge ben
every day</w>
dri ven</w>
dre h
collec tive</w>
bre ad</w>
belie ved</w>
as che</w>
Sch luss</w>
M em
Lei stung</w>
Gehir ne</w>
Elek tri
B re
Ak tiv
zu gäng
wor ld
wi lli
weir d</w>
wech sel
un fortunately</w>
st eps</w>
sm us</w>
ro mos
res sed</w>
rep lic
nar ra
mo on</w>
mar ried</w>
ma tion</w>
ma mm
m outh</w>
li t</w>
l eren</w>
l at
k ö
isten z</w>
ha te</w>
gru ppe</w>
fin gen</w>
f ei
er hält</w>
ein gesetzt</w>
dr än
deter min
depres sion</w>
den s</w>
def ine</w>
d liche</w>
be geg
argu e</w>
advan tage</w>
Zu erst</w>
W et
Ver häl
Th ree</w>
Tex as</w>
Pf lan
Mon d</w>
Mis sion</w>
Kon text</w>
Jo e</w>
E mo
Ar ab
An ti
Ak tivität</w>
1 0.000</w>
ö konom
z hei
we alth</w>
volun te
th eit</w>
star ke</w>
so il</w>
r ates</w>
mod ell</w>
masch ine</w>
maga zine</w>
ly mp
irgen detwas</w>
hin weg</w>
gg le</w>
geh abt</w>
führ er</w>
f ak
ehr t</w>
d eh
cri me</w>
cir cle</w>
aller dings</w>
Stan ford</w>
Schl ag
Sch wei
Sch la
Sau erstoff</w>
Präsi dent</w>
Molekü le</w>
Li ed</w>
L ang
Ira k</w>
Ge win
E d
C al
B oot</w>
A ffen</w>
9 5</w>
200 4</w>
20 th</w>
ähn liche</w>
und ing</w>
tribut ed</w>
t ome</w>
slo wly</w>
s ister</w>
ri age</w>
power ed</w>
plan ning</w>
pi elt</w>
min destens</w>
me at</w>
mathema tics</w>
li br
l lan
is sen</w>
im pres
her en</w>
gh t
follo wed</w>
dama ge</w>
commer cial</w>
ci an</w>
be t</w>
Z äh
Str ei
P A</w>
Lauf e</w>
Ges ich
Fre m
Fol ge</w>
F eld</w>
F as
E ric</w>
ä lt</w>
vo te</w>
ti er</w>
the ater</w>
stän den</w>
steu ern</w>
statisti cs</w>
sp ot</w>
sp aren</w>
sicht lich</w>
ru f</w>
part ner</w>
p ment</w>
on ie</w>
ki d
ju d
hom es</w>
er seits</w>
dr in</w>
di enen</w>
d ritten</w>
d inner</w>
campaig n</w>
busin esses</w>
bau ten</w>
am m</w>
a ks</w>
Yor ker</w>
Wi eso</w>
Ug anda</w>
Ther ap
T ür
Sig n
N ichts</w>
N ation</w>
Inse kten</w>
Individu en</w>
I I</w>
Hän den</w>
Fran k</w>
D .</w>
Be griff</w>
Bab ys</w>
B ush</w>
äs s
wel chen</w>
versu chten</w>
ur ies</w>
univers al</w>
to x
to ward</w>
t at
stra h
sta at
spra chen</w>
sp iele</w>
senschaf ten</w>
r aus
qu anti
nö tig</w>
ne ben
n utzt</w>
mei stens</w>
inc enti
in ter</w>
geh ören</w>
galax ies</w>
ga ther
fos si
erzäh le</w>
ele ph
dra wing</w>
dopp elt</w>
deli ver</w>
dau ern</w>
aff ect</w>
Sozi al
S un</w>
S ein</w>
M ad
L ern
H en
E ach</w>
Bu dd
B en</w>
zeu gen</w>
woh l
vol u
set z
s ul
ran ts</w>
profes sional</w>
pa thy</w>
norm ale</w>
lea der</w>
langu ages</w>
j ustice</w>
inv ited</w>
ie f</w>
häu fig</w>
hei s
h aus
ges pielt</w>
g igkeit</w>
fi zieren</w>
f ert</w>
ester day</w>
equi valent</w>
elec tro
eff ec
descri bed</w>
der ungen</w>
clo ck</w>
c ent</w>
arti f
Schwes ter</w>
Sch wer
R oll
Me chan
La den</w>
Bro t</w>
Arbei ten</w>
A .</w>
we aring</w>
tu s</w>
tis m</w>
t ough</w>
surpris ed</w>
spir it</w>
re de</w>
princi ples</w>
pf lanzen</w>
pa ying</w>
p fe</w>
organiz ed</w>
oper ate</w>
op in
man aged</w>
lie b</w>
kl ass
inter action</w>
i ed</w>
hr en
h ing</w>
gent le
galax y</w>
g or
finan zi
f old</w>
er er</w>
en zi
dis ku
compar ed</w>
bar er</w>
auf hören</w>
appro pri
alis ieren</w>
Telef on</w>
O s</w>
Min ute</w>
Körper s</w>
Er krank
Dre i</w>
C a
Br asi
. com</w>
v ölk
un less</w>
trei bt</w>
si tion</w>
pr oud</w>
o therwise</w>
kön nt</w>
ke ys</w>
j ump</w>
i let
hon est</w>
hei t
gi eren</w>
ge fü
for mer</w>
dis tribution</w>
desig ning</w>
construc tion</w>
besch le
be kamen</w>
b ahn</w>
atur en</w>
an er</w>
am bi
Schri ft
S how</w>
N ationen</w>
Gener al</w>
Gebur t</w>
G et
Erkenn tnis</w>
Elek tro
Ale x
3 2</w>
19 4
wh om</w>
we gs</w>
us ers</w>
univers ity</w>
ti le</w>
thre at</w>
survi val</w>
ster oi
s weise</w>
re qui
rand om</w>
open ing</w>
multi ple</w>
mu ster</w>
man agement</w>
k rank</w>
iz on
in ci
h au
ger ät</w>
gener ate</w>
ge on</w>
f ell</w>
econom ics</w>
d ware</w>
d einen</w>
con tr
bedeu ten</w>
agri culture</w>
ab sor
W ould</w>
Tit el</w>
Schlüs sel</w>
R at
Poli tiker</w>
P fer
Ox ford</w>
Mar k</w>
Kom bin
G ang</w>
Ber e
Augen blick</w>
Audi ence</w>
8 00</w>
5 .000</w>
2 3</w>
wunder bar</w>
unterschei den</w>
tion ing</w>
the orie</w>
t w
sho p</w>
shi f
seri ously</w>
schli mm
sc en
pri vi
pres i
pre vent</w>
pl atz</w>
pa int</w>
os ci
no chmal</w>
it ation</w>
industr ie</w>
hoff entlich</w>
hoff en</w>
h am
gew and
expres sion</w>
dynam ic</w>
c in</w>
bezah lt</w>
berei tet</w>
be völk
ad ver
ad ed</w>
R ahmen</w>
M au
Kind heit</w>
K ann</w>
Japan ese</w>
In nen
Ihr es</w>
Ein s</w>
Beweg ungen</w>
Bes it
B all
ä den</w>
zäh len</w>
wen igen</w>
thes is</w>
tal ity</w>
sit u
schli mmer</w>
r oten</w>
norm ally</w>
n es</w>
mus st</w>
m illi
let zt</w>
le m</w>
kom bin
high est</w>
gradu ate</w>
g ment</w>
ern st</w>
er y</w>
energ ie</w>
en den
emplo ye
ein iger</w>
des ire</w>
deb ate</w>
dau er
co o
c ope</w>
brau che</w>
astrop he</w>
artic le</w>
am ent</w>
all ge
alis iert</w>
ad ly</w>
accoun t</w>
Zei talter</w>
Wahrneh mung</w>
Ri o</w>
R it
Plan et</w>
Ken ya</w>
Gegen satz</w>
G ot
G or
Ein druck</w>
D unk
Can ada</w>
Bru der</w>
An dere</w>
ä ger</w>
wat ched</w>
verbr eiten</w>
tes te</w>
tau chen</w>
sh eit</w>
sen s</w>
se at</w>
sch ule</w>
r ural</w>
r hyth
min im
men tioned</w>
ma ß</w>
m as</w>
ken nung</w>
gener ations</w>
g ere</w>
fiel ds</w>
dr ück
defin ieren</w>
d ün
collec t</w>
beh a
an ony
T au
Sp re
R oh
Ph ot
Ob wohl</w>
Na ja</w>
Kalifor nien</w>
J a
Isl am
Galax ien</w>
Fr ü
F ig
B ron
wirtschaft liche</w>
un gewöhn
tri ck</w>
tan e
repres ent</w>
ple x</w>
pf el</w>
mat ch</w>
l unch</w>
inv est</w>
has n</w>
ges tern</w>
g äbe</w>
g ate</w>
far m</w>
fa ith</w>
ent spricht</w>
en gl
den noch</w>
coun ter</w>
con cl
ch ten
c ognitive</w>
bl au
beantwor ten</w>
au ff
as ks</w>
S il
M aga
Kr äfte</w>
Kon sequ
Ir gend
Gener ationen</w>
Fo undation</w>
D ass</w>
D abei</w>
Bau m
2 50</w>
10 0,000</w>
zun ächst</w>
z .</w>
verbin det</w>
un ge
som it</w>
sent ence</w>
sa d</w>
s and
p ort</w>
ins ects</w>
i P
h em
eu r</w>
dol ph
deta il</w>
dem and</w>
bein hal
air plane</w>
a stronom
Ver stand</w>
To ilet
T on</w>
Stra ßen
Sta te</w>
Sch wan
S eit</w>
N .</w>
Müt ter</w>
Häus er</w>
Entdeck ung</w>
Ele mente</w>
C ent
Bu chst
B F</w>
200 1</w>
Über r
vide os</w>
vehic le</w>
un be
to i
techni cal</w>
stra te</w>
sti mmen</w>
ster y</w>
star ten</w>
si g</w>
or ders</w>
mor tality</w>
mo vi
kil ometers</w>
iz op
gu e</w>
g as
fra me</w>
exis ts</w>
ersch einen</w>
er finden</w>
equi pment</w>
deta ils</w>
co al</w>
be wesen</w>
arti gen</w>
ar men</w>
anc est
Zu hause</w>
Z eh
Wel che</w>
Wah l
Sicher heits
S MS</w>
Metho den</w>
Kor ea</w>
Hig gs</w>
Ges i
Gel d
Fol gendes</w>
Et was</w>
Er inner
Det ails</w>
Brazi l</w>
B ay</w>
An sicht</w>
2 6</w>
z elle</w>
wor ried</w>
wea ther</w>
ver trauen</w>
ver gleichen</w>
to t</w>
tes ting</w>
ta g
spür en</w>
spiel te</w>
soldi ers</w>
sign als</w>
sec tion</w>
sa ved</w>
ro t</w>
rel eas
rei sen</w>
redu zieren</w>
ran g</w>
per man
o the
natür lichen</w>
n ah</w>
molec ule</w>
los ing</w>
l abor
k li
inst all
increas ingly</w>
il legal</w>
he avy</w>
har der</w>
ges to
dis ci
con sequences</w>
cl oud</w>
bre ch
b right</w>
appe ar</w>
analy sis</w>
anal ysi
Z ell
Schmer z</w>
Mis s
K ein</w>
Ghan a</w>
Überr asch
spr ing</w>
sch rän
proper ty</w>
pres er
pla yer</w>
per s</w>
p ed</w>
os ity</w>
mei ster</w>
ma ß
lie bt</w>
let ters</w>
komplex e</w>
inspiri ert</w>
h ac
gr at
go ti
for ced</w>
fe edback</w>
f en
en ni
connec tions</w>
av oid</w>
an ten
W ill</w>
Str ess</w>
Sta at</w>
Se qu
Pro ject</w>
Pr äs
M aus</w>
Kop f
In v
Emo tionen</w>
C A
B C</w>
A ir
zun eh
vo ices</w>
ter ie</w>
tar get</w>
sin n</w>
shap es</w>
resi dent</w>
recei ved</w>
radi k
qu as
process es</w>
persön lichen</w>
p ages</w>
ord nung</w>
or al</w>
ograp hic</w>
müs ste</w>
m ü
lus tig</w>
lus s
innov ative</w>
inn ing</w>
identi fy</w>
grundle gende</w>
gr an
ges chn
gefähr lich</w>
four th</w>
f inger</w>
exis tieren</w>
es z
en em
class room</w>
cir cum
charac ter
ch ec
cat eg
acci dent</w>
Vor teil</w>
T un
Spiel er</w>
R ak
O lymp
N ie
M ama</w>
Gemein den</w>
Gan ze</w>
F lie
3 ,000</w>
200 3</w>
2 1
wen ig
v on
unter sucht</w>
ul l
tom orrow</w>
ti erten</w>
stat us</w>
spe kt</w>
si ght</w>
sc ene</w>
s ätzlich</w>
princi ple</w>
po or
pi en</w>
pen gu
p en</w>
ne goti
n den</w>
mi d
mean ing
laun ched</w>
lang wei
in ne</w>
hän gen</w>
hop efully</w>
g old</w>
ex plan
ent worfen</w>
emo tion</w>
dr an</w>
da ily</w>
curr ently</w>
cor ruption</w>
comp are</w>
col on
brei tung</w>
aw ful</w>
ast ern</w>
angen eh
ab e</w>
Taus ende</w>
T ö
T emp
Su d
S ing
Rät sel</w>
Ph il
P ingu
M ac
Ges tal
Ges am
G anz</w>
Entwicklungs ländern</w>
Der ek</w>
C ome</w>
A spekt</w>
zent rum</w>
z wan
wer ke</w>
wei b
wa ves</w>
vir uses</w>
ver blü
su chte</w>
stam mt</w>
spiel er</w>
sp ort</w>
produc ing</w>
pro por
persön liche</w>
olog ische</w>
ol ds</w>
nerv ous</w>
neh mer</w>
n ungen</w>
mo tivi
mi x</w>
medizin ische</w>
je kt</w>
inter face</w>
in struc
in form
ier enden</w>
grap hic</w>
grand mother</w>
füh l
fri end
er kennt</w>
electri cal</w>
e e
du ce</w>
dr üben</w>
disci pl
di an</w>
cra ft</w>
caus ed</w>
bli othe
berühr t</w>
aufzu bauen</w>
auf bauen</w>
associ ated</w>
an nehmen</w>
Tr ot
S um
R et
P ros
Netzwer ke</w>
Nach dem</w>
M ur
In n
F antas
Every thing</w>
Ent fer
C ra
C ap
B aum</w>
zeh n
z a</w>
vi ert</w>
ver brachte</w>
t ori
t ie</w>
sol ch</w>
sm ell</w>
sho es</w>
set ting</w>
sel ten</w>
resear chers</w>
re mote</w>
my steri
mot or</w>
m ur
la yer</w>
kür zlich</w>
kur zem</w>
kill ing</w>
ir t</w>
ier ter</w>
hosp it
genau er</w>
g ay</w>
feel ings</w>
fa il</w>
dimen sions</w>
di ert</w>
contro lled</w>
cont act</w>
ch ain</w>
car ds</w>
bu dget</w>
b ine</w>
Zei chen</w>
Te en
T ests</w>
Ge webe</w>
G ü
Funk tion</w>
Eig entlich</w>
Amaz on</w>
2 1.</w>
v ac
un er
t sam</w>
sugges ts</w>
s elling</w>
ra tion
perc ei
os ph
mm a</w>
li ked</w>
ler in</w>
inter vie
impro vis
im in
il fe</w>
gi ft</w>
gem einen</w>
gegen wär
g ust</w>
fäh igkeit</w>
f ran
essenti al</w>
erstaun liche</w>
entde ckte</w>
el p
e as</w>
dr y</w>
des ert</w>
ci l</w>
beein druck
be tr
ak ed</w>
ad ult</w>
ab ge
a war
Schl af
M obil
Le bewesen</w>
Glei che</w>
G ates</w>
D ie
v ember</w>
t .</w>
sim pl
schnei den</w>
quas i</w>
oph is
ophis tic
on ing</w>
mög lichkeiten</w>
män n
mor gens</w>
lea ves</w>
ke eping</w>
hous es</w>
for ests</w>
experi enced</w>
exper ts</w>
er scheint</w>
el et
ein deu
de x</w>
de aling</w>
b ic
an ces</w>
Wei le</w>
We bsite</w>
Vide osp
Th ei
Organis men</w>
Mit arbeiter</w>
Hin sicht</w>
Fäl le</w>
Dien st
Arbeit spl
2 9</w>
zu frie
thou ghts</w>
st ür
res ource</w>
pro ve</w>
pla ys</w>
pla yers</w>
p re</w>
ot e
ob serv
mäß ig</w>
meth od</w>
ma ster</w>
lo ck</w>
lie fern</w>
in o</w>
import ance</w>
hol es</w>
hal be</w>
ex ec
evi l</w>
e f</w>
direc t</w>
contin ent</w>
clin ical</w>
chem istry</w>
ch net</w>
besch lossen</w>
auf gebaut</w>
artif icial</w>
agi ert</w>
ag s</w>
Zu schau
Vor fahren</w>
TED x
S mit
R ec
Produ ktion</w>
Pl att
Per sön
Mex iko</w>
Land schaft</w>
F ische</w>
Be weise</w>
Austr alia</w>
An wen
An tar
Al zhei
zu zu
wach st
viol ent</w>
ver mitteln</w>
v able</w>
tri lli
tri als</w>
tradition ellen</w>
top s</w>
teu er</w>
st en
sa ges</w>
s ophistic
rel ativ</w>
pre gn
pf lan
o gen
n ations</w>
movi es</w>
molec ular</w>
li ver</w>
k ins</w>
ic als</w>
ha fte</w>
gesch lagen</w>
ensi onen</w>
em bar
ell o</w>
den falls</w>
be ar</w>
b iert</w>
anno un
an gesehen</w>
an en</w>
al em</w>
ag ina</w>
W ill
Schwier igkeiten</w>
Ne ben
Mal aria</w>
Kor ruption</w>
J im</w>
Imp f
Elektri zität</w>
Bri tain</w>
Aus w
. C.</w>
z eln</w>
wor über</w>
wo bei</w>
vor aus
valu able</w>
tra fen</w>
the ore
swit ch</w>
spr ingen</w>
reg ular</w>
pf lich
mus ici
mus cle</w>
moder ne</w>
metaph or</w>
ma ker</w>
los sen
glie der</w>
geh end</w>
fol ks</w>
f ährt</w>
f eu
est abl
dis tin
dis aster</w>
bir th
beobach tet</w>
ar do</w>
and ing</w>
an wenden</w>
Vor stell
U. N.</w>
Si cht
Sch utz</w>
Sch lei
Ple ase</w>
M ill
H ac
Ger many</w>
G and
Freund in</w>
Fol gen</w>
Flei sch</w>
Erklär ung</w>
Dinosau rier</w>
D r
D oes</w>
Bei m</w>
Be g
Architek ten</w>
Ä gyp
wes entlich</w>
ver mu
un des
un abhängig</w>
u ationen</w>
tum or</w>
tel e
te eth</w>
sy mp
studi eren</w>
s la
re action</w>
pe t</w>
notwen dig</w>
ne ath</w>
man age</w>
less ons</w>
instr ument</w>
h ing
ges p
ga p</w>
fac ing</w>
et ry</w>
er mu
ek ul
doc um
dam eri
convin ced</w>
comp os
c ed
beschäf tigen</w>
Thei r</w>
Schimpan sen</w>
R N
N et
Lap top</w>
L at
J e</w>
H am
Fil m
Car ol
C re
Bet t</w>
Bes te</w>
20 11</w>
versch winden</w>
tru g</w>
to cin</w>
ten ed</w>
t nisse</w>
sug gest</w>
stru ggle</w>
sat elli
po p</w>
ment ed</w>
kar te</w>
is ieren</w>
in dependent</w>
gew inn
ge ändert</w>
fur cht
et ings</w>
en a</w>
dafri ka</w>
consi dered</w>
call ing</w>
c utting</w>
c ans</w>
ber ich
arri ved</w>
ang le</w>
Vi et
Temper atur</w>
Oper ation</w>
O ber
Nachbar n</w>
Mar kt
L asst</w>
K ern</w>
J es
Gesundheits wesen</w>
C ould</w>
Be droh
Al tern
7 00</w>
21 st</w>
y esterday</w>
wonder ing</w>
vari ety</w>
utz ung</w>
un ken</w>
um m
tren nt</w>
su b</w>
stu p
spo ke</w>
si des</w>
saf ety</w>
rough ly</w>
prof essor</w>
persön lich</w>
p ft</w>
os is</w>
n ungs
mei ste</w>
kl en</w>
k s
f ein
f at</w>
er setzen</w>
ent standen</w>
en jo
em pf
ehr en</w>
eg ie</w>
cre dit</w>
br ü
bein ahe</w>
ar ts</w>
ac qu
ac com
Wer bung</w>
Statisti ken</w>
Ro ck
Qu elle</w>
Lin ien</w>
L an
Hau sh
H i
Gen om</w>
Fl ori
Ex tre
Berei che</w>
Alzhei mer</w>
än e</w>
zerst ört</w>
wech seln</w>
w ings</w>
verfüg bar</w>
ver ein
u ch</w>
to ber</w>
ta tions</w>
sp a
sh oul
sh all</w>
sch land</w>
s ources</w>
produc tive</w>
por tra
pleas ure</w>
plat form</w>
pi cked</w>
p assen
n de</w>
län der</w>
lei ten</w>
lan ger</w>
lad y</w>
k a
increas ing</w>
i ve</w>
hö re</w>
hei ßen</w>
ha dn</w>
ge wissen</w>
existen ce</w>
exer cise</w>
es en
des wegen</w>
dan ken</w>
chem icals</w>
ch ungen</w>
car rying</w>
auf s</w>
advan ced</w>
ac tor</w>
Vö gel</w>
Vir en</w>
Ver besser
Unterneh mer</w>
Satur n</w>
S qu
S W</w>
P aci
M ehr</w>
L ong</w>
Kre u
Ho ward</w>
Groß mutter</w>
Ger äu
Führ ungs
Fak ten</w>
Er war
Cam bridge</w>
Bau ern</w>
B illi
A ben
är m
zerst ören</w>
under neath</w>
tri p</w>
tes ts</w>
streng th</w>
st ac
spra che</w>
spr ung</w>
presi dent</w>
p ig
p hab
n avi
mar riage</w>
loc ation</w>
is land</w>
in fin
gri d</w>
gre en
gr aben</w>
gi ge</w>
ge beten</w>
ge ber</w>
esc ope</w>
erwäh nt</w>
der er</w>
cul tures</w>
co ast</w>
cele bra
berei ch</w>
bat tery</w>
Z immer</w>
Vol k</w>
Tex t</w>
Teil chen</w>
Smit h</w>
Nation al
In halt</w>
Hei m
Ger e
Geheim nis</w>
Gebur t
E cht
D rei
D ay</w>
Any way</w>
5 0,000</w>
2 8</w>
0 0,000</w>
zus ätz
wri ter</w>
world wide</w>
wel chem</w>
wei st</w>
vic tim
t ings</w>
stär ker</w>
statt dessen</w>
sm all
se y</w>
schle chten</w>
rais ing</w>
r are</w>
qu alität</w>
possi bilities</w>
percep tion</w>
ograf ie</w>
ma tic</w>
m ischen</w>
m aps</w>
life time</w>
lic on</w>
la u</w>
i dly</w>
gru ppen</w>
geb or
ex cep
evolution ary</w>
epidem ic</w>
emerg ing</w>
elek tron
dri ver</w>
chi at
ch es
bet ro
bau te</w>
b lieb</w>
al og</w>
ac cept</w>
Z itat</w>
Sit uationen</w>
S ou
M und</w>
Konfli kt</w>
For d</w>
Fahr ra
Charak ter</w>
C ur
An rei
1 20</w>
ü hren</w>
ä nen</w>
west lichen</w>
ve get
trans formation</w>
studi o</w>
sti r
set s</w>
ro s</w>
re alen</w>
pl ate</w>
no w
mal aria</w>
ma xim
m on</w>
kompliz iert</w>
kan nte</w>
k ungen</w>
k ung</w>
im ple
heis st</w>
fahr t</w>
effec tively</w>
besu chen</w>
bel e
ak tivi
addi tion</w>
a ven</w>
Uni on</w>
Um feld</w>
U l
Stu fe</w>
Stra h
Pot ential</w>
P resident</w>
Le ktion</w>
Kul turen</w>
K n
J emand</w>
Hy po
Hall o</w>
H ollywood</w>
H i</w>
Gre en
Diskus sion</w>
Brasi lien</w>
Ar me
zü glich</w>
zugäng lich</w>
wirk lichen</w>
wei t
ver stand</w>
un t
ti smus</w>
steh e</w>
sa tis
requ ires</w>
prü fen</w>
or t
nüt zlich</w>
ni ti
mensch licher</w>
m ern</w>
izop hren
i li
g ü
fre m
fe wer</w>
emp ty</w>
el em
effek tiv</w>
deep er</w>
d le</w>
blo cks</w>
bekan nte</w>
begr en
be ziehen</w>
ati c</w>
at oren</w>
al ed</w>
aff ected</w>
ac cording</w>
Zw eck</w>
Wes entlichen</w>
Webs eite</w>
W aff
Verhäl tnis</w>
T est
R ücken</w>
Nach hal
M ak
Lit er
L eh
Kno chen</w>
Flori da</w>
F al
Ex pl
Deut schland</w>
Bro o
Br ücke</w>
Bes onder
Ab schluss</w>
8 5</w>
3 3</w>
1 1.</w>
ö k
wh enever</w>
vulner able</w>
un it</w>
tr aut</w>
ti ous</w>
techni ques</w>
sto ck</w>
sti mul
spec trum</w>
sk elet
satelli te</w>
s ätze</w>
s outh</w>
restau rant</w>
qu it
on ic</w>
neur osci
müs sten</w>
mis s</w>
ma kers</w>
m ic</w>
j ähr
inven tion</w>
i est</w>
h n
h ie
gesch üt
ges und</w>
g li
feh l
expon enti
es te</w>
er w
en cing</w>
ecos ystem</w>
digit alen</w>
di et</w>
de v
cur ious</w>
crow d</w>
compon ents</w>
collec tion</w>
cle ver</w>
cap ture</w>
c ameras</w>
bu bble</w>
bro ke</w>
beinhal tet</w>
behavi ors</w>
ati n</w>
ari o</w>
ar ab
ander th
an ische</w>
Strat egie</w>
Maß stab</w>
Leben ser
In spi
I niti
Hel den</w>
G utes</w>
Fe bru
F ün
F ast</w>
Erfin dung</w>
Di agn
C ri
Berei chen</w>
B and
Aus maß</w>
übri g</w>
wis senschaften</w>
victim s</w>
vermei den</w>
ver teilt</w>
ven ue</w>
un ig
tel ef
speci fically</w>
sp ei
sensi tive</w>
sei tdem</w>
s ingen</w>
ri de</w>
repres ents</w>
rel ative</w>
radi ation</w>
no on</w>
m as
leben den</w>
k ts</w>
is ol
intellec tual</w>
grün den</w>
grö s
eng th</w>
employe es</w>
el imin
dr ink</w>
di plom
defin ed</w>
d ots</w>
cli ck</w>
cl ou
chnolog y</w>
bu ying</w>
bra ch</w>
bi zar
besch loss</w>
auton om
at trac
Tr äume</w>
Tr au
Tel es
T anz
Ste ven</w>
S ogar</w>
Paci fic</w>
P M</w>
Neu es</w>
Mom ente</w>
Medi en
Lei st
L ad
K lang</w>
Jour nalis
Erinner ungen</w>
De bat
C u
Ara b</w>
über nehmen</w>
wär mung</w>
wirk liche</w>
wen det</w>
vor ne</w>
veränder te</w>
versor gung</w>
verbr ei
ung eh
tradi tion</w>
ti tles</w>
st af
set zten</w>
ri x</w>
revol ution
rel atively</w>
pro j
pri mi
on al</w>
olog ischen</w>
mathema tical</w>
lok alen</w>
lic ation</w>
lau gh
ität s
is s</w>
hin ten</w>
her s</w>
h all
gef ahr
g lied</w>
fin ish</w>
fel low</w>
ent stand</w>
em en</w>
desig ns</w>
democra tic</w>
cor al</w>
convin ce</w>
charac ters</w>
ch ap
boun dar
Zivilis ation</w>
S ec
S E
P sy
Ker l</w>
Kaff ee</w>
Hil fs
He alth</w>
Gesich ter</w>
Fl üs
Defin ition</w>
D utz
C D</w>
Bi o
Aut or
A bl
ät zen</w>
wor l
tu be</w>
tempor ary</w>
t ape</w>
sol cher</w>
schwar ze</w>
schl afen</w>
rop s</w>
ro ads</w>
prot ected</w>
primar y</w>
prepar ed</w>
pre cis
per form</w>
mus ical</w>
men tion</w>
mat es</w>
m end</w>
kl asse</w>
j unger</w>
in ev
i x</w>
ha i</w>
fl at</w>
fest stellen</w>
fac tor</w>
expres s</w>
emis sions</w>
discus sion</w>
defin itely</w>
car efully</w>
Sign ale</w>
N G
Le on
In sel</w>
Gr ü
Gesprä ch</w>
Galax ie</w>
G ore</w>
F rank
Bi bliothe
z ös
y an</w>
wis chen
wi re</w>
wei le</w>
vi l</w>
verst eht</w>
ver mögen</w>
v ei
unterschie dlich</w>
un usual</w>
te ure</w>
sub st
ste el</w>
spru ch</w>
so viel</w>
situ ations</w>
sen ding</w>
schle chter</w>
schau ten</w>
ro of</w>
reg ul
re ti
radi cal</w>
r as
photograph s</w>
nor th</w>
n äher
mov ements</w>
lin ge</w>
inten si
in her
hydro gen</w>
hy per
hi de</w>
großarti gen</w>
go als</w>
fres h</w>
fol gende</w>
expla ins</w>
erkan nt</w>
er stellt</w>
er neu
er ende</w>
ent sch
eng aged</w>
em pathy</w>
el ement</w>
dar stellen</w>
chi p</w>
ch im
bre ath</w>
ber eiten</w>
beg ri
b lichkeit</w>
am on
ad ded</w>
Sp ei
Res pe
Re zep
Nor mal
Kom ment
Inter national</w>
Ge gend</w>
F ok
Dam als</w>
Be weis</w>
Ar men</w>
äuß erst</w>
äus ch</w>
zei gten</w>
z ir
y m
wal ks</w>
verwand elt</w>
verbess ert</w>
typ ically</w>
trilli on</w>
transpar ent</w>
su gar</w>
sol ved</w>
sch en
requ ire</w>
rei ben</w>
re place</w>
proper ties</w>
pa y
mm ing</w>
lich ste</w>
kra ft
kr äfte</w>
k tes</w>
iz ing</w>
it ting</w>
is iert</w>
ing re
in sur
hur t</w>
h nach
gemein same</w>
gefäl lt</w>
fl üs
es tim
en ab
ein gesch
dinosau rs</w>
dig lich</w>
cl ing</w>
bre aking</w>
bl auen</w>
ben en</w>
bat tle</w>
awar eness</w>
T om
T eu
Sch ö
Ris iken</w>
Plas tik</w>
Mit t
M er
K reis</w>
K oll
Jes us</w>
I mm
For m
Echt zeit</w>
Ber g</w>
B rie
Austr alien</w>
A spek
ver age</w>
unterstüt zt</w>
th ir
sk ill</w>
schlä gt</w>
re ward</w>
rap idly</w>
not es</w>
mis s
krei eren</w>
jour nalis
interes ts</w>
ill ness</w>
health care</w>
gra vity</w>
gesell schaft
ger ung</w>
ger ufen</w>
fantas tisch</w>
environ ments</w>
enor me</w>
e dy</w>
durchschnit tliche</w>
dan k
c us</w>
bur n</w>
beschrei bt</w>
be weisen</w>
at em
Un gleich
U S
Telef on
T ony</w>
Sch lie
Pf und</w>
Le e</w>
Kombin ation</w>
Kl ein
Dim ensionen</w>
19 60</w>
vor zustellen</w>
ut ation</w>
unglaub lichen</w>
tra ge
the me</w>
t oll
stup id</w>
str ated</w>
sti c</w>
stan ces</w>
sophistic ated</w>
sol ving</w>
se es</w>
qu id</w>
ph ase</w>
passi onate</w>
p ing</w>
organ s</w>
n ü
le gte</w>
lang fris
kon fron
internation alen</w>
ing ern</w>
her o</w>
go ods</w>
gen ü
ge gründet</w>
es h</w>
e ball</w>
do k
dep ends</w>
collabor ation</w>
cen ters</w>
c ement</w>
bekan n
b end</w>
appropri ate</w>
amm elt</w>
algorith ms</w>
ac adem
Wü ste</w>
The ater</w>
Ste phen</w>
Sch o
S and</w>
Re chte</w>
R an
Pri ze</w>
Nie der
N u
M erk
K ev
Innov ationen</w>
Hen ry</w>
Gol d
Gem äl
G ehen</w>
Bro wn</w>
B au</w>
über winden</w>
zi pl
y st
ver gan
trin ken</w>
ti ma
te ams</w>
shar ks</w>
ser ved</w>
rat s</w>
r uns</w>
prac tical</w>
poli ticians</w>
or ing</w>
mi ra
met al</w>
ist ent</w>
is tisch</w>
intro duce</w>
inclu de</w>
hon or</w>
gegensei tig</w>
ex change</w>
best and</w>
bei spiel
be u
ar me</w>
ap es</w>
a c</w>
Wei hnach
T im</w>
Sk ulp
S har
Progra mme</w>
Ph ase</w>
P as
O st
Medikam ent</w>
K B</w>
John son</w>
H andel</w>
Diagra mm</w>
Depres sion</w>
Br ü
Best and
B ob</w>
An wendung</w>
Aktiv itäten</w>
A bra
wass er
versch m
ur ban
to s</w>
ris ks</w>
releas ed</w>
rel ease</w>
re main</w>
r ass
ph an
perc ent
para dig
or es</w>
op tion</w>
ok ol
mis takes</w>
le diglich</w>
kl ar
k rise</w>
hospit als</w>
ho p</w>
ha ften</w>
gri ffen</w>
ges teu
gen ce</w>
g ie</w>
erle i</w>
er wei
enth ält</w>
ent ary</w>
en g</w>
el lit
dunk le</w>
cr ash</w>
c as
ba i</w>
ba g</w>
b r</w>
b age</w>
att dessen</w>
archit ect</w>
Wohl stand</w>
Vor aus
Te ams</w>
St attdessen</w>
S z
R ay</w>
Präs entation</w>
Pl at
Medi a</w>
G DP</w>
An drew</w>
war s</w>
w l</w>
ul en</w>
ul a</w>
u en</w>
transp ort</w>
tem pt</w>
sin ni
s y</w>
s n
res t
regi ons</w>
re fle
previ ous</w>
poin ted</w>
pla y
ot ing</w>
or a</w>
ograph y</w>
newsp aper</w>
mark eting</w>
magne tic</w>
ma il</w>
kehr t</w>
je wei
introduc ed</w>
insi ght</w>
h es</w>
gele bt</w>
erfor scht</w>
d ank</w>
br a</w>
ben e</w>
ar ity</w>
ap art
ami k</w>
alle l</w>
akzep tieren</w>
accur ate</w>
a der</w>
Y et</w>
Wirk ung</w>
W en
Ver tei
S us
S ir</w>
Mehr heit</w>
K le
Jahrzeh nt</w>
H ans</w>
Gar ten</w>
Ein stellung</w>
Des wegen</w>
C lin
Ben j
Bedürf nisse</w>
Aut om
wir ft</w>
verst ehe</w>
ver traut</w>
un ru
un f
um ge
tri c
tivi ties</w>
ter in</w>
ter ien</w>
stoff en</w>
sa tions</w>
re d
r i</w>
nov el</w>
mus ik
mir ror</w>
mes sages</w>
mensch liches</w>
medi um</w>
ma d</w>
m and
kit chen</w>
k le
is tische</w>
in kl
h ey</w>
h anden</w>
gere gt</w>
gener ally</w>
f abri
do gs</w>
corpor ate</w>
ck en
c ast</w>
ber ichten</w>
aufre gend</w>
amoun ts</w>
We ch
W all</w>
Stär ke</w>
Sta ats
St au
St and</w>
S S</w>
R I
Oze ane</w>
Li ber
L ab
L a</w>
K ab
I ll
Hom o</w>
Her ren</w>
Gl as</w>
Dan iel</w>
Bu ch
B lin
überrasch end</w>
ähn lichen</w>
z ig
win ter</w>
w unden</w>
vil le</w>
ver größ
ver ab
ump ed</w>
tra cking</w>
ti zen</w>
terror ism</w>
te e</w>
si chtig</w>
sen ses</w>
rop ä
recor ded</w>
plan es</w>
pl ans</w>
p tion</w>
or gan</w>
ner ship</w>
mi th
manufac turing</w>
lie bte</w>
lan den</w>
it zen</w>
i on
hier her</w>
h its</w>
gem essen</w>
g ert</w>
fossi l</w>
f tung</w>
entfer nen</w>
ei en</w>
effici ency</w>
dis h</w>
destru ction</w>
cre te</w>
confi dence</w>
c ure</w>
c .</w>
birth day</w>
bevölk erung</w>
b ür
az z</w>
at oms</w>
after noon</w>
afrikan ischen</w>
ad minis
Zau ber
Ver kehr
V og
Tra g
Tal ks</w>
T onnen</w>
Sy mmet
Stro m
St ar</w>
Schlie ß
S l
Rus s
Kon su
Kamp agne</w>
K üh
J ack</w>
H igh
H er</w>
Grund lage</w>
Fün f</w>
Fol ie</w>
F ri
F est
Elek tr
Ein en</w>
E D
C i
Buchst aben</w>
Aut o
A my</w>
1 3
wä s
wissenschaft ler</w>
wis senschaft</w>
weiter er</w>
w üs
vor handen</w>
verbr auch</w>
transpor tation</w>
ter weise</w>
technologi cal</w>
ta ste</w>
swi m</w>
stär k
stru ggl
st yle</w>
st able</w>
sp ät</w>
sing ing</w>
schau e</w>
rei che</w>
prot eins</w>
par aly
p ack</w>
neighb ors</w>
li chte</w>
hum or</w>
ho wever</w>
geh ens
ge braucht</w>
fü llen</w>
fal schen</w>
f au
ex act</w>
es cap
er weiter
er gibt</w>
di ger</w>
dar unter</w>
d rit
combin ation</w>
bu cks</w>
bom b</w>
bi ke</w>
bemer ken</w>
ats äch
ar ma
ancest ors</w>
air s</w>
ab b
W är
Tradi tion</w>
Tra in
Ti me</w>
Sü dafrika</w>
Sin ce</w>
Sch reib
Radi o</w>
P unk
O hne</w>
Ma il</w>
Lei der</w>
Jahrzeh nten</w>
I P</w>
G ul
F ru
Erd be
Dan ach</w>
D ig
D ach</w>
B in
Ar th
An teil</w>
Ach se</w>
A ri
. A.</w>
ü ch
Ö kon
zieh ung</w>
worl ds</w>
vor bei
tran sition</w>
tain ment</w>
t atsäch
str ö
sp ie
sig ns</w>
sel s</w>
schwier iger</w>
schrei bt</w>
reach ed</w>
r on</w>
qu an
pul led</w>
process ing</w>
pro bieren</w>
pp en
poll ution</w>
par allel</w>
o li
mis take</w>
los igkeit</w>
kti ven</w>
konzentri ert</w>
komplex en</w>
k ün
hör ten</w>
hr ase</w>
hin zu</w>
geri chtet</w>
gehol fen</w>
gebro chen</w>
ge tragen</w>
fra g
ff s</w>
faszin iert</w>
fac tors</w>
f ishing</w>
erwei tern</w>
er enden</w>
el ev
eindeu tig</w>
comput ing</w>
bur g</w>
bot tle</w>
blo g</w>
be züglich</w>
be e</w>
automati sch</w>
auf nehmen</w>
an fing</w>
ach ing</w>
Wür de</w>
Wirk lich</w>
Vor teile</w>
U N
Sü den</w>
S her
Re chts
N äch
N ah
Musli m</w>
Men gen</w>
Krie gs
Ken ia</w>
Ju gend
Interess an
I g
Her r
Gere chtigkeit</w>
Ger äusch</w>
Fortsch ritte</w>
F liegen</w>
Ein heit</w>
ör ungen</w>
will st</w>
wer k
vehic les</w>
ve au</w>
ti gten</w>
tes ted</w>
sustain ability</w>
stre t
str ing</w>
stor y
stand ards</w>
sen de</w>
schreck lich</w>
schlu g</w>
ren e
par ent</w>
opin ion</w>
oo d
occur red</w>
moun tains</w>
moral ische</w>
mem ber</w>
medizin ischen</w>
meaning ful</w>
inte gr
gros se</w>
fi f
feh lt</w>
es timate</w>
encoura ge</w>
ear th
den e</w>
consu mer</w>
const ant</w>
concl usion</w>
c at</w>
bur ning</w>
au en
ar chi
app lied</w>
an ia</w>
ali ban</w>
adver tis
ad vice</w>
a than</w>
Win d
Wettbewer b</w>
W äl
Vor her
Verl ust</w>
Ver sor
Unter haltung</w>
Stu hl</w>
Spra ch
Sch atten</w>
S kl
R and</w>
Per haps</w>
N ase</w>
Mag ie</w>
Lin col
Kir che</w>
Kan ada</w>
D amen</w>
B undes
B and</w>
Afri kas</w>
1 000</w>
zusammen zu
wi ch</w>
verblü ff
ut t</w>
tic a</w>
thre at
tal e</w>
su chten</w>
staf f</w>
st ö
s mile</w>
percent age</w>
per forming</w>
os exu
ob ald</w>
narra tive</w>
mani pul
li quid</w>
ler weile</w>
lek tu
l ay</w>
kri min
ke eps</w>
it ten</w>
inter view</w>
inte gra
inspi ration</w>
increas ed</w>
ig ar
her vor</w>
grund sätzlich</w>
gesch aut</w>
fo undation</w>
erhöh en</w>
er re
enth alten</w>
enter ed</w>
dou bt</w>
digit ale</w>
diesel ben</w>
dau erte</w>
d ul
bli cken</w>
bewe gung</w>
besch rän
bes agt</w>
aus geben</w>
ah nen</w>
ag gressi
Z erst
W ann</w>
Schi cks
Sch ritte</w>
S obald</w>
Ri chtig</w>
R en
Quad rat
O b</w>
Gegen wart</w>
Geb iete</w>
Ele fan
C li
Auf nahme</w>
Ab sicht</w>
zäh lt</w>
ystem s</w>
w ör
verk nü
ver wir
unter en</w>
un expected</w>
um s
u um</w>
top ic</w>
t est
sun light</w>
so was</w>
sh oot</w>
sei d</w>
s ä
s ample</w>
rel ate</w>
psych ology</w>
präsen tieren</w>
prot ection</w>
natur ally</w>
min d
men ten</w>
mei st</w>
man chen</w>
lok ale</w>
kl ei
k lo
internation ale</w>
institu tion</w>
imp anz
hop ing</w>
hin aus
grü nen</w>
gl ad
geh ö
funktion ierte</w>
fro h</w>
fra me
fall ing</w>
exis ting</w>
dro pped</w>
dri ves</w>
di agra
de dic
correc t</w>
chti ge</w>
chi cken</w>
c amp</w>
blau e</w>
ans wer
al tung</w>
a ke</w>
Zun ächst</w>
Unterneh men
Studi o</w>
Stat us</w>
Sig nal</w>
Se ele</w>
Res ear
R B</w>
Mü ll</w>
Lincol n</w>
Kü ste</w>
Konsequ enzen</w>
Isra el
Gem ü
G en</w>
Ex istenz</w>
Chemik alien</w>
Ch il
C lu
Bli ck
An gestell
19 3
19 .</w>
z ün
wh el
verk auf
vent ure</w>
ul timate</w>
travel ing</w>
sou l</w>
sel tsam</w>
se e
sa v
sa chen</w>
ro ots</w>
re min
qu iet</w>
pris on
ori ties</w>
om a</w>
mi k
mer ken</w>
mein te</w>
leist ungen</w>
lap top</w>
la unch</w>
hi p</w>
h ung
fundament ally</w>
fig ures</w>
f an</w>
er hielt</w>
el ly</w>
drama tic</w>
direc tor</w>
defin i
dan ger</w>
cor n</w>
coo king</w>
c ist</w>
bo den</w>
bi gen</w>
besser es</w>
besch rieben</w>
bei bringen</w>
behaup ten</w>
bal lo
an sieht</w>
Tum or</w>
St ücke</w>
R ou
No body</w>
Mot or</w>
Mo tiv
Metap her</w>
Kohlen stoff</w>
Hin der
Hei mat
H unger</w>
Gemein schaften</w>
Erleb nis</w>
Au ff
Arth ur</w>
Ameri kan
A M</w>
20 12</w>
ähr en</w>
wä hr
wachst um</w>
w ine</w>
ver letz
u cht</w>
th anks</w>
ter ing</w>
supp ose</w>
sil k</w>
shap ed</w>
re par
re co
ra ti
pres entation</w>
pos es</w>
p ure</w>
mul ti</w>
mem ories</w>
m alen</w>
l ag
k let
jen er</w>
is tischen</w>
inf ected</w>
ie gen</w>
hei rat
gu i
gemein samen</w>
gefahr en</w>
gar den</w>
g ation</w>
func tions</w>
for mt</w>
flo wers</w>
fest yle</w>
fe atures</w>
f assung</w>
expla ined</w>
exper t</w>
enor m</w>
em s</w>
einig es</w>
dis play</w>
dic tion
co ordin
clos ely</w>
ch urch</w>
c ers</w>
bic y
be treiben</w>
ax is</w>
ar m
an genommen</w>
ac tors</w>
ac tivities</w>
Whi le</w>
Vier tel</w>
Ver breitung</w>
V e
T ä
Sy mp
R ed</w>
Plas tik
N ull</w>
Lebens mittel</w>
J ones</w>
Inv est
Instr ument</w>
I ran
Hum or</w>
Gesch enk</w>
G old</w>
Ereig nis</w>
D A</w>
Con gress</w>
Cent ral</w>
Bron x</w>
Bri an</w>
Bevölk erungs
Benj amin</w>
Auf nahmen</w>
200 2</w>
ö s</w>
wer ten</w>
welt weiten</w>
tern al</w>
techni que</w>
ser ving</w>
schri ft</w>
sc ore</w>
re verse</w>
pri me</w>
pol y
pi ano</w>
person ally</w>
pe ak</w>
over whel
out come</w>
occ ur</w>
lo gic</w>
liter ature</w>
le be</w>
ke y
k oh
in sp
ier tes</w>
idem ie</w>
glaub te</w>
explor ation</w>
exp an
er ror</w>
entrepreneur s</w>
elec tion</w>
dr ücke</w>
dar stellt</w>
ci ous</w>
ch ester</w>
ben de</w>
beispiel sweise</w>
be dro
as pect</w>
an geb
Y o
Ver ein
Stu dent</w>
Russi a</w>
Restau rant</w>
Respe kt</w>
Relig ionen</w>
Prinzi pien</w>
Pri m
Par ty</w>
Mar y</w>
MR I</w>
Lö cher</w>
L ou
Kev in</w>
Interak tion</w>
Gre en</w>
G ute</w>
Fi ve</w>
D au
Cha os</w>
An nahme</w>
1 .000</w>
zwei mal</w>
wo für</w>
wei ßen</w>
war f</w>
w ol
ton ight</w>
taus enden</w>
st au
sel ten
requi red</w>
pres ence</w>
pre dat
pr äs
particip ate</w>
p ie</w>
organis ieren</w>
nation ale</w>
multi p
mechan ism</w>
lin ked</w>
lei hen</w>
l ength</w>
intui tive</w>
inter ven
in al</w>
iel d</w>
h an</w>
gel ie
et c.</w>
enzi al</w>
electron ic</w>
det ect</w>
des k</w>
dar gestellt</w>
c ow</w>
besit zt</w>
ast on
ar i</w>
Z ur
Win ter</w>
Wer k</w>
Ver brechen</w>
Untersu chung</w>
T aliban</w>
Sh ang
Resul tat</w>
Regi onen</w>
Nutz ung</w>
N ar
Musik er</w>
M ut</w>
Jahrzeh nte</w>
H ist
Gi bt</w>
Geräu sche</w>
Ge däch
F und
Durch schnitt</w>
Dar stellung</w>
Ban glad
B ein</w>
An statt</w>
0 0
ü mm
Ä l
wis st</w>
war tet</w>
von einander</w>
verst eckt</w>
ver dam
ut ze</w>
un mittel
ta gs</w>
some what</w>
selbst verständlich</w>
schn ell
schein bar</w>
ro cket</w>
recor ds</w>
re mind</w>
re ment</w>
re l</w>
r ough</w>
pri m
po und</w>
physi cally</w>
perfe kte</w>
pan ts</w>
opp ing</w>
occ up
o o</w>
l ung
kontrolli ert</w>
kl u
jo ke</w>
in spir
im men
ic a</w>
hi gen</w>
her oes</w>
gei sti
fa ke</w>
f ed</w>
em in
elec tr
ein st</w>
durch führen</w>
dep lo
dea ths</w>
dah inter</w>
collap se</w>
co ck
circum stances</w>
bur gh</w>
bil det</w>
be trieben</w>
be komme</w>
auth ority</w>
as chen</w>
an nt</w>
an hand</w>
Zent r
Zei tung</w>
Säu ge
Schlüs sel
Sch le
Sch alt
Op tim
On ly</w>
O hren</w>
N el
Mik ros
Kor an</w>
Kli ma</w>
Inspi ration</w>
H ouse</w>
Gesam t
Eig ent
E l</w>
Debat te</w>
Da zu</w>
Com p
Chem ie</w>
Bus iness</w>
Bl ät
Bl ue</w>
Billi onen</w>
B M</w>
A pri
5 0.000</w>
ück sichti
über wäl
über legen</w>
ön t
yra mi
vor bereitet</w>
unter richten</w>
un ver
th es</w>
sub jects</w>
star ben</w>
sl auf</w>
sil ence</w>
sec ure</w>
sat z
rup t</w>
resi li
quan tum</w>
pro p
mot or
mittel s</w>
mil k</w>
m im
limit s</w>
k tiv</w>
jour nalist</w>
ill a</w>
hous ing</w>
hor se</w>
gek auft</w>
ge omet
fund ing</w>
fe ature</w>
explan ation</w>
eu ropä
ent sprech
en able</w>
eg gs</w>
dom es
den heit</w>
de cken</w>
cre ature</w>
combin ed</w>
ci ans</w>
ch impanz
c ue</w>
bü cher</w>
bi om
b ow</w>
auf gewachsen</w>
au tism</w>
attac ks</w>
as ed</w>
Wel ten</w>
Vorstell ungskraft</w>
St äm
Sp ace</w>
Sau di</w>
Ri esen
Pos i
Nel son</w>
N ex
Mär kte</w>
M ay</w>
Kur s</w>
Krie ges</w>
Hol z
For t
Fak tor</w>
Ern ährung</w>
Ep idemie</w>
Eff ek
Col a</w>
Aus stellung</w>
Arme e</w>
Arbei ter</w>
10 0.000</w>
Ökos ystem</w>
wün schte</w>
wh ales</w>
wes halb</w>
tä glichen</w>
t z</w>
strat egi
schwi mmen</w>
res pe
psych ological</w>
po etry</w>
pat ent</w>
p unkte</w>
o th
nüt z
net s</w>
ne ar
n ose</w>
mon key</w>
instr uments</w>
in ts</w>
gu ar
gra in</w>
frame work</w>
fol genden</w>
er ter</w>
dep en
com bine</w>
collec ted</w>
cli p</w>
bri cht</w>
br ut
bo xes</w>
best ä
bemer kte</w>
behavi oral</w>
ap pl
ac ted</w>
a y
Wei sheit</w>
To p</w>
T rop
St art</w>
Squ are</w>
Shang hai</w>
Sch aden</w>
S ä
S ens
Regier ungs
Re g
Prot eine</w>
Le vel</w>
K ameras</w>
Informa tions
In ner
H at</w>
G ir
G as</w>
Fot ogra
Flüs sig
Ereig nisse</w>
Entfer nung</w>
E mis
Di plom
5 5</w>
Über leben</w>
woh n
wh is
wand eln</w>
vie wer</w>
um geben</w>
tane ously</w>
symp tom
swe et</w>
star ken</w>
spezi ellen</w>
sch we
sch wan
ri eren</w>
rel i
re gre
quar ter</w>
philosoph y</w>
ph il
pedi tion</w>
part ners</w>
or ts</w>
off enen</w>
nie der
nach gedacht</w>
n or</w>
mechan ical</w>
lö st</w>
lar gely</w>
ish ment</w>
irgend eine</w>
inter nal</w>
ide al</w>
hä us
h ome
gr ass</w>
genü gend</w>
fortun ate</w>
fal se</w>
f ter</w>
f rank
ey n
exp and</w>
erst off
embar rass
depen dence</w>
dar k
com fort</w>
challen ging</w>
bor ing</w>
besor gt</w>
be weg
asi ve</w>
app lications</w>
anima tion</w>
am in
alis ts</w>
ach t
Z y
We b
Vog el
Versu che</w>
Terror ismus</w>
T I</w>
Schließ lich</w>
Par k
Mut ter
M A</w>
L ab</w>
Kontin ent</w>
In fe
Gro ße</w>
Gra fik</w>
Gen au
Frei willi
Fok us</w>
F ur
Erwachsen en</w>
D ou
C ro
Bas ically</w>
Ar me</w>
3 .
. D.</w>
über qu
Ä hn
zusammen arbeiten</w>
z e
yo unger</w>
vill ages</w>
un gen
un abhän
um ps</w>
u pper</w>
tre ating</w>
tr at</w>
su ici
soli d</w>
sol ange</w>
sicht bar</w>
ri en</w>
power s</w>
pos t
poll en</w>
ph arma
paradig m</w>
on a</w>
nom men</w>
mon keys</w>
micro bes</w>
meas ured</w>
lei stung</w>
lang samer</w>
k et
interessan ter</w>
gri ffe</w>
gig an
gi ogen
gi er</w>
ger ing
ge teilt</w>
for es
fle w</w>
f liegt</w>
exhi bi
ev ening</w>
erhöh t</w>
einfach es</w>
ein geladen</w>
di ges</w>
den se</w>
conven tional</w>
conven i
blo g
blo ck
beteili gt</w>
bes essen</w>
aus gesetzt</w>
aus einander</w>
at men</w>
an schaut</w>
accom pl
Zu fall</w>
Wör ter
Ver wand
Ver b
T ar
Stamm zellen</w>
Schla f</w>
S ource</w>
R äume</w>
R wand
Qu ellen</w>
Philosop h
Lebenser war
Koh le</w>
Kapit el</w>
Je ff</w>
Ingenie ure</w>
H em
Ent wur
En g
E hem
Det ro
Chan cen</w>
Algorith men</w>
5 0
4 2</w>
Überrasch ung</w>
Är a</w>
whe el
wahr nehmen</w>
veröffent lichen</w>
ver glichen</w>
un des</w>
umzu gehen</w>
u ti
tri b
trans formed</w>
ten den</w>
teil weise</w>
t our</w>
t ab
stru k
stron ger</w>
sp lit</w>
sogenan nte</w>
schlä ge</w>
s can</w>
rema ins</w>
rei s
re ference</w>
re al
potenti ally</w>
posi tiv</w>
perman ent</w>
op tions</w>
lin ear</w>
lic ity</w>
lehr en</w>
kom plex</w>
kl app
kes pe
ken nen
k ni
it arian</w>
is l
h ü
grü ne</w>
glück licherweise</w>
gentle men</w>
gen heiten</w>
g a</w>
fäl len</w>
fre ie</w>
faszin ierend</w>
f und</w>
equ ally</w>
econom ists</w>
dru ckt</w>
do zen</w>
der selben</w>
cul ar</w>
continu ed</w>
consi der
clo thes</w>
c m</w>
but ton</w>
br eite</w>
biolog ische</w>
beh ör
be zeichnen</w>
be glei
b rief</w>
au spro
ar my</w>
ad mit</w>
ach tet</w>
abstra ct</w>
Zuschau er</w>
Willi am</w>
Vor stellungen</w>
V oll
U p</w>
Teen ager</w>
Sk el
Sha kespe
Sat elli
Ri ver</w>
Prot otyp
P in
Molekü l</w>
Mobil telef
Milit är</w>
Kap ital</w>
H ung
Got tes</w>
Gol f</w>
Gemäl de</w>
Geburt stag</w>
Fran ce</w>
F eyn
Dro gen</w>
Da für</w>
D ame</w>
Christ mas</w>
Apri l</w>
4 8</w>
20 50</w>
wonder ed</w>
wa i
volu me</w>
vacc ine</w>
v enti
unk no
under water</w>
sur geon</w>
su s</w>
sto ßen</w>
stat ement</w>
st in
shar k</w>
sha ke</w>
sch ar
robo tic</w>
re fer
psy chiat
pro of</w>
pri ze</w>
par king</w>
pap ers</w>
organis m</w>
ol umin
od d</w>
m .</w>
lei chter</w>
l ers</w>
l ass</w>
h en
grundle genden</w>
gi k</w>
gene tische</w>
g al
fix ed</w>
fil m
fe eding</w>
et tet</w>
e wi
don es
des per
defin iert</w>
clou ds</w>
cent uries</w>
bus y</w>
be zeichnet</w>
b ones</w>
aus ch</w>
alis ten</w>
Zah n
Whi te</w>
S inn
Russ land</w>
Res er
R ot
Pot enzial</w>
M ig
Li ve</w>
Kra ft
K ris
J ung
Hot el</w>
Ger ü
F our</w>
Egyp t</w>
Desig ns</w>
D ör
Bev or</w>
Aut or</w>
Aus sage</w>
Ab out</w>
3 6</w>
z el</w>
x is</w>
wür dig</w>
win det</w>
whe el</w>
wes ome</w>
voll es</w>
verursa chen</w>
vergan genen</w>
ver lan
ver an
unkno wn</w>
swi mming</w>
su che</w>
stru ck</w>
son gs</w>
sk ep
scho ck
ri ce</w>
rel ation</w>
ra p</w>
puzz le</w>
po em</w>
p ump
p es</w>
over all</w>
mol ekul
l ens</w>
k o</w>
is s
in i</w>
ik er</w>
i di
horri ble</w>
hie ß</w>
her an
gr and</w>
gel eitet</w>
gar ten</w>
g ur
fü ll
func tional</w>
frank ly</w>
fr üh
fol gendes</w>
fig ur
fer ti
fer n
er he
embra ce</w>
educ ational</w>
decl ine</w>
coura ge</w>
cla im</w>
ch ose</w>
c ents</w>
br eiten</w>
besch üt
at tempt</w>
at ers</w>
as ion</w>
Zerst örung</w>
Un fortunately</w>
T reib
Sp iegel</w>
Re gen</w>
Po int</w>
Pf ei
No bel</w>
Mor al</w>
Mi ke</w>
Leon ardo</w>
Instr umente</w>
Imp ul
Grö ßen
Gei st
Führ ung</w>
Feyn man</w>
Erwachsen e</w>
Ele ment</w>
Durch schnit
Dro gen
D ad
Con go</w>
Col um
Bi om
Aspek te</w>
A li
20 ,000</w>
zufrie den</w>
zu führen</w>
zo om</w>
ziel en</w>
wor an</w>
woh er</w>
wo von</w>
wal d</w>
voll stän
versch wunden</w>
verl äs
tra tion</w>
to y</w>
ti se</w>
therap ie</w>
st ol
so ft</w>
sever e</w>
schri ften</w>
schlie ßt</w>
schl üs
schein end</w>
scar ed</w>
ro ot</w>
resol ution</w>
re kt</w>
push ing</w>
provi ding</w>
pro z
per s
no where</w>
niem anden</w>
n ity</w>
libr ary</w>
lei den
leben dig</w>
labor atory</w>
l atest</w>
kü ste</w>
kre ativen</w>
kosten los</w>
kar ten</w>
k tieren</w>
j a
ist ot
imp lications</w>
hö here</w>
hand le</w>
gros sen</w>
glück licher</w>
glo be</w>
gesam t</w>
gener ated</w>
gelan gt</w>
für s</w>
fu hren</w>
flo wer</w>
fin ance</w>
fac ed</w>
er ungen</w>
earth qu
dra h
de gra
de cre
dan cing</w>
d us</w>
connec ting</w>
car eful</w>
ca ve</w>
bor der</w>
bla u</w>
bin den</w>
bil der</w>
be enden</w>
at tra
ar ran
appreci ate</w>
and ed</w>
an gel
W under
Vir gin
Sonnen licht</w>
Some thing</w>
Schicks al</w>
Proble ms</w>
Mü ll
Ma chen</w>
Inter essen</w>
Ha w
H unde</w>
H olz</w>
Ger man</w>
Gebäu den</w>
G am
F all
Ent schul
Elefan ten</w>
Dar um</w>
Bl att</w>
Be fore</w>
B em
Ab sol
A ct</w>
4 7</w>
äng sti
zu geben</w>
wenig stens</w>
wei ße</w>
wat er
visu elle</w>
ver mis
ver liert</w>
tim eter</w>
ter ium</w>
stopp en</w>
ster oid</w>
sta yed</w>
spezi ell</w>
sh ame</w>
schwar zen</w>
rü stung</w>
relig ions</w>
reg is
redu ziert</w>
re move</w>
rat ch</w>
po cket</w>
pengu ins</w>
or ange</w>
mar ine</w>
ma tik</w>
m p</w>
m ill
li f
l asst</w>
kauf te</w>
k ette</w>
j o</w>
inv ent</w>
in fl
imag in
ill usion</w>
gewis ser</w>
gew alt
gesell schaft</w>
fo kus
fing ers</w>
fil ms</w>
eng aging</w>
dok umenti
di r
di chte</w>
cur i
conver sations</w>
con stra
con crete</w>
clim b</w>
chn er</w>
bi as</w>
begeg nen</w>
auf geregt</w>
archit ects</w>
ar r
Zu cker</w>
Ver sch
U N</w>
St .</w>
Schu he</w>
Re p
Re ally</w>
R önt
Proje kten</w>
Mikro ben</w>
Liter atur</w>
L atin</w>
L abor
Kat eg
K ei
J H</w>
Gr as</w>
G it
Fl äche</w>
F li
Every one</w>
Entdeck ungen</w>
Denk weise</w>
Compu tern</w>
Broo kl
Au gust</w>
ä ft
wunder baren</w>
wei ßt</w>
verst är
unter wegs</w>
trau rig</w>
tief er</w>
ti ll</w>
ten de</w>
surro unded</w>
spre ading</w>
si e
se ason</w>
re fu
re agiert</w>
pl ain</w>
path ie</w>
obs essed</w>
ober en</w>
o bes
nan nten</w>
n est</w>
ma r</w>
li zed</w>
leben de</w>
lau gh</w>
j ung
is tics</w>
intel lektu
ins besondere</w>
i red</w>
i en
hot el</w>
gra b</w>
gr ab
gl es</w>
gi gen</w>
ges etz
ge worfen</w>
fra u</w>
fic tion</w>
ec ke</w>
dr ingen</w>
dis orders</w>
deter mine</w>
con clu
be wirken</w>
be m
be kämpfen</w>
auth or</w>
assu me</w>
Wil len</w>
We gen</w>
W right</w>
W agen</w>
Ver stehen</w>
Tran spar
System s</w>
System en</w>
St ein</w>
Si licon</w>
Sch utz
SE TI</w>
S un
S ho
R hyth
No vember</w>
N ähr
Mon ter
Mo un
Mand ela</w>
Lebenserwar tung</w>
Lar ry</w>
Klei dung</w>
K la
J ane</w>
H üh
H an
Gul f</w>
Gr and</w>
Gi ve</w>
Ge t</w>
G let
Erkrank ungen</w>
Er st</w>
D V
C ou
Br ust</w>
B us</w>
199 0</w>
19 th</w>
Ägyp ten</w>
y ment</w>
wor ker</w>
wor auf</w>
wi red</w>
wher ever</w>
vor aus</w>
un like</w>
tr end</w>
tig keiten</w>
th um
t äu
t all</w>
sus pen
sens ors</w>
s ession</w>
ru ft</w>
recogni tion</w>
qu ad
pain tings</w>
ne ut</w>
nach ts</w>
na ja</w>
mus h
moral ischen</w>
mess er</w>
men ge</w>
lich ten</w>
l asse</w>
jo ined</w>
irgend jemand</w>
interessan ten</w>
inf ec
hinzu fügen</w>
har m</w>
graph ics</w>
genie ßen</w>
gehens weise</w>
ge ous</w>
g all
fün f
fem in
elektr ische</w>
el ed</w>
dr auf</w>
di cul
dameri ka</w>
cur ve</w>
cle an
chem ische</w>
ch teten</w>
c ast
be unru
b rie
b lan
b ie</w>
an ticip
ali ties</w>
Zwei fel</w>
Wh it
W est
Ta ges
Spek trum</w>
Schu ld</w>
Ri chtungen</w>
P ost</w>
P C</w>
M ent
Köni g</w>
Kon go</w>
Jos hu
Gesch ma
Fabri k</w>
Erwar tungen</w>
Einf ach
E ur
Del hi</w>
Car to
Bedroh ung</w>
Ausw ahl</w>
0 ,
zü ge</w>
zu kommen</w>
y al</w>
we ak</w>
verschieden er</w>
ut ter
un clear</w>
um fas
techn ischen</w>
ta ined</w>
t led</w>
symptom s</w>
sym bol</w>
stri ert</w>
spor ts</w>
spo ken</w>
sp here</w>
sex y</w>
sel ection</w>
re ak
r in
r ated</w>
produ z
practic es</w>
poor est</w>
pe er</w>
p an</w>
obes ity</w>
nah e
leu chten</w>
izi enz</w>
it er</w>
imm une</w>
hei len</w>
har mon
h l
gro ws</w>
ger ei
ge trennt</w>
g ut
fokus si
flexi ble</w>
fil ter</w>
f at
explor ing</w>
er a
ein geführt</w>
econom ies</w>
e es</w>
do ors</w>
direc tions</w>
d ose</w>
d einer</w>
d dy</w>
d al</w>
concep ts</w>
ch art</w>
bedeu tete</w>
bas ierend</w>
b eln</w>
auth enti
antwor tete</w>
an zusehen</w>
allo wing</w>
aff ord
af e</w>
Ver wendung</w>
Tre ffen</w>
Tie fe</w>
Tie f
Sti ftung</w>
Sp ort</w>
Schri ft</w>
Resear ch</w>
Rem ember</w>
O ther</w>
Nex t</w>
N ob
Mc Don
Mar ke</w>
K lu
K abel</w>
In dones
Hand ys</w>
Gewin n</w>
Ge dicht</w>
F ron
F os
E li
Det ail</w>
Char lie</w>
Beh in
B all</w>
Ar z
Ab ent
Ü bri
wir eless</w>
win kel</w>
wi der</w>
viel mehr</w>
viel es</w>
vi erte</w>
versor gen</w>
verdi ent</w>
usi as
tox ic</w>
ti tle</w>
ta ining</w>
st est</w>
schl ag
sch utz</w>
sam ples</w>
s in</w>
s hr
res ul
repres ented</w>
rene w
ra w</w>
r es</w>
pregn ant</w>
po ol</w>
p f</w>
or ches
n am</w>
moment an</w>
mechan is
main ly</w>
li festyle</w>
leist ungs
le mma</w>
konfron tiert</w>
isch em</w>
in put</w>
igh t
grün dete</w>
gra y</w>
ges ammelt</w>
gene tischen</w>
geb iet</w>
fri gh
fa che</w>
f ts
extin ct</w>
ett i</w>
equ ation</w>
en en
e ks</w>
do x</w>
dis tributed</w>
dat ab
cy ber
compon ent</w>
classi c</w>
class es</w>
chan nel</w>
certain ty</w>
bi lität</w>
b ungen</w>
ar ro
an geht</w>
ad dic
Zei traum</w>
Wol ken</w>
Wah len</w>
Verl auf</w>
Un fall</w>
Schwe den</w>
Rom an</w>
R ick</w>
Mo ore</w>
Mo der
L äch
L im
L auf</w>
L ager</w>
Kur ve</w>
K amer
Jahr es
Hunder te</w>
Ha wai
H ong</w>
H all</w>
Führ er</w>
Dunk el
Chi le</w>
Brookl yn</w>
Br un
Blu men</w>
B ran
B ir
Asi en</w>
Ar istot
Alex ander</w>
4 0
4 ,000</w>
. or
ä ß</w>
Än derungen</w>
z ö
wech sel</w>
ver folgt</w>
v ater</w>
tou ched</w>
toi let</w>
t ank</w>
studi ert</w>
sti cks</w>
spiri tu
spezi elle</w>
spec tac
shoul der</w>
se ed</w>
sch rit
ri dicul
recor ding</w>
progra mm</w>
produc tivity</w>
priv acy</w>
physi kal
pain ful</w>
p in
on ien</w>
o gen</w>
nation alen</w>
län dlichen</w>
lie fert</w>
li est</w>
kultur elle</w>
kol le
j ung</w>
inter active</w>
ing dom</w>
incre ases</w>
iden tical</w>
hä user</w>
hei ght</w>
h yp
h all</w>
gü l
gros s
ges ucht</w>
gehö ri
g eren</w>
fu els</w>
fantas tische</w>
fahr er</w>
erf assen</w>
entscheiden d</w>
enem y</w>
dynam ics</w>
do t</w>
di verse</w>
dev ast
caus ing</w>
c tic</w>
biolog ischen</w>
be wahren</w>
automati cally</w>
auf nahme</w>
ati ver</w>
arg uments</w>
ar is
am eter</w>
agre ed</w>
ab eth</w>
Z en
Wissenschaft lern</w>
Wel traum</w>
Viet nam</w>
Ver gn
Un ter</w>
Sicht weise</w>
Sar ah</w>
Sa al</w>
S mar
S erie</w>
S amen</w>
Psych ologie</w>
Normal erweise</w>
Nachhal tigkeit</w>
Mul ti
Le go</w>
Kompon enten</w>
J ack
In ten
In dem</w>
Geschäf te</w>
F ett
Eu ch</w>
Er ste</w>
E ver
Chil dren</w>
Chi p</w>
Ber ge</w>
A ir</w>
äusch ung</w>
zuneh mend</w>
zentr ale</w>
zei chnungen</w>
we b
wat t</w>
ung sp
un belie
trans forma
te a</w>
ta x</w>
succe ed</w>
stir bt</w>
ster e
st un
st ep
si de
sen dlich</w>
selts ame</w>
schön es</w>
schwar z</w>
ru b
res p
re form</w>
re ale</w>
pro be</w>
prin ting</w>
popul ations</w>
poli o</w>
plan en</w>
pe ac
oh nt</w>
off ered</w>
o tic</w>
net z
mäch tig</w>
me etings</w>
m one</w>
lus sendlich</w>
lin ie</w>
l ot
kümm ert</w>
k amp
inv ent
inspir ing</w>
hunder t
hinter lassen</w>
har dware</w>
h oods</w>
grü n</w>
glaub ten</w>
gi eri
g am
friend ly</w>
for dern</w>
est ingly</w>
ess ing</w>
er geben</w>
er ei</w>
enter tainment</w>
eigent liche</w>
eben e</w>
d ding</w>
carto on</w>
car ried</w>
brea the</w>
besu chte</w>
auf tau
au tisti
astro phen</w>
an zen</w>
acc essi
Zäh ne</w>
Zu g</w>
Zer o</w>
W he
Virgin ia</w>
Ver fahren</w>
Schmer zen</w>
Sc ott</w>
Re chen
Platt form</w>
Physi ker</w>
Philosoph ie</w>
P ho
Ori gin
Num ber</w>
No thing</w>
New ton</w>
Nat ure</w>
Nachbar schaft</w>
N ull
Medi zin
Le w
Kat astrophe</w>
J une</w>
Inn eren</w>
H ur
Gl üh
Gl as
Gegen den</w>
Gan zen</w>
F isch
En d
Ein richtungen</w>
Dem oc
Bet rie
Bel oh
Analy se</w>
A steroi
win dows</w>
w em</w>
vor sichtig</w>
viel er</w>
ves sels</w>
v ation</w>
tru ck</w>
tri cks</w>
tra ge</w>
ti al</w>
sur vey</w>
suff er</w>
ster blichkeit</w>
spi der</w>
sli des</w>
sh ut</w>
sculp ture</w>
schwieri ge</w>
schie ßen</w>
scar y</w>
s eht</w>
resist ance</w>
precis ely</w>
par tici
p hrase</w>
out comes</w>
organ ize</w>
off ers</w>
ob by</w>
nit ure</w>
my stery</w>
mitt elt</w>
mit nehmen</w>
mehr eren</w>
li ft</w>
kre ative</w>
k ein
inter actions</w>
inten se</w>
in tr
i des</w>
hous eh
hei ß</w>
ger ettet</w>
f ach</w>
ev al
ernsth aft</w>
er neut</w>
eleph ant</w>
dreh te</w>
disappe ar</w>
dens ity</w>
conserv ation</w>
c and
ber ücksichti
bei gebracht</w>
beh err
be greifen</w>
as sum
appe ars</w>
app lication</w>
ali zing</w>
ak es</w>
abi lität</w>
a kt</w>
Ur sprung</w>
Un s</w>
Tri ck</w>
Tran script</w>
Teil nehmer</w>
Techni ken</w>
T anz</w>
Sub titles</w>
Sti r
Sh ir
Programm ier
Pr ü
Pa ar</w>
La w</w>
L .A.</w>
Kur z
Kri min
He utzutage</w>
Hac ker</w>
Funk tionen</w>
Erinn ern</w>
E M</w>
Chin esen</w>
Carol ina</w>
Beru f</w>
Be wer
B or
B ang</w>
Ar t.</w>
Ar chi
An gele
7 0s</w>
3 1</w>
3 ,
zerst ör
z ell
y right</w>
wor um</w>
wieder holen</w>
wie viel</w>
ver w
v a
ter s
t ü
syn chron
span nen
schmer z
sch rieben</w>
sau ber
remem ber
rand om
r ating</w>
provi ded</w>
pri ces</w>
pres ented</w>
pi on
per su
pan dem
mis sed</w>
milit är
meas uring</w>
main tain</w>
mach st</w>
lo vely</w>
lo cked</w>
le gten</w>
j et
j ective</w>
j ap
invol ves</w>
insur ance</w>
in no
i o</w>
i ere</w>
g elt</w>
fl äche</w>
fl ei
f ur</w>
f loo
f et
exis ted</w>
ex tent</w>
ern ähren</w>
em bed
drama tically</w>
divi ded</w>
di ents</w>
dep end</w>
con stitu
cho col
chines ische</w>
celebra te</w>
cele br
car di
bu b
bi ge</w>
besu cht</w>
ben s</w>
b and
as ing</w>
agen da</w>
acc um
Z ur</w>
Wit z</w>
Welt krieg</w>
W ander
W and
Tit an</w>
Sch ä
Sa gen</w>
R ö
Pingu ine</w>
Part ner
P E
Ni veau</w>
Min ister</w>
M um
La chen</w>
Kre di
Kin des</w>
Joshu a</w>
Janu ary</w>
J un
Ingenie ur
Gesi chts
Geist es
F ing
F ei
Emis sionen</w>
Elek tron
Detro it</w>
D om
Con nec
C amp
Bei j
B ell</w>
Ale x</w>
Abra ham</w>
A stron
öffent lich</w>
zw ungen</w>
vor hin</w>
ven tion
travel ed</w>
sum mar
sti tut</w>
stab il
sp äten</w>
son s</w>
reach ing</w>
re tro
re k
prototyp e</w>
pol ar</w>
p her
op ter</w>
ologi cally</w>
ob stac
ni cht
ner vö
ma m
m ungen</w>
loo p</w>
ligh ting</w>
k alt</w>
j enen</w>
höch sten</w>
her z
her unter</w>
h ung</w>
green house</w>
gi er
ges tar
gen u
ff er</w>
ff er
eig net</w>
de partment</w>
d op
contro lling</w>
contr ast</w>
consum ers</w>
commit ment</w>
ch tete</w>
bro thers</w>
brea thing</w>
atta ched</w>
an passen</w>
an ger</w>
a di
Ven e
Tas man
Strat egi
Sp i
Shakespe are</w>
Sch icht</w>
Pf le
Ox y
Neu igkeiten</w>
N ic
Mit glieder</w>
M e</w>
Kü che</w>
Klassen zimmer</w>
Kar ik
J ac
Inner halb</w>
Hö he
Gleich gewicht</w>
Ge fan
Frank reich</w>
Fin ally</w>
Fel low</w>
Eth iop
Dem on
D op
Bi bel</w>
Bab ies</w>
An führer</w>
Al ler
199 8</w>
ä ften</w>
zeich nete</w>
y ard</w>
win zigen</w>
wh ale</w>
vor an
viel fäl
ver trau
trans late</w>
tici an</w>
ti p</w>
ti l
ti ed</w>
tal ent</w>
stand s
so weit</w>
sk y
sk et
sch utz
ri cal</w>
rhyth m</w>
pos ing</w>
pi le</w>
phys ische</w>
person ality</w>
os phäre</w>
organis iert</w>
or bit</w>
nei gen</w>
n els</w>
motiv ation</w>
monit or</w>
micros cope</w>
mer zi
m ess</w>
leiden schaft
k tion
j ail</w>
inves tiert</w>
inspiri eren</w>
identi fizieren</w>
fur niture</w>
fund ed</w>
flo ating</w>
er mor
ell ed</w>
dank bar</w>
da zwischen</w>
d ates</w>
ch ens</w>
bizar re</w>
betro ffen</w>
bes ei
beha ve</w>
b chen</w>
an i</w>
al tes</w>
Um ständen</w>
Tra ining</w>
T oten</w>
Sto ck
Sah ara</w>
Rwand a</w>
R ad
Persön lichkeit</w>
Pa zi
P et
O berfl
Monter ey</w>
Mark eting</w>
M ale</w>
Lew is</w>
L G</w>
Jos ep
Im mer</w>
Hy per
H ören</w>
Gr ap
Fak toren</w>
Erdbe ben</w>
D yn
Clin ton</w>
Beloh nung</w>
B e</w>
Atlan tic</w>
Anwen dungen</w>
Afri kaner</w>
A sh
zurück kehren</w>
zul assen</w>
was hing</w>
us ions</w>
ursprün glich</w>
ul ty</w>
tas ks</w>
sur ely</w>
stre ben</w>
steh ung</w>
sta at</w>
st ag
sor g
si gen</w>
s now</w>
reas on
r äume</w>
plan et
optim istic</w>
o ci
mo bi
mitt leren</w>
mic ro</w>
läch er
lin ien</w>
li kes</w>
letz ter</w>
la dies</w>
la chen</w>
l i</w>
kul tur</w>
kre ativ</w>
irgend einem</w>
infin ite</w>
hab itat</w>
h n</w>
ges prä
fos sil
flie ßt</w>
fascin ated</w>
fac i
f are</w>
erwäh nen</w>
erklär te</w>
ent liche</w>
elektr ischen</w>
ear n</w>
dy s
domin ant</w>
di ver
der al</w>
d einem</w>
custom ers</w>
cor d</w>
col um
circu it</w>
che aper</w>
bemerkens wert</w>
begren zt</w>
b um</w>
aus machen</w>
at er
academ ic</w>
ab use</w>
Z wischen
Welt bevölkerung</w>
Swe den</w>
Sto ff
Ro bo
Ris ik
R and
Po wer
Pal ä
Ne anderth
N oten</w>
N ep
Man gel</w>
M T</w>
Kur z</w>
Kom men</w>
Investi tionen</w>
Hin blick</w>
H op
Fre qu
Fre e
Di abetes</w>
Coun ty</w>
CE O</w>
B ahn</w>
Au tismus</w>
Amaz on
Ab hän
8 0s</w>
198 4</w>
än den</w>
äh en</w>
äf er</w>
Ökon omen</w>
zeu gung</w>
zah l
wel le</w>
ver tei
un its</w>
tr ends</w>
ti ka</w>
schi ckte</w>
sav ings</w>
ris ing</w>
rel ations</w>
produ ktion</w>
pro ce
pres cri
pl enty</w>
pac kt</w>
over come</w>
occ asi
men de</w>
lo gical</w>
lic ense</w>
l ler</w>
kön ne</w>
kon sum
kn app</w>
kauf s
incenti ves</w>
ignor e</w>
her o
grand father</w>
gl ac
gew ann</w>
ges unde</w>
flo g</w>
era dic
er end</w>
enga gement</w>
en kt</w>
en ed</w>
emotion ale</w>
eh em
dra wn</w>
diox ide</w>
dig nity</w>
dep ending</w>
de ckt</w>
cre di
construc t</w>
conflic ts</w>
co ok</w>
cla im
char ity</w>
ch romos
capit alism</w>
bei tragen</w>
asp ects</w>
an gry</w>
accessi ble</w>
a wesome</w>
Wahrschein lich</w>
Vor tra
Vor schlag</w>
Vo gel</w>
V ic
T rei
T es
Sz ene</w>
St ein
Sing ap
Schi ff
Rei ch
Pl ötzlich</w>
P ole</w>
P it
Mathema tiker</w>
Ma ke</w>
L isten</w>
Konfli kte</w>
Josep h</w>
J ul
In tu
Gro ßen</w>
Gol f
Ges etz
Gen e
Gemü se</w>
Fran c
Eigen schaft</w>
E he</w>
E con
E astern</w>
Dunkel heit</w>
D ev
C ent</w>
Bu dget</w>
Bo y</w>
Bibliothe k</w>
B rief</w>
B ericht</w>
Arg ument</w>
Ak tivis
Afri cans</w>
9 6</w>
7 2</w>
6 0s</w>
20 30</w>
2 .</w>
199 9</w>
19 0
0 .
wunder schöne</w>
wom it</w>
wes tern</w>
wan ting</w>
w an</w>
virtu ally</w>
stu hl</w>
st ücke</w>
sp ots</w>
sh irt</w>
s eins</w>
ris k
ries iges</w>
ri cul
repor ted</w>
recogni zed</w>
re plac
pl ed</w>
ph a</w>
partic le</w>
pac ken</w>
op posed</w>
o .</w>
mo s</w>
mer kt</w>
mar ks</w>
los es</w>
leg isl
inter acting</w>
hol te</w>
h unger</w>
gestar tet</w>
geschn itten</w>
ges ün
ger ing</w>
gef asst</w>
fran zös
exhibi tion</w>
esc ence</w>
embed ded</w>
electron ics</w>
el se
e z</w>
e x</w>
drin king</w>
drei dimension
dist ant</w>
di en</w>
curi osity</w>
col ony</w>
clin ic</w>
cht um</w>
bor ders</w>
bo ards</w>
besonder en</w>
beh in
be ach</w>
back wards</w>
au sh
arg umenti
arbei tung</w>
an spru
ad ding</w>
ab und
ab ges
Wie der</w>
Ver suchen</w>
Trag ö
Tas che</w>
T .</w>
Ste wart</w>
Sor ge</w>
Sim on</w>
Se a</w>
Sch reiben</w>
S he
Ri chtige</w>
Q a
Proz esse</w>
Ori g
Musli ms</w>
Mas sa
Lo ve</w>
Lei den</w>
K enn
Janu ar</w>
Islam ic</w>
Hum an
Gesprä che</w>
Ge ographic</w>
Gand hi</w>
Feh l
Einfach heit</w>
E ier</w>
Desig n
Dar über</w>
D E
C amer
Blo g</w>
Bi enen
Bat terie</w>
Ander son</w>
Ak tion</w>
A qu
20 20</w>
wunder volle</w>
win zig</w>
volunte ers</w>
vi te</w>
ver zwei
ver wal
ur a</w>
tr ennen</w>
ti red</w>
thro wn</w>
tele phone</w>
teil ten</w>
ta gs
suici de</w>
stra ße</w>
spiri tual</w>
sogenan nten</w>
simp licity</w>
sicher heit</w>
she ep</w>
se eds</w>
schließ end</w>
sa ßen</w>
ro llen</w>
rit ten
ri tu
reco very</w>
proper ly</w>
po l</w>
pil ot</w>
ow ned</w>
os ten</w>
o od</w>
neur on</w>
neighbor hoods</w>
mani pu
ler nten</w>
len ken</w>
kl ang</w>
jähri ger</w>
innov ations</w>
in fiziert</w>
in dischen</w>
imag ined</w>
hoh er</w>
her self</w>
happ ier</w>
h assen</w>
gän ge</w>
gra d</w>
fra c
flu id</w>
fac ial</w>
f alten</w>
er kennung</w>
emp finden</w>
ei d</w>
earthqu ake</w>
dolph ins</w>
disappe ared</w>
dis order</w>
di a</w>
d sch
d or</w>
cru cial</w>
conc ern</w>
cat s</w>
bicy cle</w>
beschle unig
besch ä
berich tet</w>
bere chnen</w>
be vorzu
b old</w>
b low</w>
aus ser
auf gaben</w>
arab ischen</w>
appe ared</w>
afford able</w>
achie ved</w>
ab and
Wäl der</w>
Wil d
W asch
Tran spor
Teu fel</w>
Symp tome</w>
Stand ard
So cial</w>
Schi ff</w>
S zen
Resul tate</w>
Rei sen</w>
Reak tionen</w>
R at</w>
Pro ben</w>
Par kin
P ic
P eri
Medi um</w>
Man i
L aufen</w>
Küh l
Kat ze</w>
Jer us
Je denfalls</w>
J oh
In s
H it
H im
Geschi chten
G eri
Ein kommen
D .C.</w>
Bü chern</w>
Bl ase</w>
B I</w>
Auf bau</w>
Ar abi
An y</w>
üh le</w>
ü ge</w>
ät te</w>
zw ingen</w>
z ens</w>
welt weite</w>
vi eren</w>
v in</w>
transp lan
tra h
t we
t phone</w>
st et</w>
st ations</w>
speak er</w>
sig ned</w>
schul dig</w>
sch were</w>
sac ri
rob ust</w>
rec ke</w>
re ten</w>
re chnen</w>
provi des</w>
posi tions</w>
phil anthrop
osph or
orig ami</w>
op y</w>
off izi
nervö s</w>
mus cles</w>
mitt lerweile</w>
mamm als</w>
l auf</w>
kom merzi
k tive</w>
k oll
intelligen te</w>
intelli gent
ignor ieren</w>
iP od</w>
i ds</w>
hor izon
hear ts</w>
har m
h of</w>
govern ance</w>
gesch windigkeit</w>
ges und
geb unden</w>
fro zen</w>
fif th</w>
fei ern</w>
extra ct</w>
expec tations</w>
er öffnet</w>
er langen</w>
ep i
emp fin
eff orts</w>
ef s</w>
dru cken</w>
do x
divi de</w>
di abetes</w>
d ges</w>
com mon
collec ting</w>
can di
bil d
ber ühren</w>
ber au
ben den</w>
b or</w>
aus einander
at temp
at e
at a</w>
an stelle</w>
an gehen</w>
amp e</w>
aktu elle</w>
air craft</w>
ack ers</w>
Wur zeln</w>
Ur sache</w>
T ol
Sy l
Sp inn
So vi
Selbst mor
S now
R ab
Prototyp en</w>
Pres se</w>
Poli o</w>
Pflan ze</w>
Pap ier
P ollen</w>
Organ e</w>
Nob elp
M ä
M oh
Lin ks</w>
H ier
H app
Gri ppe</w>
Geb ieten</w>
F es
Ever est</w>
Erfin der</w>
Bü ro
B M
An stieg</w>
An pass
9 0s</w>
3 7</w>
. m.</w>
Ökos ystem
wi ld
visu ellen</w>
vi ral</w>
vern ünf
vei llan
trage dy</w>
tradition elle</w>
tor ies</w>
tan zen</w>
t our
sho oting</w>
sho ck</w>
schlimm sten</w>
sch ten</w>
res cue</w>
produc es</w>
primi tive</w>
pre fer</w>
po x</w>
pass ing</w>
p el
ord net</w>
nei ther</w>
neben bei</w>
mu lieren</w>
mis er
min us</w>
min ing</w>
ment ally</w>
lin der</w>
li an</w>
langwei lig</w>
kti s</w>
krei ert</w>
kom m
k ton</w>
k i</w>
is lam
ingre dients</w>
in t
hö heren</w>
histor ical</w>
hei raten</w>
h ire</w>
guar an
grundle gend</w>
ges unden</w>
ger äte</w>
geni us</w>
eth ical</w>
ent gegen
en er</w>
emer gency</w>
ele gan
dun klen</w>
dro ve</w>
doc ument</w>
d ler</w>
construc ted</w>
con tribute</w>
commit ted</w>
co operation</w>
chocol ate</w>
cap tured</w>
c ute</w>
bro w
bro ad
boundar ies</w>
bel on
apart ment</w>
ak tive</w>
ad voc
ad vis
ad ol
Z it
W äre</w>
Sym bol</w>
St ell
Son n
Sch okol
S tern</w>
S ier
Pal est
Mi o.</w>
M ün
M am
M ach</w>
Li b
L og
Kom m</w>
In seln</w>
Her stellung</w>
Hand lungen</w>
Fr auen
Fein d</w>
Econ om
Dutz end</w>
Cy ber
Bo x</w>
Bl ack
Bi ble</w>
B ol
B log
B lei
3 50</w>
1 30</w>
y e</w>
w ing
vot ed</w>
ti les</w>
te i</w>
symmet ry</w>
st ages</w>
sozi al</w>
sor ge</w>
smo ke</w>
sear ching</w>
schön er</w>
scha u</w>
sch ol
s is
regel mäßig</w>
reflec t</w>
recei ve</w>
real m</w>
re pair</w>
re gener
r ar
pur ch
predic table</w>
posi tiven</w>
ograph ie</w>
off ene</w>
ne ural</w>
n es
li on</w>
let ting</w>
le th
l oud</w>
kämp ft</w>
kr äf
kill er</w>
ju dge</w>
j ahr</w>
inten sive</w>
hol ds</w>
har te</w>
grö ße</w>
grei ft</w>
grat eful</w>
gran ted</w>
gr ession</w>
glei cht</w>
gewöh nt</w>
gen oci
gef ol
gan gs
fron tal</w>
fra gi
fir m</w>
erfü llen</w>
enor men</w>
en ergi
else where</w>
disco ver
diagn osed</w>
def ense</w>
d ust</w>
cr ying</w>
contin ues</w>
con trac
ch osen</w>
ch irur
ch amp
c ot
benutz ten</w>
be er</w>
ballo on</w>
at tle</w>
at ar</w>
analysi eren</w>
anal og
ak tiven</w>
Zu frie
Wet ter</w>
W ände</w>
W ellen</w>
Vor träge</w>
Vo ice</w>
Ver wal
Ver langen</w>
V al
Un i</w>
Trot zdem</w>
T ok
Strategi en</w>
Sp ort
Sens oren</w>
Sch ach
NG Os</w>
Lu x
Lebens mittel
K nie</w>
Jerus alem</w>
J eff
In dus</w>
Hu man</w>
Ha ie</w>
G öt
G ericht</w>
El tern
Ein schrän
Ehr e</w>
E lec
Dis zipl
Dienst leistungen</w>
Dad urch</w>
DN S</w>
Che f</w>
C oc
B is
Aus nahme</w>
Auf stieg</w>
Ap par
Ap p</w>
19 50</w>
äl tere</w>
ß es</w>
Über all</w>
zurück gehen</w>
zukünf tigen</w>
z ungen</w>
we al
ver ließ</w>
veillan ce</w>
um so</w>
tri vi
tra its</w>
tim mt</w>
tie gen</w>
ter ies</w>
techn ische</w>
struk tur
stor es</w>
st elli
speak ers</w>
sh ops</w>
sh ell</w>
s i</w>
ro ll
repres ent
repar ieren</w>
rei cher</w>
probab ility</w>
op a
ol dest</w>
n un
metho ds</w>
mel zen</w>
mark et
lo ws</w>
l aser</w>
kur z
kultur ellen</w>
klein ere</w>
jewei ls</w>
insp ire</w>
inn ere</w>
ine quality</w>
il leg
hin unter</w>
head ed</w>
gra mm</w>
gra m</w>
gef er
geb iete</w>
för m
fän ger</w>
for mal</w>
fli p</w>
fis her
fin ds</w>
fi re
f ears</w>
experim enti
escap e</w>
erneu er
en dete</w>
eich ert</w>
ear ning</w>
e da</w>
domes tic</w>
diagnos ti
destro yed</w>
destro y</w>
den selben</w>
demon strate</w>
camp us</w>
c ry</w>
bo gen</w>
blo gs</w>
benutz te</w>
bei des</w>
bar s</w>
b ath
b ags</w>
außergewöhn lich</w>
asi de</w>
arch y</w>
app le</w>
an scheinend</w>
am ine</w>
al ie</w>
ah l
after wards</w>
advertis ing</w>
Wichti gste</w>
Vor gang</w>
Vergn ügen</w>
Verbesser ung</w>
Ver hand
V ölk
V agina</w>
Te ch</w>
Satelli ten</w>
S til</w>
Ros ling</w>
Re por
Präsi denten</w>
P reise</w>
Ne ws</w>
Mus keln</w>
Milit är
Klin ik</w>
Gedäch tnis</w>
G rie
Fü ße</w>
Entwicklungs länder</w>
Ent stehung</w>
Eff izienz</w>
B IP</w>
Asteroi den</w>
An streng
Altern ative</w>
A tem
A ch</w>
Über wach
wor thy</w>
wei gh
wa cht</w>
verschie den</w>
ve ter
v o</w>
v ance</w>
to ys</w>
ten den
tel escope</w>
strategi es</w>
stam men</w>
sh ine</w>
ru hig</w>
reve al</w>
re präsentiert</w>
quar ters</w>
qu est</w>
pul ling</w>
privi lege</w>
priv aten</w>
p it</w>
off icial</w>
off ic
nor thern</w>
neu gieri
mu liert</w>
mor ality</w>
mani fes
leg acy</w>
lec ture</w>
k reis</w>
k nee</w>
k g</w>
is ierung</w>
ir ing</w>
inten ded</w>
inkl usive</w>
inj ury</w>
in vite</w>
hervor ra
ger aten</w>
gel äh
geb äu
geb au
frü heren</w>
fru it</w>
frequ ency</w>
foot ball</w>
foot age</w>
fo unded</w>
far mer</w>
ex posed</w>
er tes</w>
entwick lung</w>
em an</w>
educ ated</w>
e tic</w>
dedic ated</w>
d ney</w>
cor respon
con tains</w>
clu b</w>
chines ischen</w>
chi ps</w>
ch est</w>
c up</w>
bewus st
belie fs</w>
bar t</w>
aus gehen</w>
ar es</w>
amon gst</w>
agen cy</w>
ad vance</w>
Zeh n
Weihnach ts
V it
Unter richt</w>
Tr end</w>
TED Talk</w>
Su per</w>
St or
Sier ra</w>
Sek tor</w>
Sch nee</w>
Sc ot
S oll
Pop ulation</w>
Phili p</w>
P T
N ations</w>
Mum bai</w>
Mensch lichkeit</w>
Ma ß</w>
Kapit alismus</w>
Ju gend</w>
In deed</w>
Höhe punkt</w>
Hin weise</w>
Glob alisierung</w>
Fle der
E liz
Dec ke</w>
C our
B ord</w>
Aus rüstung</w>
Au fl
An ders</w>
Ab ed</w>
9 8</w>
3 4</w>
über setzen</w>
Übri gens</w>
y or</w>
wieder holt</w>
w inning</w>
versi ties</w>
ut ed</w>
unsicht bar</w>
um welt
u el</w>
tro ck
tri bes</w>
sur veillance</w>
stro ke</w>
span ne</w>
sp lan
she et</w>
sc ales</w>
s ales</w>
rou te</w>
rich ten
repe at</w>
ren nen</w>
rec ep
rap id</w>
r ö
r ent</w>
qu is
prot ecting</w>
poli cies</w>
p yra
p ink</w>
p ace</w>
organis ationen</w>
mo de</w>
ma ch</w>
lu ck</w>
lo gen</w>
lo aded</w>
lich keits
li mit</w>
la p</w>
kon ta
kon kur
kap utt</w>
ischer weise</w>
in zwischen</w>
in tri
hä re</w>
hun gry</w>
hin auf</w>
h ed</w>
got ta</w>
get es
gegen über
ge ons</w>
ga ther</w>
g ged</w>
evol ve</w>
essen ce</w>
em ph
em a</w>
elec tions</w>
einz iges</w>
e ast</w>
dri ll</w>
disku tieren</w>
descri bes</w>
depres sed</w>
cur ren
contro ls</w>
chap ter</w>
ch airs</w>
calcul ate</w>
c rops</w>
ben utze</w>
ban ks</w>
aston ishing</w>
ash ed</w>
Wür den</w>
Wer den</w>
Waff e</w>
Ver zwei
V ier</w>
Univers itäten</w>
Ungleich heit</w>
Um stände</w>
The orien</w>
T our
T ja</w>
Sti ft</w>
Stand ard</w>
Se bas
Schnit t
Sch on</w>
S par
S ong</w>
R over</w>
Pat ri
Män nchen</w>
My th
Motiv ation</w>
Lei d</w>
Kon gress</w>
J ill</w>
Internet s</w>
Inter pre
In stitut</w>
Ig nor
Hawai i</w>
Har ry</w>
Ha are</w>
H öl
H äu
Geheim nisse</w>
G uten</w>
G il
Flu g</w>
Fl asche</w>
F ischer
Eben en</w>
Dok tor</w>
Dok tor
Dien st</w>
Di alog</w>
C r
C H
Ben utz
Atlan ta</w>
An ti</w>
An ruf</w>
20 .000</w>
19 80</w>
Ü bung</w>
zu hören</w>
weib liche</w>
verst ec
ver arbeiten</w>
v est</w>
under lying</w>
un ehmen</w>
ug ly</w>
ti ans</w>
tex t
ter ia</w>
sym b
sp häre</w>
se ek</w>
schi cht</w>
s or</w>
ri mp</w>
re moved</w>
r is</w>
pre ced
pit ch</w>
physi cist</w>
out put</w>
ord nen</w>
ord entlich</w>
oo h</w>
ol a</w>
ni k</w>
neurosci ence</w>
net z</w>
m all</w>
li ze</w>
li mm
la yers</w>
l o</w>
jen em</w>
inn eren</w>
ima ging</w>
hr e</w>
har dly</w>
gros s</w>
go ver
glob alization</w>
foot print</w>
fo un
fest gestellt</w>
fa thers</w>
f i</w>
ex cell
ex akt</w>
esc ent</w>
erwar tete</w>
en ge</w>
el ing</w>
effizi ent</w>
e ch
druck s
dir ty</w>
diagra m</w>
di alog
com modi
colleag ue</w>
cha os</w>
capit a</w>
c ei
brea ks</w>
bot en</w>
berei t
bede ckt</w>
b ahn
aus macht</w>
aus gegeben</w>
appar ently</w>
ander s
am ie</w>
adap t</w>
Wi de</w>
W ein</w>
Ver teilung</w>
Ver anst
Tra de</w>
Toilet te</w>
T ell</w>
T ele
Syl via</w>
Su bst
Str and</w>
St ur
Sor ry</w>
Samm lung</w>
S hi
Ru f</w>
Ru anda</w>
Rau b
Pe ace</w>
Par tei</w>
Pap a</w>
Mat t</w>
M om</w>
Läch eln</w>
Lo gik</w>
L ass</w>
Kos ov
Jon athan</w>
Initi ative</w>
I ma
I BM</w>
Hand eln</w>
Glei chung</w>
For ce</w>
Fig ur</w>
Es sen
Da ve</w>
D un
Ch romos
Bro w
Bi ologen</w>
B la
An ge
A thei
A kt</w>
2 5
199 4</w>
üt end</w>
ö r</w>
änder te</w>
äl teren</w>
zwei tens</w>
y p</w>
wher eas</w>
versi ch
verl or</w>
verk ün
v ital</w>
under ground</w>
un likely</w>
tri g
transpar ency</w>
tan cy</w>
ta p</w>
t ability</w>
st ops</w>
st ap
st amm
small pox</w>
si x
sh ots</w>
se ats</w>
roman tic</w>
ro cks</w>
res pec
reduc tion</w>
poli tisch</w>
pi cking</w>
os yn
ori al</w>
ol era</w>
nach denkt</w>
mi ce</w>
ligh t
lich ung</w>
la id</w>
kre u
irgend welche</w>
integr ated</w>
inst al
ins gesamt</w>
inclu des</w>
in ch</w>
im plan
ier ungen</w>
he aven</w>
han ging</w>
h üb
h äss
h är
h nen</w>
gon na</w>
gl asses</w>
gi ble</w>
gewand t</w>
gestal tet</w>
fri ed
fol gte</w>
fi ber</w>
ex ter
eth ni
er setzt</w>
entde ckten</w>
ec tor</w>
e chtes</w>
diox id</w>
dark ness</w>
d ated</w>
conc ei
con tract</w>
con sequence</w>
cir ca</w>
bst off</w>
br en
berüh mt</w>
be trägt</w>
aus schließlich</w>
aus drücken</w>
at eri
arch ie</w>
an atom
al phab
al it
ab gesch
Zentr al
Z e
W äh
Vor der
Vol ks
V an
Terror isten</w>
T en</w>
Se attle</w>
Schwar ze</w>
Pos t
Parkin son</w>
P enn
Organis mus</w>
Mot or
Mon tan
Mil ch</w>
Mechan ismus</w>
Me tern</w>
Maß nahmen</w>
Lehr ern</w>
Lebens qualität</w>
Konzep te</w>
Kno pf</w>
K ong</w>
Jun i</w>
J up
J ay</w>
In te
I .</w>
Fre u
En zy
D inger</w>
D R</w>
Brust krebs</w>
Beij ing</w>
Be darf</w>
Bau ch
B ul
An griff</w>
Ameri kas</w>
6 4</w>
Än derung</w>
y l</w>
wor t</w>
w ütend</w>
w un
versch windet</w>
verrück te</w>
ver tical</w>
ver letzt</w>
ver langen</w>
ver gleich
ver gewal
vent ing</w>
ter te</w>
tel es
st y</w>
st res
st ets</w>
st eine</w>
si ge</w>
sel t</w>
se as</w>
schwer er</w>
schi enen</w>
sch lau</w>
refu ge
re gu
re act</w>
ra cy</w>
r unter
r um
pyra mid</w>
phys ischen</w>
photograph y</w>
os h</w>
or ous</w>
o is</w>
ni r
ni ght
musici ans</w>
ma cher</w>
le ep</w>
k tiert</w>
k in</w>
k ick</w>
k einem</w>
jen seits</w>
iz on</w>
initi al</w>
in hab
impro vement</w>
hil frei
hi a</w>
glob ally</w>
gh ters</w>
ge öffnet</w>
ge zwungen</w>
g ly</w>
f its</w>
et on</w>
erstaun lichen</w>
er fre
enth ü
einzig artig</w>
ein gehen</w>
dic ally</w>
di ving</w>
de bt</w>
consu me</w>
communic ations</w>
com pla
brie fly</w>
biolog ists</w>
be wäl
be darf</w>
announ ced</w>
an fängt</w>
agen cies</w>
accep ted</w>
ab sur
a es
Z iel
Verk ehr</w>
V ul
Tr ends</w>
Si x</w>
Schü lern</w>
San ta</w>
R ach
Qu anten
Proz ent
Pfer d</w>
P ur
P har
P C
Oper ationen</w>
N ich
Lei ter</w>
L ungen
L ED</w>
Kä mp
Kon stru
Kon kur
Kno chen
Kan di
K iste</w>
Je wish</w>
Hau t
Ger uch</w>
Gebäu des</w>
Flüssig keit</w>
Flü gel</w>
Flü cht
Fahrra d</w>
F utter</w>
En ga
Eis en
Dru ck
Diagn ose</w>
De partment</w>
Dat a</w>
D as
Chris tian</w>
Bru ce</w>
Blät ter</w>
B oo
Archit ekt</w>
An ges
A poll
199 5</w>
ät zung</w>
ät ten</w>
y outh</w>
y ours</w>
wa ffen</w>
w oods</w>
vorher sagen</w>
uni on</w>
ungspro zess</w>
um ent
tru cks</w>
tra gung</w>
tr äumen</w>
tie fen</w>
tie fe</w>
th iop
th a</w>
te ars</w>
t ap
syn thetic</w>
surpris ingly</w>
spectac ular</w>
sp in</w>
sozi aler</w>
shar p</w>
sexu elle</w>
schn elle</w>
schli mm</w>
s na
ridicul ous</w>
ri gi
re turned</w>
push ed</w>
prä z
pi g</w>
per pet
par ks</w>
on ally</w>
olog isch</w>
neighb or</w>
nahe zu</w>
musik al
land ed</w>
krank heiten</w>
konstru ieren</w>
kl ü
j i
hing ehen</w>
hel ic
ha gen</w>
gu ide</w>
gr enz
gr as</w>
gol f</w>
gewöhn liche</w>
gesto ßen</w>
fro g</w>
f usion</w>
er richten</w>
equ ality</w>
el eg
eleg ant</w>
ecos ystems</w>
e al</w>
dunk el</w>
discover ies</w>
dis tur
dis ch</w>
deli vered</w>
dau ghters</w>
da tions</w>
crimin als</w>
cr yst
con tra
bub bles</w>
be fes
anzu gehen</w>
an ic</w>
allge mein</w>
agri cultural</w>
afrikan ische</w>
acci dents</w>
a to</w>
Zufrie denheit</w>
Woh er</w>
Wir d</w>
Welt all</w>
Wat ch</w>
Videosp iele</w>
Versor gung</w>
Verkehr s
Ver brau
Therap ie</w>
TED Talks</w>
Stäm me</w>
Sovi et</w>
Sk y
Schul ter</w>
S top</w>
S am</w>
S P</w>
Orig ami</w>
Nach richten
Mo unt</w>
Man agement</w>
Mah l
Lu ther</w>
L ot
L ak
Krei slauf</w>
Kor allen
Konsu menten</w>
Ki ds</w>
Kap az
Journalis ten</w>
Ital y</w>
I .
Gi pfel</w>
Flug zeuge</w>
Flie ge</w>
Fe edback</w>
Eur o</w>
Eliz abeth</w>
Eing ri
D ün
C any
Budd h
Br ut
Blut gef
Bere chnungen</w>
B ack</w>
Ap pl
An weis
3 0
über lebt</w>
äu ft</w>
ähr ungs
yp e</w>
wri ters</w>
win d
wa ff
w ow</w>
vis ited</w>
virtu ellen</w>
ver teilen</w>
ver pflich
ver net
vari ation</w>
treat ments</w>
teen agers</w>
ta x
stran gers</w>
stor m</w>
st eigen
sk ull</w>
sil ent</w>
setz ungen</w>
separ ated</w>
sens ory</w>
secre ts</w>
schrei ten</w>
schrei be</w>
schaff te</w>
samm lung</w>
ri a</w>
resear cher</w>
remin ded</w>
quali ties</w>
profi tieren</w>
pos al</w>
pl ug</w>
op ens</w>
mix ed</w>
mit ted</w>
m ten</w>
m ier
lim b</w>
letz tlich</w>
leth al</w>
law yer</w>
künst liche</w>
künst ler
kop f</w>
kl ingen</w>
ir on
intri gu
ins ul
im i
hin sichtlich</w>
hil fe</w>
her es</w>
hei m</w>
h ost</w>
gewöhn lich</w>
getes tet</w>
gel aufen</w>
fü t
fab ul
erfü llt</w>
en counter</w>
el s
ek tar</w>
doc uments</w>
dinosau r</w>
cop es</w>
ci tizen</w>
chem ischen</w>
br ush</w>
billi g</w>
ber ry</w>
bedeut end</w>
b os
b elt</w>
auf merk
ass ist
ash es</w>
ari um</w>
antwor ten</w>
ange trieben</w>
an bieten</w>
all gemeinen</w>
alis ierten</w>
ab gesehen</w>
Z ut
Wis sens</w>
Wer ke</w>
Ur kn
Um gang</w>
U C
T än
Statisti k</w>
Sp it
Sp ie
Schwes tern</w>
Schlag zei
S af
Ru he</w>
Re gel
RN A</w>
Prot ein</w>
Pos ter</w>
Null sum
Mit glied</w>
Mei ster
M A
Kö pfe</w>
K y
K it
Juli a</w>
Jour nalist</w>
Is n</w>
Ill usion</w>
Her an
H itze</w>
Er staun
Ein blick</w>
E he
E .
Dor f
D ut
D ol
Coc a</w>
Ber lin</w>
An sichten</w>
An hän
4 3</w>
19 00</w>
wunder schönen</w>
wer det</w>
weap on</w>
we ak
w ein
vor stell
vor gestellt</w>
vi ously</w>
ver brauchen</w>
tri ct</w>
tra jec
ti ze</w>
ti m</w>
thir ds</w>
t nis
symb ols</w>
sp ot
sil ly</w>
sicher er</w>
sh ore</w>
senschaf ts
schreck liche</w>
sch es</w>
repor ts</w>
reduc ed</w>
re build</w>
psy cho
prof its</w>
predic tions</w>
pre cise</w>
poli tik</w>
photograp her</w>
pain ted</w>
on g
mo bil
mis st</w>
min i
m te</w>
lie b
li g
let t</w>
ko chen</w>
kan nten</w>
k ogni
jähr lich</w>
j ac
isol ated</w>
in formed</w>
ignor ance</w>
hin durch</w>
hall u
gl ad</w>
gi a</w>
ger weise</w>
gel ehrt</w>
geb ungen</w>
geb lieben</w>
foc using</w>
f it
es thes
erinn erte</w>
end ste</w>
em power
elec ted</w>
do zens</w>
dimen sion</w>
diction ary</w>
dialog ue</w>
determin ed</w>
dep th</w>
den de</w>
crimin al</w>
cli ents</w>
cir cles</w>
ch tern</w>
ch ief</w>
cap ability</w>
bro wn</w>
best eh
behaup te</w>
bedro ht</w>
be fassen</w>
bar ely</w>
aus reich
aus gebildet</w>
artic les</w>
answer ed</w>
Wat son</w>
Ver trau
Treib haus
Transpar enz</w>
Tr änen</w>
Te chnology</w>
Sp ur</w>
S exu
S eri
Pri or
Montan a</w>
McDon ald</w>
Lie fer
Letz tes</w>
L esen</w>
Ken ne
Inst all
Informa tion
Gestal tung</w>
Fahr zeuge</w>
F ünf
Ed ward</w>
E mi
D s</w>
Bürger meister</w>
Bl ü
Beh ör
Bedürf nis</w>
Bab y
B eri
Auswirk ung</w>
Al koh
Al as
öff nete</w>
Ö k
zusätz liche</w>
zukünf tige</w>
z iger</w>
y fish</w>
we h</w>
was h</w>
vor wärts</w>
vol can
ver liebt</w>
ver anst
um zusetzen</w>
tä gliche</w>
sur faces</w>
sugges ting</w>
sk raft</w>
sim ulation</w>
sha dow</w>
ser maßen</w>
sen ken</w>
sel y</w>
sch ä
sch izophren
s our
s ang</w>
rä um
ro lling</w>
res on
rep utation</w>
rar ely</w>
pro jekt</w>
pre v
pr äch
pos ter</w>
por tion</w>
nutri tion</w>
los er</w>
lin ke</w>
less ly</w>
law yers</w>
kompliz ierte</w>
kl ah
kil ometer</w>
k auft</w>
ir on</w>
industri es</w>
i le</w>
höch ste</w>
he ter
genoci de</w>
für chten</w>
fir ma</w>
fig uring</w>
fer tigen</w>
fac ility</w>
exp anding</w>
eval u
emer ge</w>
ein zusetzen</w>
dur fte</w>
dr ü
d ome</w>
consci ously</w>
conclu de</w>
cle ver
chimpanz ees</w>
bo om</w>
be wahr
be freien</w>
be et
bas ierte</w>
b alls</w>
auth or
auszu drücken</w>
architec tural</w>
archit ek
ap a
angeneh m</w>
ali ge</w>
aktu ellen</w>
ag an</w>
Wer ten</w>
T enden
Ser vice</w>
Sebas tian</w>
Sch il
Privat sphäre</w>
Poli zei
P R</w>
Oc ean</w>
O ut
O klah
Mil ch
Ma ils</w>
Ku h</w>
Kommunik ations
K en</w>
Juli an</w>
Intu ition</w>
In halte</w>
H ello</w>
Glüh bir
Gegen stände</w>
Fahr er</w>
Et wa</w>
Entwick lung
Em pathie</w>
De an</w>
DV D</w>
D ad</w>
Cl oud</w>
Bu il
Bes u
B rei
A th
A mp
3 0,000</w>
ö ten</w>
äu fer</w>
ähn liches</w>
zurück kommen</w>
zi elt</w>
zah lt</w>
yrami de</w>
wheel chair</w>
wat ers</w>
vor n</w>
verst ecken</w>
verr ingern</w>
ver tre
ver mittelt</w>
ver lang
ver bor
unterschei det</w>
uni versities</w>
un comfortable</w>
trau m
the ories</w>
th ick</w>
tex ts</w>
tar gets</w>
t one</w>
struggl ing</w>
str ates</w>
st ur
sp inal</w>
shel ter</w>
sh opping</w>
sent ences</w>
sens or</w>
scri p
re tin
ra ys</w>
pro per</w>
pre p
prep are</w>
poin ting</w>
p ump</w>
os ing</w>
origin ally</w>
orig in</w>
no is
neugieri g</w>
nachhal tige</w>
nachhal tig</w>
n i</w>
le eren</w>
key board</w>
kel ey</w>
insi ghts</w>
inev itable</w>
in ches</w>
ier endes</w>
identi fied</w>
ide mi
i ten</w>
heu tige</w>
hal ts
h emis
grand children</w>
gewinn t</w>
geschüt zt</w>
gefü llt</w>
ge ograph
ge gessen</w>
gather ing</w>
for gotten</w>
fill ing</w>
faszin ierende</w>
fail ing</w>
f ought</w>
expla ining</w>
erk unden</w>
er wachsen
er hielten</w>
enth usias
el op
ein schließlich</w>
ed ly</w>
ed ges</w>
dis ap
de cep
d ating</w>
cur ricul
cop yright</w>
collabor ative</w>
character istics</w>
cei ling</w>
bur ied</w>
bur ger</w>
bi olumin
be gun</w>
be droh
außergewöhn liche</w>
autonom ous</w>
auf nahmen</w>
au lt</w>
ath on</w>
at tract</w>
at titude</w>
app e</w>
ange kommen</w>
an xi
algorith m</w>
af el</w>
ach ed</w>
ab ol
Wo chen
Wil son</w>
Wei ter
Vis u
V iel</w>
Tri cks</w>
Th ail
Teles kop</w>
TED Global</w>
Strah lung</w>
Ster nen</w>
So ci
Sh ould</w>
Schnit t</w>
Sch am</w>
Rei ch</w>
Red wood</w>
Pri vi
Poli tik
Nutz er</w>
Nach frage</w>
Na z
N SA</w>
Mos kit
Mitt leren</w>
Lie bes
L is
L ag
Kö pfen</w>
Kon zent
K elly</w>
Jup iter</w>
Höh le</w>
Ge fahren</w>
Führ ung
Entwur f</w>
Ein heiten</w>
Dyn amik</w>
Durchschnit ts
Dar auf</w>
Dan ny</w>
D ist
Cra ig</w>
Chin es
Char akter
Budd ha</w>
Bro ad
Blick winkel</w>
Beweg ungs
Ber keley</w>
Bel ast
Aus gaben</w>
Ar du
Ar ch
Appl aus</w>
Ab fall</w>
A ca
A K</w>
2 .000</w>
überwäl ti
Än gste</w>
zus tim
zei chnung</w>
wu ch
wohl hab
wes enheit</w>
u c
tri be</w>
ti zed</w>
ten sion</w>
te ur
sub tle</w>
sti l</w>
sta irs</w>
so ap</w>
shif ting</w>
schwieri gen</w>
schie ben</w>
schaff ten</w>
res tor
rei ste</w>
rec ru
re ments</w>
re fri
refri ger
re det</w>
publi c
pros per
prin ted</w>
predic ted</w>
percei ve</w>
p lot</w>
ow ner</w>
n esses</w>
mor s</w>
men gen</w>
mal es</w>
lu x
li erte</w>
kon tin
kl us</w>
kin der</w>
k rat
k er
häus ern</w>
hoff nungs
ho l</w>
heim lich</w>
h oo
h itting</w>
go od
glück liche</w>
gemein nüt
g ner</w>
fortun e</w>
fl ung</w>
fab ric</w>
f ließen</w>
f lag</w>
exten ded</w>
expl os
expec tancy</w>
expan sion</w>
es is</w>
erle digen</w>
er fahr
dri vers</w>
disc uss</w>
dien st</w>
di ve</w>
des tin
cons istent</w>
cell ular</w>
bewe gte</w>
ber gen</w>
be tre
b ere</w>
b att
autom o
au l
assi gn
arri ve</w>
an cy</w>
allge meine</w>
aller y</w>
Wohl befinden</w>
Whe ther</w>
Ur he
Tal ent</w>
Sum me</w>
Sto ff</w>
Steu er
Stand punkt</w>
Sta tion</w>
Some body</w>
S D</w>
Russi an</w>
Pl äne</w>
Pho en
P iz
P ep
Oklah oma</w>
Ob viously</w>
Mo z
M r
Li chter</w>
Kontro ll
Ko operation</w>
Inter face</w>
I ron
Hin weis</w>
H ör
H ad
Grü n</w>
Go vern
Ger ade</w>
Fi f
Europ ä
Er wärmung</w>
Er schein
En th
De z
D AR
Chirur gen</w>
Chirur g</w>
Bei trag</w>
Be wohner</w>
Be denken</w>
B äumen</w>
Ani mation</w>
9 7</w>
4 4</w>
über prüfen</w>
ö fter</w>
zwei tes</w>
zu gleich</w>
wat ts</w>
was chen</w>
vi erten</w>
unter halb</w>
u h</w>
trau ri
tic ity</w>
thre w</w>
ter rit
ta kul
t une</w>
t ling</w>
sta aten</w>
st ausch</w>
sorg fäl
soldi er</w>
sit z
sh it</w>
scho ol
sch lussendlich</w>
repres entation</w>
regi me</w>
pro posed</w>
primar ily</w>
po et</w>
photograph ed</w>
pf ung</w>
par ties</w>
oxy tocin</w>
os es</w>
organis ation</w>
open ness</w>
observ ation</w>
nutz ten</w>
neuro log
n aked</w>
my th
mit tag</w>
meas ures</w>
lo h
li der</w>
le verage</w>
jen ige</w>
is ted</w>
instruc tions</w>
institu tion
immedi ate</w>
her an</w>
h öh
gu cken</w>
gh etti</w>
ger in</w>
gar an
fü gt</w>
fotograf iert</w>
fol ding</w>
fl ug</w>
feh len</w>
fe deral</w>
fa vor</w>
f ass
experim ent
ex ternal</w>
ernsth af
er fuhr</w>
entrepren eur</w>
enab led</w>
el and</w>
dr as
dom ain</w>
der ly</w>
demon stration</w>
dar y</w>
da k
d gets</w>
d bar</w>
con tain</w>
con fron
colon ies</w>
clim bing</w>
car ing</w>
c ab
bro ad</w>
bri llan
bl ät
bl ame</w>
bes ie
bed ingungen</w>
bas eball</w>
bac ks</w>
aus sen</w>
ath le
at ter</w>
arti stic</w>
analy ze</w>
al ty</w>
ac tivis
Zeit ungen</w>
Z wan
Z im
Wi thin</w>
W elle</w>
Un abhän
U p
T ed</w>
T ak
Strei t
Sti lle</w>
Sah ar
R ose</w>
R atten</w>
Quad rat</w>
Qu een</w>
Pat ent</w>
Par tei
P I
Oxy tocin</w>
Optim ismus</w>
Off ensicht
Oc tober</w>
Obje kten</w>
Maga zin</w>
Lau t
L K
Kön nte</w>
Kenne dy</w>
Kei th</w>
J ähri
Inter view</w>
I l
Hor izon
Him al
Geschle cht</w>
G as
Franc is</w>
Fernseh er</w>
Fantas ie</w>
Fabri ken</w>
Erfol gs
Er lau
Ehem ann</w>
E gal</w>
D opp
D al
Colum bia</w>
C as
C T</w>
Brü der</w>
An throp
An erkennung</w>
Abent euer</w>
A gen
199 0s</w>
ö st
ö l</w>
ärm sten</w>
zer r
wh ist
vulner ability</w>
virtu elle</w>
verlan gt</w>
ver häl
v y</w>
ut an</w>
ush ed</w>
us ti
ursprün gliche</w>
u a</w>
train ieren</w>
tra cks</w>
ti cket</w>
teil nehmen</w>
tei lte</w>
t ollen</w>
syn the
st um
st ain</w>
st abi
son der
smar ter</w>
sle eping</w>
sk i</w>
sh rimp</w>
sch lau
ri ers</w>
ri cher</w>
rest ore</w>
resili ence</w>
re view</w>
qu er</w>
qu elle</w>
pur sue</w>
pu pp
programm ieren</w>
pro vo
po t</w>
pl ing</w>
pharma c
per mission</w>
pe te</w>
paraly zed</w>
p ä
p ulation</w>
p here</w>
organiz ing</w>
on ist</w>
on ia</w>
off ici
o cortex</w>
nur ses</w>
num er
niedri g</w>
neu tr
nar row</w>
mp tions</w>
mo chte</w>
mechanis ms</w>
me al</w>
lan dete</w>
l ä
kon vention
komm st</w>
kom isch</w>
kehr te</w>
k lear
k an</w>
irgend was</w>
invol viert</w>
inst inc
imp acts</w>
il le</w>
h ackers</w>
h .</w>
gr ass
gest at
geh ör
g y
fragi le</w>
flo ws</w>
ff ekt</w>
fan cy</w>
fabul ous</w>
f isch</w>
ex por
es ti
erle digt</w>
er al</w>
end sten</w>
emerg ed</w>
ein ges
ei gung</w>
effizi enter</w>
e chter</w>
dum m</w>
dr ing
dolph in</w>
det ection</w>
datab ase</w>
da y
d in</w>
d .</w>
comp elling</w>
carto ons</w>
ca ke</w>
c able</w>
bo s</w>
bo ok
bere chti
bemerkens werte</w>
be zogen</w>
be ur
b nis</w>
audi o</w>
asch en
anxi ety</w>
ange passt</w>
an re
an geschaut</w>
a thei
Zu cker
Wieder auf
Wei ßt</w>
V äter</w>
Tür k
Transpor t
Temp o</w>
Te e</w>
Symmet rie</w>
St amm</w>
S ätze</w>
R ob</w>
Pra xis</w>
Pr o</w>
Pf lege</w>
Para dig
P ier
On kel</w>
Ok tober</w>
Off enheit</w>
O hr</w>
Ne ver</w>
Na i
Masch in
Man nes</w>
L A</w>
Kon ver
John ny</w>
J ag
Gl am
Gir l</w>
Ge we
Ge brauch</w>
Fing er
Far b
F DA</w>
Ethiop ia</w>
Erfin dungen</w>
Entschul digung</w>
Effek te</w>
Ch ild</w>
Bl ack</w>
B einen</w>
Arab ic</w>
Amazon as</w>
Aller dings</w>
Abhän gigkeit</w>
Aben dessen</w>
A gn
.or g</w>
über setzt</w>
är m</w>
zus ätzlich</w>
zu stand</w>
wunder vollen</w>
wunder schön</w>
what so
whatso ever</w>
west liche</w>
vie wed</w>
verhin dert</w>
ver heirat
ver braucht</w>
v ine</w>
unter halten</w>
ungeh euer</w>
un end
un en</w>
ump ing</w>
tro pic
tran sc
tr as
success fully</w>
stati c</w>
st ün
spek takul
sla very</w>
sk i
sit ze</w>
sicher stellen</w>
sen ior</w>
sch luss
scan ner</w>
s its</w>
s ern</w>
reli able</w>
re j
prä gt</w>
programm ing</w>
proble me</w>
prin ts</w>
passi ve</w>
partici pants</w>
pa irs</w>
on om
no ch
mul tin
minis terium</w>
meth ane</w>
mat rix</w>
li erung</w>
kombin ieren</w>
kn ü
kan ischen</w>
k ran
j ell
inter vention</w>
ig n
ig an</w>
i ans</w>
hear t
h aut</w>
ger ade
genau e</w>
ge webe</w>
för dert</w>
fi le</w>
expon ential</w>
expl osion</w>
et ed</w>
er zielen</w>
er fordert</w>
enter pris
eleph ants</w>
einzig artige</w>
eh st</w>
e ded</w>
durch zuführen</w>
durch s</w>
dr one</w>
di gte</w>
de uten</w>
de fe
d ress</w>
curren cy</w>
contro versi
confi dent</w>
co ok
clos ing</w>
ch ö
c ash</w>
br äu
beru f
ban on</w>
aus führen</w>
assu mptions</w>
assem bly</w>
ash ing</w>
ash a</w>
ari th
ar med</w>
ar den</w>
appe ar
and au
all zu</w>
ali en
aggressi ve</w>
ag ue</w>
ag anda</w>
activ ist</w>
a ßen</w>
a ders</w>
Zei chnungen</w>
Wis senschafts
Wech sel
War ren</w>
W her
W ellen
V inc
Tragö die</w>
Tit el
Thail and</w>
Th unf
Tes la</w>
T äuschung</w>
T w
Sus an</w>
Studi um</w>
Sti ck
Sonnen system</w>
Sequ enz</w>
Ri cht
Re fle
R ad</w>
Punk ten</w>
Produk tivität</w>
Ph an
P ause</w>
Nor damerika</w>
N ami
Mil o</w>
Me ere</w>
Mar gar
Man ager</w>
Ma ße</w>
M es
Leh re</w>
Lap tops</w>
Kön nten</w>
Ku gel</w>
Krie ge</w>
Kohlen dioxid</w>
K ür
J ur
Ingenie ur</w>
I N
H af
Gra vit
Gor don</w>
Glau be</w>
Fl ag
Febru ary</w>
F ör
F is
Er forschung</w>
Enga gement</w>
Energie verbrauch</w>
Energi en</w>
Einf ach</w>
E ve</w>
Depres sionen</w>
D y
Coun cil</w>
Car l</w>
C ho
Ber ühr
Be ach</w>
Banglad esh</w>
B ier</w>
B ess
Au th
Al pha</w>
6 ,000</w>
5 8</w>
3 8</w>
199 7</w>
über ein
ös ung</w>
äs thes
äch er</w>
zi vil
wä lte</w>
win ds</w>
wid men</w>
wert voll</w>
wan dern</w>
w ins</w>
vis ions</w>
vers amm
ver mehr
ut ral</w>
up set</w>
un certainty</w>
u bi
ts un
tru gen</w>
trans fer</w>
tradi tions</w>
th esen</w>
terror ists</w>
sym bol
städ tischen</w>
star tete</w>
spiel ten</w>
sp unkt</w>
sou thern</w>
sou p</w>
sor gt</w>
sinni g</w>
se chs
schle cht
ri vers</w>
ret t</w>
re venue</w>
re minds</w>
re ef</w>
ra gen</w>
ra ff
r ul
pro mote</w>
pro mot
pre chen</w>
per t</w>
particip ation</w>
pan els</w>
oper ations</w>
nu cle
mus lim
mira cle</w>
meas u
lie fer
li ath</w>
let zen</w>
krie ge</w>
kon zep
is st</w>
irgend einer</w>
inf ection</w>
ima gery</w>
ic on</w>
he bt</w>
gi e
gebäu de</w>
fo und
fo ods</w>
fer ences</w>
fan gs</w>
fa chen</w>
f iger</w>
es ie</w>
er fand</w>
en gen</w>
el tern</w>
el ang</w>
einz iger</w>
ei len</w>
dro me</w>
drama tisch</w>
dist ingu
deta illi
deli ber
de my</w>
cros sing</w>
cour t</w>
con temporary</w>
classi cal</w>
cer ti
bro chen</w>
bra in
bio diversity</w>
billi ger</w>
bi c</w>
bel ong</w>
bed ing
be ars</w>
b igkeit</w>
an ol</w>
an lage</w>
aktivi eren</w>
ag te</w>
ag on</w>
a qu
a a
Zu hör
Wär me</w>
Wi th
Th ird</w>
Th ings</w>
Te chn
Sü ß
St one</w>
Spiel zeug</w>
Sp ut
Sch lange</w>
Sahar an</w>
Rönt gen
Rhyth mus</w>
Reich weite</w>
Re den</w>
Re cht
R on</w>
R in
Por tu
Po esie</w>
Ph .D.</w>
P ul
O l
Ni ke</w>
N im
Ma i</w>
Lö wen</w>
L änge</w>
L yn
L ord</w>
Kosov o</w>
Kom p
Kohlen stoff
K äfer</w>
K ok
K ill
Jeff er
Ital ien</w>
Investi tion</w>
Institu tion</w>
Impf stoff</w>
Höl le</w>
H ut</w>
H osp
Gü te</w>
Gesundheits system</w>
Gesund heit
Gen ome</w>
Gegen stand</w>
Frem den</w>
Fig uren</w>
F i</w>
Erkenn tnisse</w>
E .</w>
Di esen</w>
Dan kes
Christ op
C oll
C le
C N
Band breite</w>
Aut ob
Auff assung</w>
Apoll o</w>
Amei se</w>
3 .000</w>
20 15</w>
ü re</w>
zw öl
z au
wirk ungen</w>
wel come</w>
war ning</w>
wal t</w>
ver doppelt</w>
v is</w>
unter richt</w>
unbelie vable</w>
ul tima
tu mors</w>
tro ver
tr ash</w>
th res
t le
suppor ted</w>
sugges ted</w>
stron gly</w>
str äger</w>
staat lichen</w>
sper son
spei chern</w>
sp ann
sis ters</w>
ru fe</w>
ro o
resist ant</w>
res sing</w>
religi ösen</w>
reduc ing</w>
re gung</w>
rap ed</w>
r ush</w>
prin ter</w>
pret end</w>
pleas ant</w>
physi cian</w>
perfe kten</w>
par tly</w>
pandem ic</w>
optim ism</w>
oc curr
o de</w>
neu lich</w>
mäch tige</w>
musici an</w>
mo graph
min es</w>
mer ely</w>
ma gical</w>
m mer
lös ung</w>
loc ated</w>
liber al</w>
le p
l ese</w>
l ant</w>
kontro lle</w>
kon kre
komplex er</w>
kommen den</w>
ko oper
je t</w>
j ü
it al
ish es</w>
ins ect</w>
industri elle</w>
in te</w>
in mitten</w>
ig sten</w>
ici ous</w>
hypo thesis</w>
her ein
hal tens</w>
hal ben</w>
h et
günsti g</w>
gr as
gol den</w>
gesch lossen
gef logen</w>
gar age</w>
fra m</w>
flo wing</w>
finanz iert</w>
finanz ieren</w>
ex tend</w>
eu ms</w>
erzäh lten</w>
er fasst</w>
entscheiden de</w>
enter ing</w>
engine ered</w>
en es</w>
en der
ek tion</w>
eingesch rän
der i
depres si
cy cles</w>
co vering</w>
categ ory</w>
cap abilities</w>
bu g</w>
bo und</w>
bi an</w>
bewer ten</w>
beschüt zen</w>
ben s
belie bt</w>
be dienen</w>
b ole</w>
aus ges
aufmerk sam</w>
auf recht</w>
anzu schauen</w>
am at
al ts
ak tivität</w>
agre ement</w>
ag gre
ad venture</w>
ach er</w>
Wörter buch</w>
Wor ld
Wol fram</w>
Win kel</w>
Wei bchen</w>
W ale</w>
W al</w>
W K</w>
Ver sagen</w>
Untersu chungen</w>
T ep
T ami
Spek tr
Soci ety</w>
Schwar z
Schau spieler</w>
Restau rants</w>
R ot</w>
Pi on
P y
O ft</w>
N one</w>
Mit ta
Mis chung</w>
M other</w>
Lebens raum</w>
Le one</w>
Kil o</w>
Ignor anz</w>
Heim at</w>
Har dware</w>
Groß vater</w>
Fü ßen</w>
Fl ächen</w>
Febru ar</w>
Fahr zeug</w>
Eng ine
Dez ember</w>
Den noch</w>
Dec ember</w>
Cor ps</w>
Cany on</w>
C lar
Be at
B ang
Auf trag</w>
Arz nei
Ardu ino</w>
Ar ctic</w>
Ange bot</w>
An zeichen</w>
All gemeinen</w>
Alas ka</w>
Al bert</w>
Aca demy</w>
198 0s</w>
197 0s</w>
17 .</w>
üs sen</w>
Är zten</w>
Ä thiop
zi p
win zige</w>
w olle</w>
verfü gen</w>
vac uum</w>
ungewöhn lich</w>
un preced
ul tra
u e
tä ten</w>
transp lant</w>
tr äch
to wer</w>
tiv al</w>
th an
ten ds</w>
t ack
subst anti
stri eren</w>
ste am</w>
ste al</w>
statt findet</w>
sozi ales</w>
skelet on</w>
si zed</w>
sho cking</w>
sen det</w>
schi ckt</w>
sch lei
sch il
sch ein</w>
sc ar</w>
rei ßen</w>
recy cl
r ut
r ab
programm iert</w>
pl um
ph osphor
on t
ol l</w>
od ds</w>
nur se</w>
neu esten</w>
ne utral</w>
mysteri ous</w>
mein t</w>
mag nific
m är
m in</w>
lo ves</w>
li ons</w>
li erten</w>
l as
kun fts
k ord</w>
k ern</w>
inves ting</w>
intu ition</w>
inst antly</w>
in cl
imp ul
her ein</w>
har vest</w>
gewis sermaßen</w>
gesch äft</w>
gere det</w>
ger issen</w>
g ungs
füh lten</w>
fäl lig</w>
funk tion</w>
fres sen</w>
fir es</w>
fin ed</w>
figur ation</w>
fes th
extin ction</w>
experim ental</w>
exper tise</w>
exis tier
excep tion</w>
et ab
estim ated</w>
en ables</w>
el f</w>
ein stellen</w>
econom ist</w>
drah t
discipl ine</w>
diffic ulty</w>
dies mal</w>
descri ption</w>
d ü
d son</w>
cy clo
cons ul
connec ts</w>
con tain
ck ens</w>
cir cul
chö n</w>
ch am
cent r
can e</w>
bu re
bl ö
bil l</w>
bi o</w>
be ängsti
be denken</w>
be achten</w>
assem ble</w>
an kommen</w>
amm ed</w>
am er</w>
am as</w>
adop ted</w>
ac re</w>
Wol ke</w>
Wohl tä
With out</w>
Wass erstoff</w>
Wah n
Vortra gs</w>
Ver lu
T en
T aten</w>
Super markt</w>
Sput nik</w>
Snow den</w>
Se e
Schwan z</w>
Sat ellit
Robot ern</w>
Re du
Power Point</w>
P ut</w>
Nah en</w>
Mach t
L ücke</w>
Korallen ri
Klima wand
Kinder sterblichkeit</w>
Je den</w>
Indi ens</w>
I M
Gr os
Gleich heit</w>
Geschichten erzäh
Genau so</w>
Gen en</w>
G ur
G ran
Früh ling</w>
F emin
Expl osion</w>
E d</w>
E S
Dre h
Di chte</w>
Dev elop
C ous
C os
C A</w>
Blo gs</w>
Betra chten</w>
Bei de</w>
Aut oren</w>
At em</w>
Anrei ze</w>
All tag</w>
Al tern</w>
Al an</w>
8 6</w>
5 2</w>
über prü
ä um
wi llig</w>
weiter machen</w>
we ek
war fen</w>
w ellen</w>
w ahn
verur teilt</w>
ver dopp
unpreced ented</w>
un fair</w>
tun a</w>
trä um
transl ated</w>
ti ps</w>
thre ats</w>
ter ror</w>
ter er</w>
tenden cy</w>
syn thes
suff ici
su es</w>
sto ß</w>
sta dium</w>
spezif ische</w>
some day</w>
she ets</w>
ser ver</w>
schi ff</w>
schi ckten</w>
schei tern</w>
sc ores</w>
sac red</w>
s ity</w>
s alt</w>
rop a</w>
regre t</w>
reali zing</w>
re chts
ra dically</w>
pro zess</w>
ph ony</w>
p ole</w>
p ause</w>
ou ter</w>
ot yp</w>
optim istisch</w>
on t</w>
ner ve</w>
moral isch</w>
mem es</w>
lo w
lik ationen</w>
laugh ing</w>
l ing
l ac
klass ische</w>
k ehr</w>
jud gment</w>
jell yfish</w>
irgend ein</w>
interessan tes</w>
inter estingly</w>
individu elle</w>
ier s</w>
i ens</w>
home work</w>
histor ic</w>
health ier</w>
han del</w>
ha fen</w>
gl ori
gewal tige</w>
g aps</w>
fort gesch
fac tories</w>
f ear
eth n
et ts</w>
ess oren</w>
er schien</w>
er s
en sure</w>
en danger
ec e</w>
e ath</w>
drei mal</w>
down load</w>
do od
dis crimin
dis cher</w>
der ing</w>
curricul um</w>
conduc ted</w>
competi tive</w>
civi c</w>
che ese</w>
char ges</w>
chan ces</w>
big u
berühm te</w>
behör de</w>
beantwor tet</w>
be zieht</w>
be grü
be endet</w>
b ell</w>
aus sah</w>
aus ger
at z
ar ray</w>
anti bio
anges ichts</w>
an stellen</w>
an halten</w>
an gem
alis ierte</w>
al co
aktivi ert</w>
ak adem
ac ou
Viel zahl</w>
Verletz ungen</w>
U V</w>
T our</w>
Stre ben</w>
Sim ulation</w>
Sch au</w>
Sch aff
Rei chtum</w>
R O
Proje kts</w>
Pflan zen
Op tion</w>
Not wen
Nor thern</w>
N eil</w>
N ad
Mittel punkt</w>
Mitta gessen</w>
Mikros kop</w>
M all</w>
Leist ungen</w>
La ke</w>
Krank heits
Kom promis
Imm uns
I Q</w>
Hosp ital</w>
H ill</w>
Glück licherweise</w>
Glet scher</w>
Gedan ken
Fil me
F it
E ll
Durch messer</w>
Di ffer
Di am
Dar win
Camer on</w>
C O</w>
Besch äf
Besch rei
Bang al
Bal ance</w>
B P</w>
Autor ität</w>
Ali ce</w>
Algorith mus</w>
überrasch ende</w>
über wachen</w>
über lassen</w>
über greif
zu halten</w>
wo zu</w>
wo ke</w>
wo durch</w>
wit ness</w>
wissenschaft lich</w>
wis s</w>
wirk ung</w>
wa days</w>
wa che</w>
w oo
vermu te</w>
verk ehr</w>
verdam mt</w>
ver sagen</w>
ver hält</w>
ver besser
ur ge</w>
tä tig</w>
transpor tieren</w>
transl ation</w>
trans form
trajec tory</w>
tra it</w>
toll es</w>
titu des</w>
thum b</w>
th west</w>
th ma</w>
tack le</w>
sy l
subst ance</w>
sub way</w>
sti g
steroi ds</w>
statt finden</w>
smo oth</w>
sl ums</w>
shi pping</w>
shel f</w>
sha hi
sch weren</w>
sau ce</w>
s es
rop e</w>
robo tics</w>
replic ate</w>
remember ed</w>
re y</w>
re cover</w>
qu ot</w>
pros thetic</w>
preser ve</w>
pe op
ote chnologie</w>
or n</w>
occur s</w>
nee dle</w>
ne k
ne at</w>
n ör
n test</w>
mith ilfe</w>
mit teilen</w>
mind set</w>
m old</w>
m apping</w>
lea p</w>
le ute</w>
kä me</w>
krei sen</w>
kon serv
kl er</w>
k ills</w>
k able</w>
j agen</w>
iss ance</w>
invest ors</w>
interpre tation</w>
individu ellen</w>
impro ving</w>
im por
hy bri
hun ting</w>
hilfrei ch</w>
hi ge</w>
herr scht</w>
hallu cin
h ill</w>
h h
gradu ally</w>
go d</w>
glam orous</w>
gene tics</w>
ge zeichnet</w>
ge dreht</w>
gather ed</w>
fol gten</w>
finanzi ellen</w>
fi ce</w>
faci lities</w>
esthes ia</w>
en sion</w>
en di
emplo yment</w>
ell a</w>
el derly</w>
ein geschlossen</w>
e Bay</w>
drän gen</w>
dra wings</w>
disco vering</w>
deta iled</w>
deser ve</w>
der zei
dar zustellen</w>
d at</w>
cra ck</w>
conver t</w>
conserv ative</w>
compassi onate</w>
com ment</w>
cl ay</w>
cht est</w>
chan nels</w>
cha o
bli cke</w>
bl asen</w>
biolog ist</w>
berühm ten</w>
bel ast
beeindruck end</w>
b oss</w>
b aum</w>
auth orities</w>
au g
ast s</w>
assu mption</w>
arti ges</w>
ari en</w>
an kommt</w>
al itäten</w>
aff ects</w>
a steroid</w>
Zwei ten</w>
Welt bank</w>
W ollen</w>
Vene zu
Ven us</w>
U shahi
Tenden z</w>
T op
Stor y
Stim mt</w>
St örungen</w>
Spre cher</w>
Som it</w>
Skulp tur</w>
Sit z</w>
Schokol ade</w>
Sau erstoff
S ach
S O
Regen wald</w>
Proz esses</w>
Offensicht lich</w>
N ick</w>
Mex i
Medi cal</w>
Margar et</w>
Mar ch</w>
L ine</w>
Ku chen</w>
Kre aturen</w>
Krank ensch
Kon zer
Kon z
K im</w>
Ital ian</w>
Hypo these</w>
Hilfs mittel</w>
Her kunft</w>
Ha i
Glam our</w>
Get rei
Geschma ck</w>
G a
F ür
F und</w>
F lus
F alle</w>
Er ziehung</w>
Ein richtung</w>
E G</w>
Dim ension</w>
C el
Beschrei bung</w>
Bes ten</w>
Ber gen</w>
Ber at
Be e
Bangal ore</w>
Aufl ösung</w>
Ar ten
Angestell ten</w>
ü bt</w>
ä ße</w>
ä ß
ß end</w>
Über zeugung</w>
Über gang</w>
wür dest</w>
wuch sen</w>
wachsen de</w>
vic tim</w>
vi bra
ver tik
ursprün glichen</w>
under s</w>
un vermei
ubi quit
u ps</w>
tra gic</w>
tisi eren</w>
th al
techn isch</w>
te ur</w>
tan gible</w>
t less</w>
sus pect</w>
su ck</w>
stri ke</w>
strei ten</w>
sti m
sta ying</w>
st rom</w>
sp iegel</w>
son sten</w>
see king</w>
sch wei
samm elt</w>
ri ll
ri cs</w>
restau rants</w>
rema ining</w>
profi le</w>
profession als</w>
pro jec
pharmac eu
peop les</w>
pas ste</w>
ow nership</w>
op er</w>
on en
ol ine</w>
ogra mm</w>
normal es</w>
nit ude</w>
nam en</w>
n ative</w>
miser able</w>
mis sion
masch inen</w>
man ager</w>
mag nitude</w>
lö schen</w>
lächer lich</w>
le ans</w>
la ke</w>
l ou
kur zer</w>
komplet te</w>
kl ug</w>
kl at
ka sten</w>
j umped</w>
it or</w>
inves ted</w>
her d</w>
help ful</w>
großarti ger</w>
gel d</w>
führ enden</w>
fl ächen</w>
fel der</w>
fantas tischen</w>
fa stest</w>
exc it
et tel</w>
est ly</w>
er öffnen</w>
entsch lossen</w>
em bo
ein gestellt</w>
ei gh
ec ological</w>
e ye
e gic</w>
drän gt</w>
dro pping</w>
dis tan
dis gu
di al</w>
dem ands</w>
dau er</w>
dam n</w>
d ged</w>
d eln</w>
d ei
cop ic</w>
comple ted</w>
comp re
comm and</w>
com pete</w>
com bat</w>
col ored</w>
c tive</w>
by e</w>
bom bs</w>
bet onen</w>
ben eath</w>
beg inne</w>
be wirkt</w>
außergewöhn lichen</w>
atem berau
as pi
ar in</w>
ans as</w>
an gles</w>
an giogen
ag ent</w>
a do</w>
Wider spruch</w>
Wet ter
Wer t
Wer be
W ün
W att</w>
Vorher sagen</w>
Verzwei flung</w>
V an</w>
Ul tr
Tä tigkeit</w>
Tok yo</w>
T sun
Str eit</w>
Stau b</w>
St ri
St ap
Sp uren</w>
Sl ums</w>
Sen dung</w>
Schwer kraft</w>
Schreib tisch</w>
Schi chten</w>
Sch izophren
S per
S eil</w>
Rück en
Rich ter</w>
Rei hen
R enn
Prot o
Pro be</w>
Prin c
Pan ik</w>
P ack
O E
Nor man</w>
Neu gier</w>
N in
Mich igan</w>
Mein ungen</w>
Lehr erin</w>
L as
Köni grei
Kredi t
Kranken häuser</w>
K ansas</w>
Jour nal</w>
Jeffer son</w>
Im pro
Hinder nisse</w>
Herz in
Hand lung</w>
Ge wohn
G all
Flug hafen</w>
Fel sen</w>
En tro
Elektron ik</w>
Dut ch</w>
Dru cker</w>
Di re
Del ph
Bo den
Beru fs
Au stausch</w>
Arbeitspl ätze</w>
Arbeitspl atz</w>
An ony
8 0ern</w>
4 6</w>
4 .000</w>
199 1</w>
überqu eren</w>
ön e</w>
än gen</w>
zz a</w>
wüs sten</w>
wün schen</w>
wunder voll</w>
woh nen</w>
wild life</w>
weal thy</w>
vorher seh
vor s</w>
vor an</w>
viel mals</w>
verrück ten</w>
verkauf te</w>
verbrei tete</w>
v ements</w>
up side</w>
uni gen</w>
un able</w>
um setzen</w>
um her
ubiquit ous</w>
tu bes</w>
trib utes</w>
tra ins</w>
top us</w>
tief greif
thro wing</w>
te en</w>
t anz
steu ert</w>
stere otyp
sp an</w>
soci ally</w>
sit z</w>
simul taneously</w>
sig ni
sich eren</w>
sho cked</w>
scan ning</w>
rub ber</w>
ri k</w>
reve als</w>
respon ses</w>
qu it</w>
publ ish</w>
präs ent
prison ers</w>
portra it</w>
pig s</w>
philosop her</w>
per n</w>
passen ger</w>
pac ked</w>
ordin arily</w>
orches tra</w>
on going</w>
on ale</w>
non profit</w>
m ische</w>
m i</w>
li gkeit</w>
l or
kür z
j azz</w>
it ems</w>
ish a</w>
inno cent</w>
ing o</w>
influ enced</w>
in ate</w>
immen se</w>
ih ood</w>
i da</w>
häu fig
hom eless</w>
hand ed</w>
gr en
glie dern</w>
glam our
gener ous</w>
gene tisch</w>
gene tically</w>
geläh mt</w>
gel ang</w>
gehol t</w>
fü llt</w>
freund lich</w>
f ung
exten sion</w>
ex pos
et own</w>
establ ished</w>
eri es</w>
ent le
engl ischen</w>
eng ines</w>
en ey</w>
em e</w>
e ers</w>
durchschnit tlich</w>
dr über</w>
dr ones</w>
de ar</w>
d rom</w>
cu ts</w>
coun ting</w>
conf used</w>
comput ation</w>
clo thing</w>
ck ily</w>
ch st</w>
can opy</w>
bre cher</w>
br eitet</w>
bel eu
bei zubringen</w>
be treten</w>
be ating</w>
bal an
aus gewählt</w>
auf geben</w>
attrac tive</w>
atom ic</w>
ap ers</w>
anony mous</w>
analog y</w>
air planes</w>
ac kt</w>
a issance</w>
Zi p
Z igar
Yo ung</w>
Y ves</w>
Woh nung</w>
Um gebungen</w>
Tur key</w>
Trop fen</w>
Tr ink
Sud an</w>
Su ch
St eine</w>
Sp ec
Se chs</w>
Sch ild</w>
R og
Princ eton</w>
Po cken</w>
Par ks</w>
O t
Mo on</w>
Mo MA</w>
Mel o
Medi c
Maga zine</w>
Lie der</w>
L ärm</w>
L ein
Kur zem</w>
Kor allen</w>
Ko ordin
Klimawand els</w>
Individu um</w>
Indi ans</w>
In tel</w>
Haw king</w>
Ha ar</w>
Go liath</w>
Gebur ts
Ge wäs
Frie dens
Frie d
Fo od</w>
Feu erw
Fel der</w>
En des</w>
Emi ly</w>
Einzel nen</w>
Diskus sionen</w>
Dis ney</w>
Dau men</w>
D ek
Compu ters</w>
Co ke</w>
Bu ches</w>
Bra d</w>
Bet eili
Besit z</w>
Besch eid</w>
Beh aup
B h
B A</w>
As s
Anti bio
5 0s</w>
4 0,000</w>
4 ,
3 .</w>
200 ,000</w>
199 6</w>
1, 5</w>
ät zt</w>
ß te</w>
Über zeug
zwei einhalb</w>
zent ren</w>
zei chn
z ent</w>
wor ms</w>
wei chen</w>
wahr haf
w age</w>
vot ing</w>
vor kommen</w>
viel erlei</w>
van ia</w>
un endlich</w>
un a</w>
trivi al</w>
ton gue</w>
tisi ert</w>
tis sues</w>
tion ally</w>
t ables</w>
syl vania</w>
stra ight
sh ilfe</w>
se ktor</w>
schreck lichen</w>
sc ratch</w>
sam es</w>
re fer</w>
r ings</w>
r ape</w>
prot es
pro found
profound ly</w>
pro ced
proced ure</w>
phan tom</w>
par ti
ou ts</w>
orig ins</w>
ori um</w>
oper a</w>
om ing</w>
ol as</w>
obstac les</w>
o ch
nutri ents</w>
mo bility</w>
ment ation</w>
mat ure</w>
ma yor</w>
ma gi
m asse</w>
lo cken</w>
lei tung</w>
l ügen</w>
l ungs</w>
l ingu
k ter</w>
k et</w>
journalis ts</w>
inter views</w>
impres sion</w>
il er</w>
ie ber</w>
häu figer</w>
hier für</w>
hand elte</w>
hal fen</w>
gr ess
gr au
glob aler</w>
gewöhn lichen</w>
gestat tet</w>
gesellschaft lichen</w>
gar bage</w>
ga ined</w>
fra ction</w>
fl our
fan ge</w>
f ate</w>
experi encing</w>
exp ecting</w>
erwäh nte</w>
entsprech end</w>
ent gegen</w>
enga gi
endanger ed</w>
en han
en counter
en cies</w>
ellit es</w>
eigent lichen</w>
e uren</w>
di c</w>
der te</w>
dent ally</w>
demo graphic</w>
deli very</w>
defini tiv</w>
cre w</w>
contra dic
con tribut
chni k</w>
bur st</w>
bur den</w>
bul b</w>
bri tischen</w>
blin dness</w>
biolog isch</w>
bes ides</w>
bere chnet</w>
beobach tete</w>
begr enz
b öse</w>
av oi
auf einander</w>
au to
at or
as sozi
ari ans</w>
ar res
al ei
air port</w>
ade qu
adap ted</w>
ad elp
accoun ts</w>
ab sichti
Wor tes</w>
W ut</w>
Völk ermor
V ie
Ushahi di</w>
Ur sprün
Unter hal
Ultr asch
Türk ei</w>
To de</w>
T esz
T al</w>
Sun day</w>
Sto ck</w>
Sta hl</w>
Span nung</w>
Span ish</w>
Sou thern</w>
Solar energie</w>
Skulp turen</w>
Schä del</w>
Schizophren ie</w>
Sch wä
Sch luss
S w
Roll stuhl</w>
Ro yal</w>
Re z
R on
R ollen</w>
R A</w>
Psych ologen</w>
Pro p
Privi leg</w>
Pl ay</w>
Phän om
Phil adelp
Or gan</w>
Musli me</w>
Mot oren</w>
Mo de
Lou is</w>
Leist ungs
Köni gin</w>
Kla vier</w>
Jack son</w>
J ord
J azz</w>
Invest oren</w>
Interak tionen</w>
Inter views</w>
In dex</w>
I di
Hü gel</w>
H os
H C</w>
Gre ek</w>
Ge ben</w>
G ut
G anz
Frü her</w>
Fett lei
Erlau bnis</w>
Entwick lungen</w>
Entschei d
Ein mal</w>
Daten bank</w>
Comp any</w>
Com ics</w>
Clu b</w>
Christop her</w>
Chin as</w>
Ch urch</w>
C I
Bi o</w>
Besit zer</w>
Bere chnung</w>
Bar ry</w>
Ball on</w>
B ör
Auf zeichnungen</w>
Ar gent
An wälte</w>
A mat
A ff
A T
9 00</w>
öl ker</w>
ökonom ischen</w>
zu einander</w>
wid ely</w>
wi es</w>
wh o
wer ben</w>
verr aten</w>
ver sions</w>
ven tionen</w>
veget ables</w>
u zin
tö tet</w>
tsun ami</w>
trau ma
ter ten</w>
tei ls</w>
suppor ting</w>
suff ered</w>
sub si
stän dige</w>
strat egic</w>
sti ll
stan de</w>
st ones</w>
spr ü
six th</w>
sinn voll</w>
simp li
sil ver</w>
signific antly</w>
sicher zustellen</w>
si der</w>
sand wich</w>
ries iger</w>
religi öse</w>
reflec tion</w>
realis tic</w>
re con
ra d</w>
r äumen</w>
pur suit</w>
pro je
pre cious</w>
pp t</w>
per formed</w>
p unk
p po
p eline</w>
ote chnology</w>
omet rie</w>
ome tern</w>
off ices</w>
ob jective</w>
noch mals</w>
niem andem</w>
mil l</w>
manufac tur
lo ads</w>
lit ten</w>
lie fen</w>
li ger</w>
li fes
lei tet</w>
klein eren</w>
inter net</w>
inclu ded</w>
imm ig
il a</w>
her bei
glück lichen</w>
gli mp
gener ating</w>
geh oben</w>
gefol gt</w>
gef il
ge trieben</w>
gan gs</w>
gan g
g uns</w>
g ging</w>
fol gen
flu g
far ms</w>
far ming</w>
f a</w>
exec u
erkan nten</w>
ent täu
ent rop
eng ed</w>
emotion alen</w>
em powered</w>
einzi g</w>
eg g</w>
ec raft</w>
e aten</w>
dr innen</w>
dr aussen</w>
dop amine</w>
differ enti
diagnosti ziert</w>
de vil</w>
d ressed</w>
d heit</w>
cot ton</w>
conc ert</w>
collap sed</w>
clos est</w>
cis ts</w>
ch ensch
c tica</w>
bur ned</w>
buil ds</w>
bran ch</w>
br inge</w>
bot tles</w>
bo ats</w>
bla h</w>
bewäl tigen</w>
besser er</w>
besch ei
berei tung</w>
belie ves</w>
bat s</w>
bab we</w>
b lieben</w>
b adly</w>
aus län
ast ers</w>
appro aches</w>
ap or
anz unehmen</w>
alog ie</w>
addi tional</w>
ach tung</w>
accep table</w>
ab y
Zusam men</w>
Y R</w>
Wher eas</w>
W ein
Verein ten</w>
Un gefähr</w>
Um frage</w>
Tö chter</w>
Trot z</w>
Tran sport</w>
Teles k
Ta i
T iger</w>
St att</w>
Sp äter</w>
Sol che</w>
So w
Sch alter</w>
S wiss</w>
S li
Rach el</w>
Produ kten</w>
Penn sylvania</w>
Pazi fik</w>
Notwen digkeit</w>
Netzwer ken</w>
Ner ven</w>
Na than</w>
Mat rix</w>
Mar ken
Ma c</w>
M ich</w>
Le ber</w>
Kop ie</w>
Konkur r
Kon sum</w>
Kol onie</w>
Klu ft</w>
K einer</w>
K as
Isl ands</w>
Interpre tation</w>
Hir n</w>
Gew inner</w>
G ary</w>
Funk tion
Fru cht
Feu er
F ett</w>
F BI</w>
ED I</w>
E din
Det ek
Dankes chön</w>
Cour t</w>
Bl asen</w>
Be feh
Austr ali
Asi an</w>
Antar ctica</w>
Ani ma
Al ters
A ge</w>
A C
2. 0</w>
19 45</w>
&apos; clock</w>
üh ungen</w>
üh len</w>
ös er</w>
ä ck
zustim men</w>
zu tief
y ota</w>
wis cht</w>
wid met</w>
whe els</w>
wachsen den</w>
vier tel</w>
vi br
verschm utzung</w>
vergröß ern</w>
v agina</w>
unter richtet</w>
un wahrscheinlich</w>
umge kehrt</w>
ul ated</w>
tri eben
tr ess</w>
thres hold</w>
threat ened</w>
ther mal</w>
th us</w>
t land</w>
syn drome</w>
su stain</w>
str ating</w>
story telling</w>
stimm ung</w>
st on</w>
schle chtes</w>
sch ätze</w>
sch r
sc ans</w>
sat ellites</w>
s ale</w>
rie ch
rema ined</w>
re efs</w>
r uss
r ischen</w>
r ische</w>
pur poses</w>
promis ed</w>
pro ph
po lit
pl ates</w>
phosphor us</w>
out ine</w>
ol en</w>
occasi onally</w>
near by</w>
ne ys</w>
ne ck</w>
mathema tische</w>
m ou
log isch</w>
lo west</w>
la y
kor rekt</w>
konsum ieren</w>
kombin iert</w>
je der
je denfalls</w>
incenti ve</w>
in dische</w>
impro ved</w>
hon ey</w>
high way</w>
her stellt</w>
hei ße</w>
hat ever</w>
hab its</w>
hab it</w>
großarti ges</w>
grand parents</w>
gra des</w>
gewand elt</w>
gentle man</w>
gem äß</w>
gel ingt</w>
gefähr liche</w>
ge eignet</w>
fo under</w>
flo gen</w>
flei sch</w>
fi bers</w>
f ischen</w>
europä ischen</w>
eur er</w>
ersch reck
err ors</w>
enti n</w>
ent en
el ite</w>
el en</w>
ein ig</w>
earli est</w>
dis trict</w>
di gi
dem o</w>
cos mic</w>
conveni ent</w>
compar ison</w>
cer em
categ ories</w>
bure au
break fast</w>
bre t
bo hr
beschrän kt</w>
beglei tet</w>
bas ieren</w>
bar ung</w>
b aten</w>
auf tauchen</w>
au stau
an ne</w>
ama z
all as</w>
ad y</w>
ab geschlossen</w>
W hatever</w>
Vor les
Vic tori
Ver pflich
Un sicherheit</w>
Tw enty</w>
Temp est</w>
Taus enden</w>
Tanz ania</w>
T we
T ul
Stand ards</w>
St recke</w>
St abilität</w>
Spei cher</w>
Skl aver
Secon dly</w>
Schrift steller</w>
Schla cht</w>
Schau spiel
Sch limm
Sch lag</w>
S ame</w>
Rom an
Ret tung</w>
Reihen folge</w>
Re chner</w>
Rak ete</w>
Pit ts
Philadelp hia</w>
Or chester</w>
O ut</w>
Nat asha</w>
N ik
Mo de</w>
Mik ro</w>
Liber ia</w>
L y
L O
Künst lerin</w>
Krei se</w>
Kre b
Kol um
Kl ar</w>
Kar to
Kan al</w>
J us
J amie</w>
Israel i</w>
Hei l
Hal tung</w>
Geh ör</w>
G ig
Ein wohner</w>
E duc
Dro hnen</w>
Dopp el
Die go</w>
Dal ai</w>
Co ast</w>
C af
Bran che</w>
Bom ben
Blo ck</w>
Betrie bs
Ban k
B lau</w>
Al phab
Ad res
A A</w>
19 70</w>
ökonom ische</w>
äl testen</w>
äch en
zz y</w>
zutief st</w>
zu machen</w>
wüs ste</w>
wor rying</w>
wir es</w>
wichti ges</w>
wer ken</w>
wechsel t</w>
war st</w>
w et
viel falt</w>
verheirat et</w>
verbr ennen</w>
ver sen</w>
ver i
ver fahren</w>
un cle</w>
typ ischen</w>
trans forming</w>
train iert</w>
tima cy</w>
ter rain</w>
tal en</w>
sym bo
survi ved</w>
stor ed</w>
stand ar
st ability</w>
spezif ischen</w>
sich ere</w>
si r</w>
sh ed</w>
se as
schrit t
resi dents</w>
re ver
re ven
re geln</w>
radik al</w>
r über</w>
r ina</w>
puzz les</w>
pro ven</w>
pri de</w>
predic tion</w>
pre vention</w>
pos ted</w>
pl ätze</w>
per to
p ein
os ter
ob serve</w>
nach läs
my th</w>
my sti
motivi ert</w>
monit oring</w>
mod elle</w>
man agers</w>
m äh
m ing
lok al</w>
lea ther</w>
lea f</w>
le i</w>
kö mm
kti ver</w>
klin ische</w>
klapp t</w>
it age</w>
ir ri
ir rational</w>
ir gend</w>
install ation</w>
inst ant</w>
initi ative</w>
initi ally</w>
ing ung</w>
inev it
illu strate</w>
il ty</w>
ier ungs
iP ad</w>
höch st</w>
hor mone</w>
hor mon
hor izon</w>
hal b
h len</w>
h aufen</w>
groß zü
gra vit
gg ers</w>
gesteu ert</w>
gest eckt</w>
gerei st</w>
gen ous</w>
gen er</w>
ge plant</w>
fru strated</w>
fre ue</w>
fre ely</w>
for got</w>
fi es</w>
ferti liz
f ts</w>
f eln</w>
ex cl
ethni c</w>
esz enz</w>
es ty</w>
erweiter t</w>
ersch wing
eri en</w>
eri c</w>
erfolgrei che</w>
er schafft</w>
em br
einzig artigen</w>
effek tiver</w>
e ters</w>
durch laufen</w>
dr um</w>
distin ct</w>
dis ability</w>
deu tet</w>
cro p</w>
corpor ations</w>
controversi al</w>
contin ents</w>
com ic</w>
co ole</w>
class rooms</w>
ci a</w>
cho osing</w>
camp s</w>
ca ves</w>
c tu
brü che</w>
beteili gen</w>
beschleunig t</w>
belie b
begri ffen</w>
ausreich end</w>
auf zunehmen</w>
auf stehen</w>
ari ties</w>
architek ton
appear ance</w>
am bigu
akzep tiert</w>
activ ely</w>
activ ate</w>
a im
a .m.</w>
Zen timeter</w>
Wirt schaft
Willi ams</w>
Wi chtigkeit</w>
War en</w>
Vor bild</w>
Venezu ela</w>
Tor onto</w>
Tel escope</w>
Te am
Sym bole</w>
Spr ung</w>
Spie gel
Sk ala</w>
Sei fe</w>
Sch ad
S can
Ros s</w>
R ett
Pil ot</w>
Phan tom</w>
OE CD</w>
O liver</w>
Neu e</w>
N est</w>
Mä use</w>
MR T</w>
L ama</w>
Kul tur
Kat rina</w>
In sul
I M</w>
Horizon t</w>
Heran gehensweise</w>
Her steller</w>
H ear
Gri ff</w>
Gra ham</w>
Gel ände</w>
Gefäng nis
Gar age</w>
G är
G ood
Fron t</w>
Fot ografie</w>
Fel d
Fas ern</w>
Far m</w>
F ris
Erzäh lung</w>
Er weiter
Er schaff
Er nst</w>
Edin burgh</w>
D ef
C her
Bestand teil</w>
Bee tho
Be dauern</w>
Bas eball</w>
Arm strong</w>
An atom
Am ster
Ab stand</w>
A gr
A ffe</w>
A O</w>
4 .</w>
4 .
199 3</w>
18 .</w>
1 40</w>
üt te</w>
üh t</w>
über denken</w>
zentr alen</w>
z ungs
yo to</w>
y ourselves</w>
x on</w>
wör tlich</w>
wor m</w>
woll t</w>
wie gt</w>
whe at</w>
we l</w>
wach te</w>
w rap</w>
veröffent lichte</w>
verzwei felt</w>
vergewal tigt</w>
ver sagt</w>
ver li
ver leihen</w>
v ar
ut el
ur i
u x</w>
typ ische</w>
transpor tiert</w>
tic ism</w>
th or
technolog ische</w>
technolog ie</w>
tau schen</w>
ta tive</w>
syn ap
studi erte</w>
straight forward</w>
sto ck
steh len</w>
st ück
st el</w>
spre cher</w>
speci alized</w>
sp ill</w>
sm iling</w>
sli me</w>
sk al
sig nature</w>
schwar zes</w>
schnit te</w>
schizophren ia</w>
sch er
sacri fice</w>
s wal
s ni
rob i</w>
re think</w>
ra tions</w>
ra il
prepar ing</w>
pot ent</w>
po ckets</w>
phenomen a</w>
pf ei
percei ved</w>
pe des
pan el</w>
p reis</w>
p ad</w>
ot ed</w>
oper ative</w>
off ering</w>
nun ft</w>
nu ts</w>
navi gate</w>
minim um</w>
merk wür
mensch lich</w>
maxim um</w>
li ament</w>
lad ung</w>
konstru iert</w>
klet tern</w>
kl are</w>
ju ven
je wel
inv asive</w>
intelligen ten</w>
ill umin
ignor ed</w>
ig n</w>
hi red</w>
hi ding</w>
head lines</w>
h ir
gän ger</w>
groß em</w>
gir l
gesün der</w>
gefü gt</w>
ge ar</w>
g ments</w>
g ases</w>
g ase</w>
fun ds</w>
fu er</w>
foun dations</w>
fil men</w>
ey ed</w>
excit ement</w>
erg än
entrop y</w>
entfer nten</w>
enni um</w>
enni fer</w>
encoura ged</w>
elem entary</w>
ein heit</w>
ec ology</w>
domin ated</w>
dic t
diagnos is</w>
defin ing</w>
continu ing</w>
comm ents</w>
com mit</w>
br eit</w>
bo ot</w>
bi al</w>
bewusst sein</w>
beschle unigen</w>
behaup tet</w>
b anden</w>
auf hin</w>
audi ences</w>
au to</w>
assi g
as is</w>
as en
argu ing</w>
appl ying</w>
al titude</w>
advan ces</w>
adminis tration</w>
achie vement</w>
ab sen
ab gel
Wel traum
Wel ches</w>
Wachst ums
Wa it</w>
Vinc i</w>
Ver nunft</w>
Ve ter
Urkn all</w>
Un glaub
Tradi tionen</w>
Tesz ler</w>
Subst anz</w>
Stra f
Sti pen
St ei
Sp ann
Sk ype</w>
Sec urity</w>
Sci enti
Sch äd
Ro ck</w>
R ennen</w>
Programmier er</w>
Produk tions
Plan ung</w>
Piz za</w>
P ent
Näch stes</w>
Nor way</w>
Nami bia</w>
Nai robi</w>
Mor al
Mo del</w>
M assen</w>
Lit tle</w>
Lit er</w>
Lat ein
La wr
Komment are</w>
K ün
K yoto</w>
K lar
J ennifer</w>
Happ y</w>
H mm</w>
H emis
Gu atem
Groß eltern</w>
Gr as
Form el</w>
Fli ck
Fil ter</w>
Ern ährungs
Entro pie</w>
Elektr onen</w>
E U</w>
Dire ktor</w>
Di kt
Com m
Can cer</w>
C op
C ape</w>
Bul g
Bom be</w>
Bes tim
Beobach tung</w>
Bab bage</w>
B enz
Auf klär
Ar my</w>
An trieb</w>
An alogie</w>
All gemein
Al though</w>
9 0ern</w>
4 50</w>
3 0.000</w>
ös s
zü chten</w>
zuzu hören</w>
zus p
zu gehen</w>
z enten</w>
y ield</w>
wo anders</w>
w ü
verwen deten</w>
verb al</w>
val ley</w>
v age</w>
ut y</w>
unk er</w>
un happy</w>
un aus
tra ce</w>
ti erung</w>
terri bly</w>
ter min
ter es</w>
tent ei
teles copes</w>
tatsäch lichen</w>
t ner</w>
surro unding</w>
super market</w>
stri p</w>
stret ch</w>
strah len</w>
st rie
spra y</w>
sp err
sol ches</w>
small est</w>
simpl er</w>
si ble</w>
sen sation</w>
sch äd
sch ufen</w>
sch rau
scen ario</w>
rück wärts</w>
reti rement</w>
resol ve</w>
res em
rel ief</w>
re präsentieren</w>
re actor</w>
raff in
radi o
qu een</w>
pros tate</w>
propor tion</w>
previ ously</w>
pres ents</w>
pra kti
planet ary</w>
pl er</w>
person alized</w>
pen et
par asi
ogra m</w>
offic er</w>
ob li
o zi
o bos</w>
net te</w>
neg ie</w>
natür licher</w>
n ell</w>
mu tig</w>
mon d</w>
mik ros
metap hor
mechan ics</w>
lux ury</w>
lo ck
lit z</w>
lich t
lich st</w>
li fel
leh nen</w>
legi timate</w>
lau ter</w>
lan es</w>
l abel</w>
krie gt</w>
kompliz ierter</w>
k top</w>
k ognitive</w>
je derzeit</w>
integri ert</w>
ine a</w>
industri ellen</w>
in son</w>
human itarian</w>
hemis phere</w>
har dest</w>
guaran tee</w>
gras p</w>
geomet ry</w>
gemein t</w>
gemein schaft
ge wiesen</w>
g y</w>
füh ls</w>
fokussi eren</w>
fing er
explor ed</w>
exp lic
es tate</w>
erwar teten</w>
erstaun t</w>
errei chte</w>
ermu tigen</w>
erlau bte</w>
erfü ll
er ec
ent zün
ent schul
disku tiert</w>
di erte</w>
des tiny</w>
d ot
d ation</w>
cri mes</w>
cri cket</w>
cour ses</w>
correc tly</w>
con tributed</w>
co in</w>
char akter
ch us
ch all
chall enged</w>
can cers</w>
bran ches</w>
br and
bor ed</w>
bom bar
bi en</w>
ber a</w>
benö tigte</w>
begri ff</w>
b ands</w>
b ak
az ier
aw k
aufre gende</w>
appro ved</w>
appro aching</w>
anspru chs
an ni
an lagen</w>
aller erst</w>
al in</w>
absur d</w>
ab ends</w>
Zeh n</w>
Wohn ungen</w>
Wis sens
Werk zeugen</w>
We g
Verk auf</w>
Ver mögen</w>
Ver haltens</w>
Urhe ber
Ur lau
Unternehmen s
Un til</w>
Toilet ten</w>
Ti bet</w>
TED M
Säuge tiere</w>
Swe eney</w>
Su pp
Stu fen</w>
Story Corps</w>
Spinn en
Sklaver ei</w>
Schwan ger
Schlagzei len</w>
S ei</w>
Rezep t</w>
Re fer
Q atar</w>
Pro vin
Pitts burgh</w>
Or leans</w>
Off en
Oberfl ächen</w>
O el</w>
Na del</w>
Mü he</w>
Mur ray</w>
Min der
Mem e</w>
M en</w>
Kor tex</w>
Koh le
Kn oten</w>
Ki bera</w>
K um
Jo el</w>
Jer sey</w>
Interessan tes</w>
Interess ante</w>
Inter viewer</w>
Hal f</w>
Gü ter</w>
Guatem ala</w>
Gr ös
G oo
G ast
Fri day</w>
Fran kl
Elektro den</w>
Di chter</w>
Demon stration</w>
D schi
D oc
D av
D allas</w>
D I
Cri cket</w>
Co ck
Car negie</w>
CA PT
C er
Buil ding</w>
Bro thers</w>
Bot h</w>
Bestand teile</w>
Ber n
B auch</w>
At ome</w>
Anweis ungen</w>
Antar ktis</w>
Anhän ger</w>
An walt</w>
Al len</w>
Ab u</w>
AR S</w>
197 5</w>
. -
än ger</w>
ä mp
zwöl f</w>
zu letzt</w>
zieh e</w>
zi p</w>
z elt</w>
wun dern</w>
work force</w>
wit n
war tete</w>
w ns</w>
visu alization</w>
vi vi
veröffent lichten</w>
vers etzen</w>
verr ing
verk ör
ver ni
unter einander</w>
unmittel bar</w>
un denen</w>
um fasst</w>
ultra viol
ul ating</w>
to es</w>
tig keits
ti fication</w>
ti ble</w>
ti a</w>
the ast</w>
ter ung</w>
teen age</w>
sur geons</w>
sub ur
stre cken</w>
stor age</w>
stei gern</w>
st ä
squ ee
spann end</w>
smo king</w>
sa ke</w>
res tric
reason able</w>
ra ge</w>
r ose</w>
qu et
psych op
psych ologist</w>
präz ise</w>
prot oc
profes sion</w>
pro pose</w>
poli tischer</w>
pi zza</w>
physi cists</w>
peac eful</w>
pal m</w>
pack age</w>
ot ten</w>
ot on
neurosci enti
männ liche</w>
motivi eren</w>
mos quit
mis sions</w>
mi um</w>
met abo
mes h</w>
maß nahmen</w>
mar sch
magnific ent</w>
lo an</w>
li ance</w>
lei ter</w>
lei det</w>
lehr t</w>
kontin u
kni fe</w>
k ingdom</w>
j usti
iz ieren</w>
invent or</w>
intro ver
intervie wed</w>
inter ior</w>
infec tions</w>
in as</w>
impres sive</w>
igh ty</w>
i x
househ old</w>
hon estly</w>
hol z</w>
hol ten</w>
helic opter</w>
gra ve</w>
gra m
gor geous</w>
go ds</w>
glam our</w>
gewal tigen</w>
gel ten</w>
fä higen</w>
fotograf ieren</w>
fortgesch ritten
for schen</w>
fin dung</w>
f ische</w>
expres sions</w>
ex pedition</w>
et al</w>
estim ates</w>
erst mals</w>
erk rank
ent ran
encoura ging</w>
en .</w>
emplo yed</w>
empf eh
el ess
durch aus</w>
don or</w>
do te</w>
denk st</w>
den ial</w>
custom er</w>
cool er</w>
contr ary</w>
continu ous</w>
constra ints</w>
conduc tor</w>
con vic
con vey</w>
comp eting</w>
com edy</w>
col or
co vers</w>
cli ent</w>
cl ue</w>
ck le</w>
civiliz ations</w>
circu its</w>
ci ally</w>
chus etts</w>
ca p</w>
blan k</w>
belie ving</w>
be fand</w>
be auf
aus wählen</w>
at titudes</w>
ass ets</w>
anzu wenden</w>
antwor tet</w>
ann ual</w>
ann a</w>
angeb oten</w>
an fall</w>
ali gen</w>
al ter
afri ka</w>
ade mi
absen ce</w>
ab led</w>
ab gele
a den
Win dows</w>
Wei ßen</w>
Verletz lichkeit</w>
Verhaltens weisen</w>
V ölker</w>
U sing</w>
Th rough</w>
Tas chen</w>
TEDM ED</w>
Sta ch
Sp ain</w>
So ft
Sk ep
Sei de</w>
Sch ie
S ex
S ac
Robot er
Ri ves</w>
Ran de</w>
R am
Qu e
Palest ini
Oze ans</w>
O .
Ni cht
Nep al</w>
N ev
Mär kten</w>
My steri
Mos es</w>
Met all</w>
Merk male</w>
Massa chusetts</w>
Mar t</w>
Li chts</w>
Lawr ence</w>
Lad y</w>
L unge</w>
Kol lege</w>
Kat astrophen</w>
K han</w>
Je doch</w>
I van</w>
I ts</w>
Höh len</w>
H olo
Gu ar
Größen ordnung</w>
Gol den</w>
Gerü st</w>
Ge wis
Frankl in</w>
Forsch ungen</w>
F ros
F G</w>
Exper te</w>
Erkrank ung</w>
Ein führung</w>
E di
Dör fer</w>
Durch bruch</w>
Dur ing</w>
D ow
Col om
CAPT CH
Bu ck
Bild schir
Bel eu
Be zir
BM W</w>
B ären</w>
B lau
B ahn
Anges icht</w>
Al most</w>
Ab sichten</w>
9 9
7 6</w>
6 .</w>
4 9</w>
2, 5</w>
1 60</w>
1 25</w>
än gt</w>
zwan zig</w>
zu verläs
y land</w>
woh nern</w>
wick elt</w>
wes entlichen</w>
wen dig</w>
we ge</w>
wander ing</w>
w ling</w>
volunte er</w>
verwir r
versor gt</w>
versch l
verl or
verknü pft</w>
ur t</w>
[...]
